{
  "version": "1.0",
  "truncation": null,
  "padding": null,
  "added_tokens": [
    {
      "id": 0,
      "content": "[PAD]",
      "single_word": false,
      "lstrip": false,
      "rstrip": false,
      "normalized": false,
      "special": true
    },
    {
      "id": 1,
      "content": "[UNK]",
      "single_word": false,
      "lstrip": false,
      "rstrip": false,
      "normalized": false,
      "special": true
    },
    {
      "id": 2,
      "content": "[CLS]",
      "single_word": false,
      "lstrip": false,
      "rstrip": false,
      "normalized": false,
      "special": true
    },
    {
      "id": 3,
      "content": "[SEP]",
      "single_word": false,
      "lstrip": false,
      "rstrip": false,
      "normalized": false,
      "special": true
    },
    {
      "id": 4,
      "content": "[MASK]",
      "single_word": false,
      "lstrip": false,
      "rstrip": false,
      "normalized": false,
      "special": true
    }
  ],
  "normalizer": null,
  "pre_tokenizer": {
    "type": "ByteLevel",
    "add_prefix_space": true,
    "trim_offsets": true,
    "use_regex": true
  },
  "post_processor": null,
  "decoder": null,
  "model": {
    "type": "Unigram",
    "unk_id": null,
    "vocab": [
      [
        "[PAD]",
        0.0
      ],
      [
        "[UNK]",
        0.0
      ],
      [
        "[CLS]",
        0.0
      ],
      [
        "[SEP]",
        0.0
      ],
      [
        "[MASK]",
        0.0
      ],
      [
        "Ġ",
        -1.9355698089003432
      ],
      [
        "s",
        -3.1811983291001376
      ],
      [
        "Ġthe",
        -3.3002257677120674
      ],
      [
        ",",
        -3.439214601698314
      ],
      [
        ".",
        -3.661649599413172
      ],
      [
        "Ġof",
        -4.028412182398597
      ],
      [
        "ed",
        -4.067627193197977
      ],
      [
        "Ġand",
        -4.151318010675988
      ],
      [
        "a",
        -4.177185038602742
      ],
      [
        "@",
        -4.2503848014785
      ],
      [
        "Ġto",
        -4.358584751779187
      ],
      [
        "Ġin",
        -4.368639978419022
      ],
      [
        "d",
        -4.513706306501803
      ],
      [
        "y",
        -4.535178776529788
      ],
      [
        "ing",
        -4.614663195431577
      ],
      [
        "=",
        -4.683538128306825
      ],
      [
        "\"",
        -4.727119440085447
      ],
      [
        "Ċ",
        -4.902004526867886
      ],
      [
        "Ġwas",
        -5.021606976836361
      ],
      [
        "on",
        -5.07761403659708
      ],
      [
        "'",
        -5.144194149078647
      ],
      [
        "ĠThe",
        -5.15830122320952
      ],
      [
        "-",
        -5.21746744737305
      ],
      [
        "e",
        -5.2535930198946605
      ],
      [
        "ly",
        -5.276603081731128
      ],
      [
        "Ġbe",
        -5.402160144230949
      ],
      [
        "Ġthat",
        -5.421462682239564
      ],
      [
        "Ġwith",
        -5.437450722257276
      ],
      [
        "Ġas",
        -5.443214796824327
      ],
      [
        "Ġfor",
        -5.4477865592587165
      ],
      [
        "t",
        -5.467141277490564
      ],
      [
        "Ġby",
        -5.579693954744744
      ],
      [
        ")",
        -5.585083278829087
      ],
      [
        "(",
        -5.586083487288638
      ],
      [
        "Ġis",
        -5.629425249533412
      ],
      [
        "Ġfrom",
        -5.879578370063527
      ],
      [
        "Ġhis",
        -5.938817236898343
      ],
      [
        "Ġat",
        -5.97356494235979
      ],
      [
        "Ġwere",
        -6.077437673434227
      ],
      [
        "n",
        -6.0813350335973535
      ],
      [
        "Ġit",
        -6.095644199283129
      ],
      [
        "Ġan",
        -6.255873223605088
      ],
      [
        "ĠIn",
        -6.266239842287275
      ],
      [
        "Ġhe",
        -6.266978432774673
      ],
      [
        "ĠâĢ",
        -6.323432444582515
      ],
      [
        "Ġhad",
        -6.329870877917372
      ],
      [
        "Ġwhich",
        -6.35729504792385
      ],
      [
        "en",
        -6.38486318948687
      ],
      [
        "o",
        -6.407009234473971
      ],
      [
        "l",
        -6.45124031426753
      ],
      [
        "0",
        -6.462105893373389
      ],
      [
        "2",
        -6.467380705940613
      ],
      [
        "Ġare",
        -6.513529326607058
      ],
      [
        "er",
        -6.552687366573375
      ],
      [
        "3",
        -6.57852687542532
      ],
      [
        "ĠA",
        -6.580788941987715
      ],
      [
        ";",
        -6.629617382525227
      ],
      [
        "Ġ200",
        -6.636960638687761
      ],
      [
        "5",
        -6.640695565857271
      ],
      [
        "ies",
        -6.645586853381106
      ],
      [
        "Ġnot",
        -6.646520495194158
      ],
      [
        "al",
        -6.646834959781112
      ],
      [
        "Ġtheir",
        -6.653976314047043
      ],
      [
        "Ġbut",
        -6.668785109138183
      ],
      [
        "i",
        -6.680084115382206
      ],
      [
        "th",
        -6.681314426797314
      ],
      [
        "Ġfirst",
        -6.685865326955618
      ],
      [
        "ĵ",
        -6.693655324386803
      ],
      [
        "4",
        -6.717861589677705
      ],
      [
        ":",
        -6.7338341614440065
      ],
      [
        "es",
        -6.746087572547291
      ],
      [
        "also",
        -6.749634448500645
      ],
      [
        "Ġher",
        -6.750932681464754
      ],
      [
        "Ġor",
        -6.800744193484498
      ],
      [
        "6",
        -6.802130795019753
      ],
      [
        "h",
        -6.811611031869742
      ],
      [
        "r",
        -6.829122257483986
      ],
      [
        "Ġhave",
        -6.832533742400656
      ],
      [
        "Ġits",
        -6.848544686911422
      ],
      [
        "Ġone",
        -6.8518049736142075
      ],
      [
        "Ġhas",
        -6.863405144152027
      ],
      [
        "9",
        -6.891762761137258
      ],
      [
        "Ġtwo",
        -6.894554431205858
      ],
      [
        "Ġwho",
        -6.896539550486757
      ],
      [
        "8",
        -6.898161269086758
      ],
      [
        "ĠHe",
        -6.92145224462833
      ],
      [
        "in",
        -6.929405812887435
      ],
      [
        "7",
        -6.937362995370394
      ],
      [
        "Ġthis",
        -6.945281442391584
      ],
      [
        "m",
        -6.9627765923358655
      ],
      [
        "ĠI",
        -6.970148901545443
      ],
      [
        "1",
        -6.988657831517937
      ],
      [
        "Ġyear",
        -6.992386064603404
      ],
      [
        "Ġ201",
        -6.999520544888916
      ],
      [
        "Ġother",
        -7.038736547849764
      ],
      [
        "ĠIt",
        -7.058711121711467
      ],
      [
        "Ġafter",
        -7.088185630849885
      ],
      [
        "Ġtime",
        -7.123690461875215
      ],
      [
        "us",
        -7.151180876715714
      ],
      [
        "Ġinto",
        -7.179147895914074
      ],
      [
        "Ġwould",
        -7.219490413482316
      ],
      [
        "ĠB",
        -7.220640836352392
      ],
      [
        "Ġuse",
        -7.245114236185156
      ],
      [
        "Ġmore",
        -7.247014031176539
      ],
      [
        "Ġhim",
        -7.2547645213118415
      ],
      [
        "Ġover",
        -7.281186008379455
      ],
      [
        "ember",
        -7.286065390316586
      ],
      [
        "Ġall",
        -7.3162273662867525
      ],
      [
        "Ġ1",
        -7.3216366022398525
      ],
      [
        "Ġwhen",
        -7.350067682119368
      ],
      [
        "ĠC",
        -7.354463226726067
      ],
      [
        "Ġup",
        -7.354791121926141
      ],
      [
        "Ġshe",
        -7.362242406328041
      ],
      [
        "Ġgame",
        -7.369268028734169
      ],
      [
        "c",
        -7.378984185348642
      ],
      [
        "during",
        -7.387724923646951
      ],
      [
        "land",
        -7.405029507306647
      ],
      [
        "ary",
        -7.409259436662506
      ],
      [
        "Ġmost",
        -7.410604520390151
      ],
      [
        "ever",
        -7.44139664338783
      ],
      [
        "tween",
        -7.443007430153435
      ],
      [
        "Ġ199",
        -7.444980390607678
      ],
      [
        "about",
        -7.451327625684494
      ],
      [
        "only",
        -7.457538658824766
      ],
      [
        "an",
        -7.463181871367148
      ],
      [
        "Ġagain",
        -7.473370330111199
      ],
      [
        "Ġthree",
        -7.478439906889343
      ],
      [
        "Ġinclud",
        -7.47999796910321
      ],
      [
        "ĠOn",
        -7.484869336593478
      ],
      [
        "Ġseason",
        -7.4875834459099755
      ],
      [
        "ish",
        -7.505041928985515
      ],
      [
        "Ġthan",
        -7.509412035645086
      ],
      [
        "Ġsome",
        -7.5103197952092495
      ],
      [
        "ĠF",
        -7.522815171991628
      ],
      [
        "Ġthrough",
        -7.527444361852563
      ],
      [
        "Ġpart",
        -7.5311274816608345
      ],
      [
        "ce",
        -7.53176773476869
      ],
      [
        "ĠS",
        -7.544711054539574
      ],
      [
        "Ġlater",
        -7.547995189477608
      ],
      [
        "Ġwhile",
        -7.56262849381877
      ],
      [
        "Ġout",
        -7.565064981770303
      ],
      [
        "w",
        -7.566649267685959
      ],
      [
        "Ġplay",
        -7.567200022691657
      ],
      [
        "made",
        -7.568110715900783
      ],
      [
        "Ġfilm",
        -7.56814844269861
      ],
      [
        "Ġthem",
        -7.57451352919184
      ],
      [
        "Ġnew",
        -7.576828443482863
      ],
      [
        "able",
        -7.605524883985877
      ],
      [
        "u",
        -7.6200526074478
      ],
      [
        "f",
        -7.623337855194418
      ],
      [
        "ity",
        -7.625699692197782
      ],
      [
        "such",
        -7.641450029967453
      ],
      [
        "Ġwhere",
        -7.642750801174401
      ],
      [
        "Ġsecond",
        -7.645917105600668
      ],
      [
        "Ġnumber",
        -7.658019137045239
      ],
      [
        "Ġsong",
        -7.659006028824752
      ],
      [
        "ĠNew",
        -7.661700294567764
      ],
      [
        "Ġname",
        -7.66772732748692
      ],
      [
        "ĠM",
        -7.6723073631755785
      ],
      [
        "Ġfollow",
        -7.674361141153276
      ],
      [
        "Ġunder",
        -7.67508227678571
      ],
      [
        "ĠT",
        -7.676769097586455
      ],
      [
        "ĠThis",
        -7.678346609329915
      ],
      [
        "out",
        -7.678848630586086
      ],
      [
        "came",
        -7.685697374523031
      ],
      [
        "Ġrecord",
        -7.688556362534705
      ],
      [
        "Ġ000",
        -7.6905340833040245
      ],
      [
        "Ġrelease",
        -7.69421947235295
      ],
      [
        "Ġalbum",
        -7.694245323626459
      ],
      [
        "Ġwork",
        -7.7018654837892315
      ],
      [
        "Ġbefore",
        -7.702372299060919
      ],
      [
        "gan",
        -7.721762571391813
      ],
      [
        "Ġcall",
        -7.722472305238439
      ],
      [
        "ĠU",
        -7.730575393476976
      ],
      [
        "though",
        -7.73434658902567
      ],
      [
        "Ġthere",
        -7.749151800844332
      ],
      [
        "Ġend",
        -7.754580635668686
      ],
      [
        "Ġcan",
        -7.762625703170822
      ],
      [
        "is",
        -7.770803781590744
      ],
      [
        "Ġhigh",
        -7.777087239846394
      ],
      [
        "Ġbeing",
        -7.78852398648097
      ],
      [
        "ĠState",
        -7.790060766667107
      ],
      [
        "ic",
        -7.804233020677128
      ],
      [
        "Ġseri",
        -7.809264409426365
      ],
      [
        "man",
        -7.809920395317092
      ],
      [
        "Ġboth",
        -7.80996504588989
      ],
      [
        "Ġde",
        -7.811616553632563
      ],
      [
        "Ġno",
        -7.813933633572914
      ],
      [
        "Ķ",
        -7.828454310258338
      ],
      [
        "Ġshow",
        -7.832814490928154
      ],
      [
        "Ġarea",
        -7.83394489268621
      ],
      [
        "/",
        -7.838773059176401
      ],
      [
        "Ġcentur",
        -7.840365505840885
      ],
      [
        "cause",
        -7.841151475421306
      ],
      [
        "Ġform",
        -7.8432630525534535
      ],
      [
        "Ġepisode",
        -7.848373130658616
      ],
      [
        "Ġknown",
        -7.849510458766111
      ],
      [
        "ĠUnit",
        -7.85566589323249
      ],
      [
        "round",
        -7.857884555282547
      ],
      [
        "Ġwell",
        -7.868122614667212
      ],
      [
        "ĠR",
        -7.86883318416546
      ],
      [
        "Ġ198",
        -7.870166245212047
      ],
      [
        "Ġlike",
        -7.872205799642484
      ],
      [
        "g",
        -7.8746143059222495
      ],
      [
        "and",
        -7.884952833654993
      ],
      [
        "Ġmany",
        -7.885690599676347
      ],
      [
        "Ġfound",
        -7.895793740379972
      ],
      [
        "Ġlong",
        -7.908326029241783
      ],
      [
        "est",
        -7.912567506705522
      ],
      [
        "Ġstate",
        -7.928623801757794
      ],
      [
        "Ġfour",
        -7.932304294476909
      ],
      [
        "ĠAfter",
        -7.938751100610644
      ],
      [
        "le",
        -7.939276915947951
      ],
      [
        "Ġun",
        -7.94388448711529
      ],
      [
        "ĠAmerican",
        -7.947672316591817
      ],
      [
        "Ġ194",
        -7.949235169904815
      ],
      [
        "Ġsevera",
        -7.971099042207211
      ],
      [
        "Ġteam",
        -7.971765632293934
      ],
      [
        "Ġnear",
        -7.97451745533665
      ],
      [
        "Ġ196",
        -7.975204328240882
      ],
      [
        "Ġlarge",
        -7.983982666597567
      ],
      [
        "Ġ197",
        -7.984093047100177
      ],
      [
        "Ġ10",
        -7.988789234023562
      ],
      [
        "Ġremain",
        -7.99193311981968
      ],
      [
        "Ġearl",
        -7.997056181191506
      ],
      [
        "Ġforce",
        -7.997852111980775
      ],
      [
        "Ġcould",
        -8.007778350495123
      ],
      [
        "ĠAs",
        -8.008914281834624
      ],
      [
        "Ġso",
        -8.009755570827611
      ],
      [
        "Ġfinal",
        -8.016771966848728
      ],
      [
        "Ġdid",
        -8.019810981949934
      ],
      [
        "self",
        -8.025738190655215
      ],
      [
        "Ġalong",
        -8.034549749234552
      ],
      [
        "Ġmay",
        -8.042249473723043
      ],
      [
        "Ġbase",
        -8.043762804293678
      ],
      [
        "ĠBrit",
        -8.046815549208084
      ],
      [
        "Ġplace",
        -8.057561001734243
      ],
      [
        "Ġcharacter",
        -8.058591583361281
      ],
      [
        "um",
        -8.065907331614227
      ],
      [
        "ĠShe",
        -8.073647871388784
      ],
      [
        "Ġunti",
        -8.083208056183876
      ],
      [
        "Ġstart",
        -8.092454653131792
      ],
      [
        "Ġsame",
        -8.098195634952614
      ],
      [
        "Ġback",
        -8.099161607033105
      ],
      [
        "Ġoriginal",
        -8.10039676745374
      ],
      [
        "Ġcity",
        -8.10060752116149
      ],
      [
        "ĠP",
        -8.100613931804704
      ],
      [
        "ĠE",
        -8.101625428889173
      ],
      [
        "each",
        -8.107565626295134
      ],
      [
        "km",
        -8.111062941705882
      ],
      [
        "Ġmillion",
        -8.111670970294856
      ],
      [
        "ment",
        -8.112965707586246
      ],
      [
        "ĠAt",
        -8.113016145439953
      ],
      [
        "Ġpeople",
        -8.11328667898669
      ],
      [
        "Ġreturn",
        -8.114756026940853
      ],
      [
        "ry",
        -8.118294385411698
      ],
      [
        "ion",
        -8.12033336205171
      ],
      [
        "Ġday",
        -8.120572631980654
      ],
      [
        "Ġplayer",
        -8.126037794436254
      ],
      [
        "Ġmain",
        -8.130594374862902
      ],
      [
        "ĠWar",
        -8.131976413283772
      ],
      [
        "ĠHow",
        -8.137566805730959
      ],
      [
        "ĠMay",
        -8.13784258472852
      ],
      [
        "ation",
        -8.13916131858436
      ],
      [
        "ĠAugust",
        -8.140167633553869
      ],
      [
        "ber",
        -8.142848384214624
      ],
      [
        "Ġhow",
        -8.145521650024417
      ],
      [
        "ĠNorth",
        -8.149110988393154
      ],
      [
        "ĠJohn",
        -8.149608311849397
      ],
      [
        "ĠSouth",
        -8.150815971109834
      ],
      [
        "Ġdown",
        -8.164300308512423
      ],
      [
        "ĠO",
        -8.16442459150598
      ],
      [
        "k",
        -8.166705643545026
      ],
      [
        "ĠN",
        -8.168817460494704
      ],
      [
        "Ġsupport",
        -8.177652453433033
      ],
      [
        "Ġ195",
        -8.182766009413427
      ],
      [
        "ĠD",
        -8.184728356568673
      ],
      [
        "Ġsmall",
        -8.190757465545575
      ],
      [
        "%",
        -8.197546850348367
      ],
      [
        "Ġany",
        -8.200211582803298
      ],
      [
        "Ġset",
        -8.20216951097309
      ],
      [
        "ĠSept",
        -8.204546225204474
      ],
      [
        "Ġgroup",
        -8.20659573435237
      ],
      [
        "Ġoff",
        -8.207053713526197
      ],
      [
        "Ġlead",
        -8.207346512806797
      ],
      [
        "Ġlife",
        -8.210484737700241
      ],
      [
        "Ġship",
        -8.213387425523596
      ],
      [
        "ĠGerman",
        -8.215951066501253
      ],
      [
        "ten",
        -8.217421765503833
      ],
      [
        "ok",
        -8.219271023558399
      ],
      [
        "Ġ20",
        -8.221080427957009
      ],
      [
        "ĠWorld",
        -8.222850724539457
      ],
      [
        "Ġinclude",
        -8.224015754314474
      ],
      [
        "ĠAl",
        -8.225345866468635
      ],
      [
        "or",
        -8.233795010149553
      ],
      [
        "Ġfive",
        -8.238166687653614
      ],
      [
        "Ġsingle",
        -8.239422629943697
      ],
      [
        "Ġresult",
        -8.245230956213549
      ],
      [
        "these",
        -8.248543382041152
      ],
      [
        "Ġappear",
        -8.249890101734671
      ],
      [
        "Ġsai",
        -8.250584897832214
      ],
      [
        "Ġ191",
        -8.257032876880409
      ],
      [
        "Ġattack",
        -8.267226152477157
      ],
      [
        "Ġmusic",
        -8.273004984454321
      ],
      [
        "ĠDur",
        -8.27646532272269
      ],
      [
        "Ġown",
        -8.276859842925134
      ],
      [
        "ĠJune",
        -8.28076987541667
      ],
      [
        "Ġpoint",
        -8.283013410226612
      ],
      [
        "b",
        -8.286021927642464
      ],
      [
        "if",
        -8.291820147446057
      ],
      [
        "Ġorder",
        -8.297983337725494
      ],
      [
        "Ġsince",
        -8.303072549626979
      ],
      [
        "Ġwhat",
        -8.30414177002978
      ],
      [
        "S",
        -8.304697540405009
      ],
      [
        "Ġconsider",
        -8.307080684756233
      ],
      [
        "p",
        -8.30853011319742
      ],
      [
        "Ġtitle",
        -8.314396036516122
      ],
      [
        "Ġ12",
        -8.318776797422974
      ],
      [
        "Ġfamil",
        -8.330485506246584
      ],
      [
        "ĠMan",
        -8.331916546536952
      ],
      [
        "Ġlate",
        -8.336203440624109
      ],
      [
        "Ġwill",
        -8.337889542022477
      ],
      [
        "Ġal",
        -8.343901568764107
      ],
      [
        "ĠOcto",
        -8.348020820915503
      ],
      [
        "Ġlast",
        -8.348519602736388
      ],
      [
        "ĠThey",
        -8.349949916505928
      ],
      [
        "Ġsystem",
        -8.351967018628876
      ],
      [
        "Ġfeature",
        -8.352189815848849
      ],
      [
        "$",
        -8.354635761822909
      ],
      [
        "Ġweek",
        -8.355947212122537
      ],
      [
        "Ġhome",
        -8.362877127407431
      ],
      [
        "Ġ193",
        -8.364554085844599
      ],
      [
        "ĠAp",
        -8.366090776671669
      ],
      [
        "ril",
        -8.367918806878862
      ],
      [
        "rote",
        -8.369669708660997
      ],
      [
        "Ġmove",
        -8.371105043641943
      ],
      [
        "Ġline",
        -8.37320076082313
      ],
      [
        "ther",
        -8.37392369086396
      ],
      [
        "]",
        -8.374770667208331
      ],
      [
        "[",
        -8.374770667208331
      ],
      [
        "it",
        -8.381827530708854
      ],
      [
        "Ġworld",
        -8.382225466733939
      ],
      [
        "Ġrole",
        -8.382974113387348
      ],
      [
        "Ġtake",
        -8.383329976166753
      ],
      [
        "Ġdescribe",
        -8.38476356848153
      ],
      [
        "Ġnow",
        -8.385848112689402
      ],
      [
        "age",
        -8.388098375772696
      ],
      [
        "Ġmuc",
        -8.388896821528752
      ],
      [
        "Ġwon",
        -8.391752173859377
      ],
      [
        "Ġ15",
        -8.39785371516475
      ],
      [
        "Ġchild",
        -8.400322140107981
      ],
      [
        "Ġdue",
        -8.402627550270175
      ],
      [
        "Ġwar",
        -8.404283488514096
      ],
      [
        "Ġspecie",
        -8.404671556882816
      ],
      [
        "ese",
        -8.408802386891296
      ],
      [
        "ĠNov",
        -8.409265448434763
      ],
      [
        "Ġre",
        -8.411384270957306
      ],
      [
        "Ġ...",
        -8.411829507001713
      ],
      [
        "very",
        -8.41244316558587
      ],
      [
        "Ġdeath",
        -8.420792410703468
      ],
      [
        "Ġallow",
        -8.421375917343708
      ],
      [
        "Ġrun",
        -8.421665316524749
      ],
      [
        "ĠEngl",
        -8.423048036829798
      ],
      [
        "Ġgreat",
        -8.425481972999231
      ],
      [
        "ĠYork",
        -8.42620235540033
      ],
      [
        "Ġdirect",
        -8.429102253073335
      ],
      [
        "Ġreach",
        -8.432103451542222
      ],
      [
        "ĠJanu",
        -8.43213410774137
      ],
      [
        "ĠJul",
        -8.43674850596381
      ],
      [
        "Ġshort",
        -8.437198497753421
      ],
      [
        "Ġstorm",
        -8.43795034553732
      ],
      [
        "Ġleft",
        -8.440628783603227
      ],
      [
        "Ġcontinue",
        -8.440721430563968
      ],
      [
        "Ġcomplete",
        -8.443403286634434
      ],
      [
        "ĠDec",
        -8.443937459401813
      ],
      [
        "Ġgovernment",
        -8.44442276050691
      ],
      [
        "ren",
        -8.448412414855243
      ],
      [
        "Ġ30",
        -8.448776217008103
      ],
      [
        "Ġvideo",
        -8.449348106263743
      ],
      [
        "ĠK",
        -8.454308306743158
      ],
      [
        "Ġposition",
        -8.454704658291584
      ],
      [
        "ĠMarch",
        -8.456882353062912
      ],
      [
        "Ġattempt",
        -8.458152262268193
      ],
      [
        "Ġ19",
        -8.45972416986778
      ],
      [
        "Ġevent",
        -8.460723593419889
      ],
      [
        "ĠL",
        -8.461989303586485
      ],
      [
        "x",
        -8.462353667680343
      ],
      [
        "ĠNo",
        -8.463113680022566
      ],
      [
        "Ġgeneral",
        -8.464425567841829
      ],
      [
        "Ġthird",
        -8.468523459556764
      ],
      [
        "Ġ18",
        -8.46916160517981
      ],
      [
        "Ġdo",
        -8.47316982191526
      ],
      [
        "Ġsix",
        -8.479348707822002
      ],
      [
        "by",
        -8.481126926492923
      ],
      [
        "ĠAn",
        -8.48154544354069
      ],
      [
        "Ġprevious",
        -8.482016992656774
      ],
      [
        "Ġbecome",
        -8.482031636592389
      ],
      [
        "Ġnorth",
        -8.484459475402545
      ],
      [
        "Ġopen",
        -8.486997414186536
      ],
      [
        "z",
        -8.489812404565097
      ],
      [
        "Ġdesign",
        -8.489876475822342
      ],
      [
        "Ġmake",
        -8.497916159874224
      ],
      [
        "Ġschool",
        -8.498729648450993
      ],
      [
        "Ġbook",
        -8.500650022753657
      ],
      [
        "ton",
        -8.504862320747929
      ],
      [
        "Ġ192",
        -8.508849486229227
      ],
      [
        "Ġsouth",
        -8.51326206721017
      ],
      [
        "ĠH",
        -8.514127139712116
      ],
      [
        "Ġ25",
        -8.515784925106644
      ],
      [
        "Ġbuil",
        -8.51646391689958
      ],
      [
        "ĠRiver",
        -8.517442245726318
      ],
      [
        "Ġwater",
        -8.519875340705362
      ],
      [
        "Ġperform",
        -8.520270502560152
      ],
      [
        "Ġdevelop",
        -8.521513710101416
      ],
      [
        "ĠHis",
        -8.521774358928894
      ],
      [
        "ve",
        -8.526725279062422
      ],
      [
        "Ġjust",
        -8.52672922225461
      ],
      [
        "Ġmajor",
        -8.53441485269714
      ],
      [
        "Ġ16",
        -8.5388244051657
      ],
      [
        "Ġmonth",
        -8.539562208059486
      ],
      [
        "ĠWhen",
        -8.539580098230193
      ],
      [
        "ĠII",
        -8.541430724131022
      ],
      [
        "Ġbest",
        -8.542063466403885
      ],
      [
        "Ġversion",
        -8.544902353215281
      ],
      [
        "ĠUS",
        -8.546091138391441
      ],
      [
        "Ġ11",
        -8.54753468798696
      ],
      [
        "ive",
        -8.548879035265756
      ],
      [
        "Ġperiod",
        -8.55180746699806
      ],
      [
        "Ġeven",
        -8.554263412595247
      ],
      [
        "Ġchange",
        -8.557557496124126
      ],
      [
        "ĠThere",
        -8.559185463563015
      ],
      [
        "ĠNational",
        -8.562410124774653
      ],
      [
        "Ġmen",
        -8.563087184689731
      ],
      [
        "Ġlocal",
        -8.563610502326984
      ],
      [
        "nother",
        -8.563735660311936
      ],
      [
        "Ġreceive",
        -8.565043510597988
      ],
      [
        "Ġpublic",
        -8.576507782761299
      ],
      [
        "Ġclub",
        -8.58027407505621
      ],
      [
        "ĠSt",
        -8.583660835386597
      ],
      [
        "ness",
        -8.58422487989169
      ],
      [
        "Ġ14",
        -8.585718362978739
      ],
      [
        "Ġway",
        -8.591164132958792
      ],
      [
        "Ġestablish",
        -8.593385830286675
      ],
      [
        "ĠBe",
        -8.5991861164381
      ],
      [
        "Ġstill",
        -8.600107100272965
      ],
      [
        "ĠCit",
        -8.603270823903152
      ],
      [
        "Ġcareer",
        -8.60421555484941
      ],
      [
        "Ġ13",
        -8.606760123337818
      ],
      [
        "Ġgames",
        -8.607205847786116
      ],
      [
        "Ġcommon",
        -8.607283616064247
      ],
      [
        "Ġtop",
        -8.607697287973409
      ],
      [
        "Ġclose",
        -8.607792471888612
      ],
      [
        "Ġfire",
        -8.618148868662502
      ],
      [
        "ĠÂ",
        -8.618327612377632
      ],
      [
        "ĠBy",
        -8.619671250090573
      ],
      [
        "Ġpresent",
        -8.620532738328794
      ],
      [
        "Ġside",
        -8.621120791302616
      ],
      [
        "re",
        -8.621643931115754
      ],
      [
        "Ġsite",
        -8.622306220941436
      ],
      [
        "Ġ100",
        -8.62592340979689
      ],
      [
        "ĠDe",
        -8.627995314714054
      ],
      [
        "Ġlist",
        -8.632125299042126
      ],
      [
        "Ġhelp",
        -8.633285755586133
      ],
      [
        "Ġfew",
        -8.63329868519256
      ],
      [
        "Ġdamage",
        -8.634612694073578
      ],
      [
        "company",
        -8.635029529588577
      ],
      [
        "next",
        -8.636797757463217
      ],
      [
        "Ġhistor",
        -8.637214840042287
      ],
      [
        "Ġpower",
        -8.640781161286975
      ],
      [
        "Ġled",
        -8.641998536960967
      ],
      [
        "Ġoften",
        -8.64536553453668
      ],
      [
        "ĠEnglish",
        -8.64633472372547
      ],
      [
        "held",
        -8.647523152502625
      ],
      [
        "Ġarm",
        -8.647921749462402
      ],
      [
        "ĠFrench",
        -8.649207561385282
      ],
      [
        "Ġturn",
        -8.650799109521742
      ],
      [
        "ĠOne",
        -8.652200679740012
      ],
      [
        "Ġbuilding",
        -8.65303079399476
      ],
      [
        "Ġperformance",
        -8.656502731241112
      ],
      [
        "ĠJ",
        -8.659489687524655
      ],
      [
        "ĠTo",
        -8.661989557970372
      ],
      [
        "ĠAll",
        -8.665608442257886
      ],
      [
        "ĠFor",
        -8.66822038082514
      ],
      [
        "Ġwrit",
        -8.672149048933138
      ],
      [
        "Ġright",
        -8.674616927337427
      ],
      [
        "ĠWith",
        -8.675824379237358
      ],
      [
        "Ġyou",
        -8.679676006888801
      ],
      [
        "Ġlevel",
        -8.681858850697509
      ],
      [
        "ĠWal",
        -8.682168642370126
      ],
      [
        "Ġgo",
        -8.684692895215667
      ],
      [
        "Ġold",
        -8.685088538502256
      ],
      [
        "Ġclaim",
        -8.690576487394134
      ],
      [
        "Ġissue",
        -8.690629034956348
      ],
      [
        "ĠDivision",
        -8.691137369799005
      ],
      [
        "Ġsay",
        -8.693268140565593
      ],
      [
        "Ġtrack",
        -8.693625200202911
      ],
      [
        "spite",
        -8.69504388806126
      ],
      [
        "Ġcontain",
        -8.695136581590393
      ],
      [
        "Ġamong",
        -8.69670763765441
      ],
      [
        "Ġhalf",
        -8.69764852584843
      ],
      [
        "ers",
        -8.699084239964174
      ],
      [
        "Ġformer",
        -8.699443739559413
      ],
      [
        "Ġwant",
        -8.70429360058979
      ],
      [
        "Ġchurch",
        -8.705168838918524
      ],
      [
        "Ġtotal",
        -8.707126953509114
      ],
      [
        "Ġseven",
        -8.709858618485924
      ],
      [
        "Ġproduction",
        -8.713314156690794
      ],
      [
        "Ġfull",
        -8.715415384705182
      ],
      [
        "Ġsuggest",
        -8.717196629317531
      ],
      [
        "Ġpopulation",
        -8.717511132460412
      ],
      [
        "Ġevery",
        -8.72018727197867
      ],
      [
        "Ġreview",
        -8.721924956091804
      ],
      [
        "Ġ17",
        -8.722827706485056
      ],
      [
        "Ġfurther",
        -8.725217945954524
      ],
      [
        "Ġ21",
        -8.730087324907476
      ],
      [
        "Ġdifferent",
        -8.732361059605967
      ],
      [
        "ĠAccording",
        -8.73485367572087
      ],
      [
        "Ġsimilar",
        -8.735707592626841
      ],
      [
        "ĠChurch",
        -8.736788841391139
      ],
      [
        "Ġprovide",
        -8.742266430017228
      ],
      [
        "Ġ190",
        -8.746695026380483
      ],
      [
        "Ġmilitar",
        -8.74873540391911
      ],
      [
        "Ġparticular",
        -8.750512424832602
      ],
      [
        "Ġpass",
        -8.75190549254646
      ],
      [
        "Ġofficial",
        -8.752685756146146
      ],
      [
        "&",
        -8.754468828528385
      ],
      [
        "ebru",
        -8.754516172866655
      ],
      [
        "ĠG",
        -8.755590178370326
      ],
      [
        "Ġlive",
        -8.755817591694075
      ],
      [
        "Ġwin",
        -8.763851043739038
      ],
      [
        "ĠW",
        -8.766651016912187
      ],
      [
        "ĠLeague",
        -8.768446099590536
      ],
      [
        "Ġincrease",
        -8.77049321965459
      ],
      [
        "Ġstrong",
        -8.773725711145484
      ],
      [
        "Ġcontrol",
        -8.773859440192851
      ],
      [
        "Ġkill",
        -8.775220018714034
      ],
      [
        "Ġwide",
        -8.7758155340777
      ],
      [
        "ĠSong",
        -8.778684979449991
      ],
      [
        "Ġservice",
        -8.782613863119629
      ],
      [
        "gave",
        -8.786740787417692
      ],
      [
        "Ġfinish",
        -8.788491319254753
      ],
      [
        "Ġdefeat",
        -8.788746597990885
      ],
      [
        "stead",
        -8.791643755900886
      ],
      [
        "Ġhead",
        -8.792704559169454
      ],
      [
        "!",
        -8.79285736752667
      ],
      [
        "ĠDylan",
        -8.792858396505515
      ],
      [
        "Ġunit",
        -8.794286497051958
      ],
      [
        "el",
        -8.794904311870713
      ],
      [
        "Ġair",
        -8.796516803130668
      ],
      [
        "Ġcover",
        -8.797013571513485
      ],
      [
        "ĠPark",
        -8.797403357431186
      ],
      [
        "Ġreported",
        -8.804582663847958
      ],
      [
        "Ġproduce",
        -8.805249506553263
      ],
      [
        "Ġstory",
        -8.80551467525664
      ],
      [
        "Ġsongs",
        -8.807144846315321
      ],
      [
        "Ġhuman",
        -8.810078338580276
      ],
      [
        "ĠCount",
        -8.812126876045015
      ],
      [
        "ous",
        -8.818348658502906
      ],
      [
        "Ġfee",
        -8.820657727980326
      ],
      [
        "Ġmatch",
        -8.821391073212684
      ],
      [
        "Ġfield",
        -8.821707296423462
      ],
      [
        "ĠGeneral",
        -8.822119922806984
      ],
      [
        "Ġhav",
        -8.824174967159443
      ],
      [
        "Ġdays",
        -8.825372536867768
      ],
      [
        "Ġcritic",
        -8.828362682581513
      ],
      [
        "Ġregion",
        -8.830305368493498
      ],
      [
        "Ġeast",
        -8.830478670800801
      ],
      [
        "Ġmov",
        -8.830994324497542
      ],
      [
        "Ġ23",
        -8.831700570716997
      ],
      [
        "mm",
        -8.832313724545912
      ],
      [
        "ĠJapan",
        -8.832778743524749
      ],
      [
        "Ġwe",
        -8.833891354577705
      ],
      [
        "ern",
        -8.838847811177132
      ],
      [
        "Ġbody",
        -8.839819333866023
      ],
      [
        "seen",
        -8.840076368804805
      ],
      [
        "away",
        -8.841595606906836
      ],
      [
        "Ġtropic",
        -8.842137159049878
      ],
      [
        "Ġper",
        -8.842497108215792
      ],
      [
        "Ġ24",
        -8.843945258189523
      ],
      [
        "Ġproject",
        -8.845404430503322
      ],
      [
        "Ġwriting",
        -8.846696349373978
      ],
      [
        "ĠAmerica",
        -8.849951080808362
      ],
      [
        "Ġcountry",
        -8.85029074150205
      ],
      [
        "Ġyoung",
        -8.852339413114162
      ],
      [
        "lost",
        -8.853722424576615
      ],
      [
        "Ġwest",
        -8.854306165027657
      ],
      [
        "ism",
        -8.854851594889709
      ],
      [
        "given",
        -8.855192486345082
      ],
      [
        "ĠWhil",
        -8.857570357121178
      ],
      [
        "ĠArm",
        -8.859953049857339
      ],
      [
        "Ġmak",
        -8.86117363174202
      ],
      [
        "Ġthought",
        -8.864829607369112
      ],
      [
        "Ġstar",
        -8.866999837859467
      ],
      [
        "Ġappearance",
        -8.867894319001264
      ],
      [
        "Ġmembers",
        -8.86801378013729
      ],
      [
        "Ġrange",
        -8.869017222578911
      ],
      [
        "Ġoperation",
        -8.871050790068924
      ],
      [
        "Ġtour",
        -8.871251912022434
      ],
      [
        "Ġadd",
        -8.871871398865117
      ],
      [
        "Ġterm",
        -8.87342975164588
      ],
      [
        "went",
        -8.873471625043639
      ],
      [
        "ĠAward",
        -8.875006806926072
      ],
      [
        "Ġscore",
        -8.876220363176648
      ],
      [
        "Ġhouse",
        -8.876484387052502
      ],
      [
        "Ġdevelopment",
        -8.877023243122402
      ],
      [
        "Ġnever",
        -8.877977040177406
      ],
      [
        "Ġstyle",
        -8.879432102433178
      ],
      [
        "Ġpopular",
        -8.880276470289141
      ],
      [
        "ĠWest",
        -8.881100345493337
      ],
      [
        "ĠUniversit",
        -8.881977610717122
      ],
      [
        "Ġaward",
        -8.882114863399018
      ],
      [
        "Ġplan",
        -8.882133754587214
      ],
      [
        "ley",
        -8.886253320141432
      ],
      [
        "Ġaction",
        -8.887876714668732
      ],
      [
        "Ġdate",
        -8.88832324658867
      ],
      [
        "Ġdi",
        -8.888500846639158
      ],
      [
        "Ġ50",
        -8.890698018778611
      ],
      [
        "way",
        -8.891900711088066
      ],
      [
        "Ġ22",
        -8.892355652392627
      ],
      [
        "Ġtoward",
        -8.896141735113964
      ],
      [
        "ĠAustralian",
        -8.896844428089523
      ],
      [
        "Ġband",
        -8.90063434503024
      ],
      [
        "F",
        -8.901373223284878
      ],
      [
        "Ġscene",
        -8.906775018727917
      ],
      [
        "coming",
        -8.908359238311778
      ],
      [
        "Ġenter",
        -8.908695673243102
      ],
      [
        "Ġchart",
        -8.911389765608764
      ],
      [
        "Ġnovel",
        -8.912899000873217
      ],
      [
        "Ġhour",
        -8.913137425671533
      ],
      [
        "Ġjoin",
        -8.913505128548813
      ],
      [
        "ĠIre",
        -8.913544886121429
      ],
      [
        "ither",
        -8.917665569941718
      ],
      [
        "Ġcreate",
        -8.919045821421054
      ],
      [
        "thing",
        -8.919750754280345
      ],
      [
        "Ġbelieve",
        -8.921099189389693
      ],
      [
        "Ġ28",
        -8.921847084321431
      ],
      [
        "Ġisland",
        -8.922683207077391
      ],
      [
        "ĠYou",
        -8.922954612977577
      ],
      [
        "Ġlight",
        -8.92309199612713
      ],
      [
        "Ġ26",
        -8.923261633701525
      ],
      [
        "Ġsee",
        -8.924704344718517
      ],
      [
        "thos",
        -8.926765058850936
      ],
      [
        "across",
        -8.928118606477058
      ],
      [
        "Ġwriter",
        -8.928882208473578
      ],
      [
        "ĠBlack",
        -8.929408095865465
      ],
      [
        "Ġelement",
        -8.929483965781197
      ],
      [
        "less",
        -8.932530236479405
      ],
      [
        "felt",
        -8.934221782297056
      ],
      [
        "Ġlow",
        -8.93430149718257
      ],
      [
        "Ġroute",
        -8.936328062482069
      ],
      [
        "ĠLondon",
        -8.936593113073412
      ],
      [
        "A",
        -8.938356605043136
      ],
      [
        "Ġgood",
        -8.946180615564032
      ],
      [
        "ian",
        -8.946812305556996
      ],
      [
        "Ġtrain",
        -8.947941558745992
      ],
      [
        "Ġreal",
        -8.950935459540009
      ],
      [
        "ĠKing",
        -8.953565824744095
      ],
      [
        "ally",
        -8.954761193076124
      ],
      [
        "ĠAustralia",
        -8.958350394464292
      ],
      [
        "using",
        -8.959425212350043
      ],
      [
        "ĠV",
        -8.961931613075022
      ],
      [
        "Ġsignificant",
        -8.964207151520188
      ],
      [
        "Ġimportant",
        -8.968893095552875
      ],
      [
        "Ġroad",
        -8.969621617745293
      ],
      [
        "Ġinitial",
        -8.970458387688442
      ],
      [
        "aid",
        -8.971890779520677
      ],
      [
        "Ġreceiv",
        -8.974219172549008
      ],
      [
        "ist",
        -8.9742907770807
      ],
      [
        "Ġsign",
        -8.974302928554174
      ],
      [
        "ship",
        -8.975355965813844
      ],
      [
        "ical",
        -8.975554030370775
      ],
      [
        "Ġwhite",
        -8.975786598136805
      ],
      [
        "Ġfather",
        -8.977172748136415
      ],
      [
        "Ġact",
        -8.977267739428036
      ],
      [
        "Ġtown",
        -8.977337124241028
      ],
      [
        "Ġfemale",
        -8.977860092105816
      ],
      [
        "Ġtelevision",
        -8.977993500388234
      ],
      [
        "Ġstage",
        -8.979029324424676
      ],
      [
        "Ġeight",
        -8.979344997642139
      ],
      [
        "N",
        -8.982060658100643
      ],
      [
        "Ġvarious",
        -8.98283178855468
      ],
      [
        "Ġinterest",
        -8.982965665027086
      ],
      [
        "Ġminute",
        -8.985330018806735
      ],
      [
        "Ġblack",
        -8.990312592860604
      ],
      [
        "ĠJames",
        -8.990589119827266
      ],
      [
        "Ġmiles",
        -8.992180808265035
      ],
      [
        "nd",
        -8.99220406395117
      ],
      [
        "line",
        -8.995136427838123
      ],
      [
        "Ã©",
        -8.995191654819362
      ],
      [
        "ĠCompan",
        -8.997913627498027
      ],
      [
        "Ġsuccessful",
        -9.000516977142535
      ],
      [
        "Ġ27",
        -9.002339376391891
      ],
      [
        "Ġdoes",
        -9.00273913335668
      ],
      [
        "Ġless",
        -9.00540591914358
      ],
      [
        "Ġcase",
        -9.006139192441111
      ],
      [
        "Ġpeak",
        -9.006560533516453
      ],
      [
        "Ġpolitical",
        -9.008630679818854
      ],
      [
        "Ļ",
        -9.013097969019045
      ],
      [
        "Ġdiscover",
        -9.013579693629705
      ],
      [
        "Ġface",
        -9.020182983501883
      ],
      [
        "Ġpoem",
        -9.020904843457497
      ],
      [
        "Ġearlie",
        -9.0250442942348
      ],
      [
        "Ġlook",
        -9.025909298919068
      ],
      [
        "Ġexample",
        -9.02609336449731
      ],
      [
        "Ġneed",
        -9.026298408660704
      ],
      [
        "Ġmodern",
        -9.02795484374013
      ],
      [
        "Ġsent",
        -9.030709235386993
      ],
      [
        "Ġart",
        -9.032500239326268
      ],
      [
        "ĠRoad",
        -9.033944576989654
      ],
      [
        "Ġinfluence",
        -9.034210540363198
      ],
      [
        "Ġstation",
        -9.03683078484072
      ],
      [
        "Ġshould",
        -9.036860525515014
      ],
      [
        "Ġeffect",
        -9.038987758805698
      ],
      [
        "ch",
        -9.041151496436314
      ],
      [
        "ĠTw",
        -9.04212611473887
      ],
      [
        "Ġeventual",
        -9.044509864865038
      ],
      [
        "ance",
        -9.048665013707113
      ],
      [
        "at",
        -9.051956050524277
      ],
      [
        "Ġpublish",
        -9.052343893276207
      ],
      [
        "Ġstructure",
        -9.052564775012582
      ],
      [
        "ra",
        -9.052917725895501
      ],
      [
        "ĠWe",
        -9.055736148097296
      ],
      [
        "hind",
        -9.056873666815004
      ],
      [
        "Ġentire",
        -9.057818279305327
      ],
      [
        "Ġsuccess",
        -9.063207082060803
      ],
      [
        "Ġconstruction",
        -9.063452630723575
      ],
      [
        "Ġrepresent",
        -9.06552644177155
      ],
      [
        "Ġmid",
        -9.065656060639045
      ],
      [
        "K",
        -9.070967673180776
      ],
      [
        "most",
        -9.07419113140821
      ],
      [
        "v",
        -9.075577874369014
      ],
      [
        "Ġbird",
        -9.077546361577742
      ],
      [
        "Ġcome",
        -9.079006630977428
      ],
      [
        "Ġground",
        -9.079549672831773
      ],
      [
        "Ġnational",
        -9.079583920238594
      ],
      [
        "Ġleas",
        -9.08375428916725
      ],
      [
        "Ġtimes",
        -9.083965291711106
      ],
      [
        "other",
        -9.091799452367743
      ],
      [
        "once",
        -9.092965666222899
      ],
      [
        "Ġhurricane",
        -9.093322339813255
      ],
      [
        "Ġdebut",
        -9.098914719944036
      ],
      [
        "ĠCare",
        -9.099153332115069
      ],
      [
        "Ġword",
        -9.099698784117962
      ],
      [
        "Ġnoted",
        -9.10086967547108
      ],
      [
        "Ġdifficult",
        -9.101702264332873
      ],
      [
        "ĠKingdom",
        -9.101755980450433
      ],
      [
        "Ġcampaign",
        -9.104511328092492
      ],
      [
        "ĠIsland",
        -9.104737321059574
      ],
      [
        "C",
        -9.105754888756199
      ],
      [
        "ĠCup",
        -9.107647826518402
      ],
      [
        "Ġvictor",
        -9.110126443288964
      ],
      [
        "Ġperson",
        -9.111535078538285
      ],
      [
        "Ġ60",
        -9.112423512677125
      ],
      [
        "Ġaddition",
        -9.113073526933265
      ],
      [
        "Ġoffer",
        -9.116149966223922
      ],
      [
        "taken",
        -9.117524394236177
      ],
      [
        "littl",
        -9.118417435935061
      ],
      [
        "side",
        -9.119671635231544
      ],
      [
        "Ġgive",
        -9.120029779547895
      ],
      [
        "ĠHer",
        -9.120853738182262
      ],
      [
        "Ġhighway",
        -9.124928925497054
      ],
      [
        "Ġfight",
        -9.127315242657925
      ],
      [
        "Ġview",
        -9.131975524841929
      ],
      [
        "Ġ29",
        -9.13438575933143
      ],
      [
        "ĠLove",
        -9.134892536809776
      ],
      [
        "Ġget",
        -9.135320968031154
      ],
      [
        "ĠSome",
        -9.135516915481602
      ],
      [
        "Ġvisit",
        -9.135678674500692
      ],
      [
        "Ġexperience",
        -9.136313390992267
      ],
      [
        "Ġfigure",
        -9.136691199363376
      ],
      [
        "Ġmale",
        -9.139528467925897
      ],
      [
        "Ġcame",
        -9.1406207808609
      ],
      [
        "ĠBattalion",
        -9.141764819449236
      ],
      [
        "Ġreport",
        -9.143461887367565
      ],
      [
        "am",
        -9.144365900587689
      ],
      [
        "Ġman",
        -9.144566487269401
      ],
      [
        "Ġclass",
        -9.144595586522913
      ],
      [
        "Ġlocate",
        -9.144638486606194
      ],
      [
        "ĠDavid",
        -9.144688931655807
      ],
      [
        "Ġnight",
        -9.144729317763804
      ],
      [
        "Ġsouthern",
        -9.14497611211751
      ],
      [
        "ĠFrance",
        -9.145971027078023
      ],
      [
        "Ġwife",
        -9.146352331720692
      ],
      [
        "Ġcoast",
        -9.147920191268813
      ],
      [
        "Ġscor",
        -9.149038111612864
      ],
      [
        "Ġfree",
        -9.150943235656772
      ],
      [
        "Ġthough",
        -9.151240697416593
      ],
      [
        "ĠBrigade",
        -9.153512379200997
      ],
      [
        "Ġwomen",
        -9.1535125316592
      ],
      [
        "Ġstudy",
        -9.153955944579703
      ],
      [
        "Ġgoal",
        -9.154018844626464
      ],
      [
        "Ġ189",
        -9.154692543008444
      ],
      [
        "Ġguns",
        -9.155563093891423
      ],
      [
        "Ġcommand",
        -9.158200940339704
      ],
      [
        "Ġeastern",
        -9.162638510805476
      ],
      [
        "Ġlove",
        -9.163019425870335
      ],
      [
        "Ġcomment",
        -9.163629625025308
      ],
      [
        "Ġput",
        -9.1641246801867
      ],
      [
        "Ġmother",
        -9.166293701293803
      ],
      [
        "Ġpost",
        -9.166330435934764
      ],
      [
        "day",
        -9.166408800987586
      ],
      [
        "Ġrelationship",
        -9.16669152059724
      ],
      [
        "Ġborn",
        -9.166764578983877
      ],
      [
        "ĠGrand",
        -9.167484136472101
      ],
      [
        "ford",
        -9.168033798034983
      ],
      [
        "ĠRobert",
        -9.168635155286578
      ],
      [
        "toge",
        -9.168914433283621
      ],
      [
        "Ġofficer",
        -9.169268106530263
      ],
      [
        "wood",
        -9.169695953328995
      ],
      [
        "Ġimage",
        -9.172715150491044
      ],
      [
        "field",
        -9.17802428104724
      ],
      [
        "ĠOther",
        -9.178154109083744
      ],
      [
        "Ġexist",
        -9.182580777346807
      ],
      [
        "Ġrace",
        -9.18668858452833
      ],
      [
        "Ġ40",
        -9.1873405120879
      ],
      [
        "Ġfourth",
        -9.187906815330127
      ],
      [
        "ĠEurope",
        -9.189556643272915
      ],
      [
        "ĠEuropean",
        -9.190219260339616
      ],
      [
        "Ġprocess",
        -9.191284623924663
      ],
      [
        "ĠRoman",
        -9.19157868103515
      ],
      [
        "Ġage",
        -9.191621474393713
      ],
      [
        "Ġconsist",
        -9.19571785590668
      ],
      [
        "ĠMusic",
        -9.196390433018706
      ],
      [
        "Ġhit",
        -9.199544703391972
      ],
      [
        "Ġheavy",
        -9.201933654398694
      ],
      [
        "Ġmix",
        -9.202099342503862
      ],
      [
        "to",
        -9.202513281058973
      ],
      [
        "Ġidea",
        -9.203687674096773
      ],
      [
        "Ġstars",
        -9.20508429667925
      ],
      [
        "ĠGod",
        -9.205183389276513
      ],
      [
        "Ġdecided",
        -9.205972245144388
      ],
      [
        "ine",
        -9.206788436879926
      ],
      [
        "Ġproblem",
        -9.208154562716395
      ],
      [
        "ĠWhite",
        -9.208866983609171
      ],
      [
        "ĠMa",
        -9.211830581967224
      ],
      [
        "Ġcount",
        -9.213246994165662
      ],
      [
        "ium",
        -9.214062565478386
      ],
      [
        "Ġindividual",
        -9.2144139462744
      ],
      [
        "Ġdescrib",
        -9.215453868018992
      ],
      [
        "ĠWilliam",
        -9.216488490825494
      ],
      [
        "Ġdirector",
        -9.217185720909217
      ],
      [
        "Ġlack",
        -9.217594096035427
      ],
      [
        "Ġannounce",
        -9.21839545735186
      ],
      [
        "Ġsold",
        -9.218888186128716
      ],
      [
        "Ġnon",
        -9.220621270564326
      ],
      [
        "Ġcondom",
        -9.220731848180321
      ],
      [
        "brough",
        -9.220813577837866
      ],
      [
        "Ġmember",
        -9.221203997264187
      ],
      [
        "Ġmi",
        -9.221274611579663
      ],
      [
        "cy",
        -9.222679076592852
      ],
      [
        "Ġrule",
        -9.222848467622297
      ],
      [
        "ĠEarl",
        -9.223996783646431
      ],
      [
        "ĠEast",
        -9.224754705733611
      ],
      [
        "Ġprogram",
        -9.226012849182743
      ],
      [
        "ĠRoyal",
        -9.227112829804168
      ],
      [
        "Ġcenter",
        -9.227490334250131
      ],
      [
        "Ġrest",
        -9.228518910428988
      ],
      [
        "Ġcommunit",
        -9.23039506858398
      ],
      [
        "Ġbegin",
        -9.233800038449932
      ],
      [
        "Ġshot",
        -9.234700997867282
      ],
      [
        "read",
        -9.236885998236268
      ],
      [
        "Ġlimit",
        -9.237093323463686
      ],
      [
        "Ġvillage",
        -9.238725982623459
      ],
      [
        "Ġ188",
        -9.238826693892666
      ],
      [
        "Ġaccept",
        -9.240218666083333
      ],
      [
        "Ġ31",
        -9.242403392991733
      ],
      [
        "ĠFederer",
        -9.243078533537464
      ],
      [
        "Ġprotein",
        -9.243078670487144
      ],
      [
        "Ġhand",
        -9.247077696066599
      ],
      [
        "Ġfind",
        -9.247816427148424
      ],
      [
        "Ġcell",
        -9.25070255351149
      ],
      [
        "Ġmy",
        -9.250877138849194
      ],
      [
        "more",
        -9.25227266085712
      ],
      [
        "ĠInternational",
        -9.252818700946822
      ],
      [
        "Ġsource",
        -9.252819488654481
      ],
      [
        "ĠGeorge",
        -9.253132433870615
      ],
      [
        "Ġmanager",
        -9.25495259768648
      ],
      [
        "ather",
        -9.255581538725298
      ],
      [
        "Ġactivit",
        -9.256087128480125
      ],
      [
        "Ġgun",
        -9.257332815598286
      ],
      [
        "Ġlanguage",
        -9.259365296615481
      ],
      [
        "Ġlaunch",
        -9.262657532561686
      ],
      [
        "£",
        -9.264595612859157
      ],
      [
        "Ġregular",
        -9.265955337919031
      ],
      [
        "Ġme",
        -9.266459867308157
      ],
      [
        "Ġfront",
        -9.266566965214471
      ],
      [
        "ĠChristian",
        -9.267052144042975
      ],
      [
        "Ġcurrent",
        -9.267173247272805
      ],
      [
        "Ġfar",
        -9.267940074062299
      ],
      [
        "ĠPort",
        -9.269441642492684
      ],
      [
        "ĠHouse",
        -9.269623824181227
      ],
      [
        "BC",
        -9.271106395757881
      ],
      [
        "Ġcause",
        -9.273618703959432
      ],
      [
        "served",
        -9.27392533031895
      ],
      [
        "Ġdestroy",
        -9.275453802094253
      ],
      [
        "town",
        -9.276068300654064
      ],
      [
        "Ġvoice",
        -9.277942040391746
      ],
      [
        "Ġclear",
        -9.27914700178033
      ],
      [
        "low",
        -9.279221144486689
      ],
      [
        "Ġask",
        -9.279421127540267
      ],
      [
        "ĠHero",
        -9.279564111180147
      ],
      [
        "Ġyard",
        -9.279930693540923
      ],
      [
        "Ġbattle",
        -9.281000326594874
      ],
      [
        "ĠStreet",
        -9.28262225007649
      ],
      [
        "Ġopening",
        -9.284445313953292
      ],
      [
        "Ġ185",
        -9.284601082867347
      ],
      [
        "Ġtheme",
        -9.284733355614353
      ],
      [
        "Ġwall",
        -9.285509818212041
      ],
      [
        "Ġriver",
        -9.285735136990994
      ],
      [
        "ĠChampionship",
        -9.286005787165916
      ],
      [
        "Ġworks",
        -9.287212591989608
      ],
      [
        "Ġartist",
        -9.288847562532768
      ],
      [
        "ĠFollow",
        -9.289367568247686
      ],
      [
        "ĠJordan",
        -9.29275737519814
      ],
      [
        "ĠNav",
        -9.293789354430732
      ],
      [
        "Ġsize",
        -9.295102483037482
      ],
      [
        "Ġcaus",
        -9.295706867878799
      ],
      [
        "Ġevidence",
        -9.296158709215621
      ],
      [
        "Ġregard",
        -9.296159649416254
      ],
      [
        "Ġcommercial",
        -9.29616763879104
      ],
      [
        "ĠFrom",
        -9.296979528313884
      ],
      [
        "ĠSan",
        -9.297919441146457
      ],
      [
        "Ġcentral",
        -9.29884863914131
      ],
      [
        "ĠGame",
        -9.298860866365718
      ],
      [
        "Ġgain",
        -9.29962449579627
      ],
      [
        "Ġcapture",
        -9.299759942476026
      ],
      [
        "I",
        -9.299998917604526
      ],
      [
        "ircraft",
        -9.300179095147977
      ],
      [
        "Ġloss",
        -9.30059469566012
      ],
      [
        "Ġ186",
        -9.302139500135105
      ],
      [
        "Ġinvolve",
        -9.302171054614117
      ],
      [
        "ington",
        -9.302868233437273
      ],
      [
        "Ġrock",
        -9.303208134554865
      ],
      [
        "Ġmanage",
        -9.303507024832108
      ],
      [
        "Ġfall",
        -9.30496352323717
      ],
      [
        "Ġestimate",
        -9.305627617746001
      ],
      [
        "Ġagree",
        -9.306222355975802
      ],
      [
        "ĠPart",
        -9.309369757278077
      ],
      [
        "Ġdraw",
        -9.309870416384856
      ],
      [
        "Ġco",
        -9.313244800311132
      ],
      [
        "Ġfail",
        -9.313666142261422
      ],
      [
        "Ġreveal",
        -9.31681420361999
      ],
      [
        "Ġsubsequent",
        -9.316850701203194
      ],
      [
        "Ġaverage",
        -9.318314640919702
      ],
      [
        "Ġgrow",
        -9.318506636715943
      ],
      [
        "Ġoutside",
        -9.321057632847193
      ],
      [
        "Ġson",
        -9.321128433171742
      ],
      [
        "ĠMary",
        -9.322634069401474
      ],
      [
        "Ġnorthern",
        -9.324171821319927
      ],
      [
        "Ġtroops",
        -9.325653234202232
      ],
      [
        "ĠRock",
        -9.327059557491804
      ],
      [
        "Ġrank",
        -9.328153613201385
      ],
      [
        "Ġ500",
        -9.329889112675447
      ],
      [
        "°",
        -9.330802446727324
      ],
      [
        "Ġrequire",
        -9.331150342035375
      ],
      [
        "Ġrecording",
        -9.332713968640213
      ],
      [
        "mph",
        -9.332999424029435
      ],
      [
        "ĠFlori",
        -9.333626151959447
      ],
      [
        "ar",
        -9.333856424844715
      ],
      [
        "ĠRe",
        -9.334205741517568
      ],
      [
        "Ġlength",
        -9.334357868612548
      ],
      [
        "Ġsection",
        -9.334395717404725
      ],
      [
        "ĠLe",
        -9.334535557600791
      ],
      [
        "co",
        -9.336477440499777
      ],
      [
        "Ġlocation",
        -9.337930899662876
      ],
      [
        "one",
        -9.339157718381884
      ],
      [
        "Ġleague",
        -9.341467788903408
      ],
      [
        "Ġcrew",
        -9.341517554632537
      ],
      [
        "Ġsaw",
        -9.343522701112107
      ],
      [
        "ĠRed",
        -9.344263347589937
      ],
      [
        "Ġpossible",
        -9.34427364127196
      ],
      [
        "Ġaccount",
        -9.345034006070037
      ],
      [
        "Ġflood",
        -9.34503574452874
      ],
      [
        "Ġcompetition",
        -9.34503584556677
      ],
      [
        "Ġmean",
        -9.3460401548305
      ],
      [
        "Ġeffort",
        -9.348618368776506
      ],
      [
        "Ġinternational",
        -9.348619016060718
      ],
      [
        "Ġcast",
        -9.348633100646524
      ],
      [
        "ĠPaul",
        -9.349329439209656
      ],
      [
        "ĠMichael",
        -9.351779776679663
      ],
      [
        "ĠMost",
        -9.35198606478625
      ],
      [
        "hose",
        -9.352482243792672
      ],
      [
        "Ġcontract",
        -9.355233494564683
      ],
      [
        "ĠMissouri",
        -9.355825481367265
      ],
      [
        "ĠHurricane",
        -9.355825592615886
      ],
      [
        "Ġbreak",
        -9.358158299196127
      ],
      [
        "Ġcourt",
        -9.359001049046537
      ],
      [
        "Ġpoor",
        -9.359104313164963
      ],
      [
        "Ġwhom",
        -9.359844002110481
      ],
      [
        "Ġextend",
        -9.35999906336428
      ],
      [
        "special",
        -9.360370019152105
      ],
      [
        "tic",
        -9.361118352950202
      ],
      [
        "ball",
        -9.363691785364455
      ],
      [
        "Ġadvance",
        -9.365257883307194
      ],
      [
        "B",
        -9.365949936550882
      ],
      [
        "ĠIndian",
        -9.367849483738485
      ],
      [
        "ĠTech",
        -9.368448973125986
      ],
      [
        "Ġmaterial",
        -9.370371310457081
      ],
      [
        "Ġproducer",
        -9.371281588118718
      ],
      [
        "Ġquick",
        -9.374074772886132
      ],
      [
        "Ġcreat",
        -9.37532155671622
      ],
      [
        "Ġyards",
        -9.376600523506063
      ],
      [
        "Ġvocal",
        -9.377622280990291
      ],
      [
        "Ġreason",
        -9.377641440229674
      ],
      [
        "Ġstay",
        -9.381517512663859
      ],
      [
        "ville",
        -9.381588063727543
      ],
      [
        "ĠMe",
        -9.382499708019925
      ],
      [
        "Ġmagazine",
        -9.383047190582818
      ],
      [
        "Ġmet",
        -9.383781043235219
      ],
      [
        "Ġseparate",
        -9.384051521095245
      ],
      [
        "Ġproduc",
        -9.384499453479322
      ],
      [
        "ĠDay",
        -9.384737714224961
      ],
      [
        "ate",
        -9.385029571455455
      ],
      [
        "Ġlearn",
        -9.385193370984801
      ],
      [
        "ĠGreat",
        -9.385209695223587
      ],
      [
        "ĠSea",
        -9.386277507456814
      ],
      [
        "ĠFirst",
        -9.388927805790818
      ],
      [
        "Ġhorse",
        -9.38902962096184
      ],
      [
        "Ġleave",
        -9.389160497039807
      ],
      [
        "Ġauthorit",
        -9.389161002229947
      ],
      [
        "ant",
        -9.389170850922842
      ],
      [
        "Ġconduct",
        -9.392548385162435
      ],
      [
        "ĠBest",
        -9.392615754302529
      ],
      [
        "Ġcondition",
        -9.392683415800722
      ],
      [
        "Ġdecision",
        -9.39362954543532
      ],
      [
        "Ġavailab",
        -9.393672719983146
      ],
      [
        "Ġlaw",
        -9.395240229921523
      ],
      [
        "Ġstat",
        -9.395474556923414
      ],
      [
        "Ġrate",
        -9.395917692322733
      ],
      [
        "ĠCar",
        -9.39624181838024
      ],
      [
        "Ġreplace",
        -9.396580769040158
      ],
      [
        "Ġworking",
        -9.398041932141389
      ],
      [
        "Ġ187",
        -9.399159556705285
      ],
      [
        "Ġtravel",
        -9.400106023080033
      ],
      [
        "Ġabove",
        -9.40036726357432
      ],
      [
        "Ġpre",
        -9.402321958612294
      ],
      [
        "Ġpositive",
        -9.407794413743517
      ],
      [
        "ĠSun",
        -9.408091965819166
      ],
      [
        "men",
        -9.408751718573997
      ],
      [
        "D",
        -9.41048866429738
      ],
      [
        "Ġoffice",
        -9.410511282063098
      ],
      [
        "Ġstudio",
        -9.411609097591766
      ],
      [
        "Ġking",
        -9.412761263400654
      ],
      [
        "Ġinterview",
        -9.415437415419678
      ],
      [
        "Ġmaintain",
        -9.415438870935898
      ],
      [
        "Ġbusiness",
        -9.41545439334865
      ],
      [
        "ter",
        -9.41658204197686
      ],
      [
        "Ġplann",
        -9.418481425456473
      ],
      [
        "Ġwinds",
        -9.419143417208481
      ],
      [
        "Ġletter",
        -9.419438056164527
      ],
      [
        "Ġliv",
        -9.420241989730634
      ],
      [
        "ĠCanada",
        -9.420274552061661
      ],
      [
        "ĠAfrica",
        -9.420598269748984
      ],
      [
        "Ġten",
        -9.421574868598215
      ],
      [
        "ĠBay",
        -9.422123644173181
      ],
      [
        "Ġtree",
        -9.422731417791177
      ],
      [
        "Ġusual",
        -9.42317465111616
      ],
      [
        "ĠPresident",
        -9.423340770441786
      ],
      [
        "ial",
        -9.423365728329937
      ],
      [
        "Ġapproach",
        -9.424838652680519
      ],
      [
        "ĠChin",
        -9.426248148284945
      ],
      [
        "ĠHenry",
        -9.427026611919324
      ],
      [
        "ory",
        -9.427959907688605
      ],
      [
        "Ġconstruct",
        -9.428080880546077
      ],
      [
        "Ġreferr",
        -9.428358220313687
      ],
      [
        "ĠIndia",
        -9.428600519019326
      ],
      [
        "Ġmachine",
        -9.43136606145687
      ],
      [
        "Ġsea",
        -9.432578030667582
      ],
      [
        "Ġsoon",
        -9.434241265870396
      ],
      [
        "ĠOldham",
        -9.434881601651407
      ],
      [
        "Ġmetre",
        -9.435620222942031
      ],
      [
        "Ġsometime",
        -9.43910199131832
      ],
      [
        "formation",
        -9.440259710446615
      ],
      [
        "Ġcharge",
        -9.441787058062129
      ],
      [
        "ĠOlivier",
        -9.442815580823469
      ],
      [
        "ought",
        -9.44487859426598
      ],
      [
        "Ġcapital",
        -9.446569758915537
      ],
      [
        "Ġnine",
        -9.447053945431017
      ],
      [
        "Ġdeal",
        -9.448009243270993
      ],
      [
        "Ġsocial",
        -9.448313715231103
      ],
      [
        "Ġ2000",
        -9.448896637025015
      ],
      [
        "Ġlower",
        -9.449355115765659
      ],
      [
        "Ġwestern",
        -9.450574163440077
      ],
      [
        "Ġresponse",
        -9.450593183854295
      ],
      [
        "Ġconcert",
        -9.45059321812099
      ],
      [
        "ĠAnd",
        -9.451131697488524
      ],
      [
        "ĠPeter",
        -9.453721392093861
      ],
      [
        "ĠRegiment",
        -9.454577275359611
      ],
      [
        "Ġprobabl",
        -9.454578142213276
      ],
      [
        "Ġrecent",
        -9.454629971479642
      ],
      [
        "Ġtaking",
        -9.454640633058109
      ],
      [
        "Ġtest",
        -9.457846238136813
      ],
      [
        "ĠDu",
        -9.45796611025754
      ],
      [
        "Ġ183",
        -9.458321171247018
      ],
      [
        "ĠMexico",
        -9.458577253820522
      ],
      [
        "ĠVietnam",
        -9.458582584557046
      ],
      [
        "ĠSchool",
        -9.458592021316756
      ],
      [
        "ĠLater",
        -9.45915987611647
      ],
      [
        "Ġcar",
        -9.459246889961404
      ],
      [
        "ham",
        -9.459529584554016
      ],
      [
        "Ġmention",
        -9.460402437773066
      ],
      [
        "Ġwrite",
        -9.462575138897346
      ],
      [
        "ĠIrish",
        -9.462663687584175
      ],
      [
        "ĠMark",
        -9.46306287011032
      ],
      [
        "ĠZ",
        -9.463677476725326
      ],
      [
        "Ġbroke",
        -9.465380103225788
      ],
      [
        "Ġprevent",
        -9.46662570261672
      ],
      [
        "Ġpublishe",
        -9.469109080926412
      ],
      [
        "ĠTimes",
        -9.470279102724025
      ],
      [
        "Ġbrother",
        -9.470679159011853
      ],
      [
        "Ġtransport",
        -9.470846319559506
      ],
      [
        "Ġcontinu",
        -9.472275384840444
      ],
      [
        "Ġflight",
        -9.474619865142031
      ],
      [
        "ĠCanadian",
        -9.474750464615697
      ],
      [
        "ĠThomas",
        -9.474783868043946
      ],
      [
        "Ġfootball",
        -9.476241916874162
      ],
      [
        "Ġmust",
        -9.477124798547528
      ],
      [
        "Ġsubject",
        -9.478820903395395
      ],
      [
        "Ġlarges",
        -9.480026006645172
      ],
      [
        "elve",
        -9.480704353183043
      ],
      [
        "head",
        -9.482061863803299
      ],
      [
        "Ġfeatur",
        -9.482286180839608
      ],
      [
        "Ġfocus",
        -9.48231531959268
      ],
      [
        "ĠMount",
        -9.482911591457144
      ],
      [
        "Ġreligious",
        -9.482919186784148
      ],
      [
        "ĠBrown",
        -9.485575943152439
      ],
      [
        "ĠJack",
        -9.485659097746126
      ],
      [
        "Ġfriend",
        -9.486546099790289
      ],
      [
        "Ġforward",
        -9.486575771888752
      ],
      [
        "Ġexplain",
        -9.48703495231679
      ],
      [
        "Ġnetwork",
        -9.487038616989885
      ],
      [
        "Ġpressure",
        -9.48707968096727
      ],
      [
        "Ġsurface",
        -9.487324879377617
      ],
      [
        "ĠHall",
        -9.488200840413246
      ],
      [
        "be",
        -9.488775761848505
      ],
      [
        "ĠLa",
        -9.489189616135416
      ],
      [
        "Ġshape",
        -9.489793527579167
      ],
      [
        "Ġslow",
        -9.490331840813742
      ],
      [
        "Ġ00",
        -9.490602833308303
      ],
      [
        "Ġstudie",
        -9.492407883240611
      ],
      [
        "ro",
        -9.492762112128272
      ],
      [
        "Ġfly",
        -9.493383876539907
      ],
      [
        "pent",
        -9.49500318731195
      ],
      [
        "ĠNY",
        -9.495284401742929
      ],
      [
        "Ġincreasing",
        -9.495316022236238
      ],
      [
        "ĠGuitar",
        -9.495317093470984
      ],
      [
        "Ġapproximate",
        -9.495468660411941
      ],
      [
        "Ġstandard",
        -9.496600638742134
      ],
      [
        "Ġred",
        -9.496662553317966
      ],
      [
        "Ġintend",
        -9.496779630045168
      ],
      [
        "ĠThat",
        -9.499713239792158
      ],
      [
        "ĠUnion",
        -9.499775700995142
      ],
      [
        "ney",
        -9.499906896836933
      ],
      [
        "Ġgoals",
        -9.500002104899398
      ],
      [
        "Ġhard",
        -9.500623918429934
      ],
      [
        "Ġcut",
        -9.500666141280119
      ],
      [
        "Ġpast",
        -9.500726929718349
      ],
      [
        "Ġprofessional",
        -9.500747921281285
      ],
      [
        "Ġburn",
        -9.502055237835231
      ],
      [
        "Ġspecific",
        -9.503093422208497
      ],
      [
        "Ġcost",
        -9.504029928829436
      ],
      [
        "Ġactor",
        -9.504265865671602
      ],
      [
        "L",
        -9.505180092050406
      ],
      [
        "Ġfoot",
        -9.506328807114865
      ],
      [
        "house",
        -9.506899225681487
      ],
      [
        "Ġhold",
        -9.507020994245456
      ],
      [
        "Ġball",
        -9.507314247203766
      ],
      [
        "Ġseem",
        -9.507959683505993
      ],
      [
        "Ġtypical",
        -9.507974818119244
      ],
      [
        "Ġrelative",
        -9.508173738596922
      ],
      [
        "Ġpraise",
        -9.509163723695682
      ],
      [
        "Ġpiece",
        -9.50920614684166
      ],
      [
        "Ġfact",
        -9.509467130724932
      ],
      [
        "ĠJin",
        -9.51006792601964
      ],
      [
        "?",
        -9.51208787915009
      ],
      [
        "Ġelection",
        -9.512298790116645
      ],
      [
        "Ġspace",
        -9.516153321293883
      ],
      [
        "Ġterritor",
        -9.516241697990877
      ],
      [
        "Ġcertain",
        -9.516326678267276
      ],
      [
        "Ġmight",
        -9.516364585928745
      ],
      [
        "Ġwinning",
        -9.516374726884678
      ],
      [
        "Ġshare",
        -9.516381216073054
      ],
      [
        "Ġinjur",
        -9.516507269469445
      ],
      [
        "ĠStar",
        -9.51902842858671
      ],
      [
        "Ġpolice",
        -9.519577217413666
      ],
      [
        "Ġadditional",
        -9.520473401436002
      ],
      [
        "ĠPacific",
        -9.52058048647659
      ],
      [
        "Ġimmediate",
        -9.520581179758814
      ],
      [
        "ir",
        -9.524668788315024
      ],
      [
        "ĠEl",
        -9.524717798004446
      ],
      [
        "Ġdetail",
        -9.524913868201839
      ],
      [
        "ĠLight",
        -9.524918277741941
      ],
      [
        "Ġdisplay",
        -9.525094100411767
      ],
      [
        "Ġdivision",
        -9.525380620534541
      ],
      [
        "Ġdepression",
        -9.525430079482227
      ],
      [
        "Ġmovement",
        -9.525862574851956
      ],
      [
        "Ġbeginning",
        -9.529176596772144
      ],
      [
        "ĠWheeler",
        -9.529213000908685
      ],
      [
        "Ġaccording",
        -9.530246377154153
      ],
      [
        "well",
        -9.530326355315772
      ],
      [
        "Ġoccurr",
        -9.531482985204683
      ],
      [
        "Ġgold",
        -9.531507150441847
      ],
      [
        "nough",
        -9.532525027184782
      ],
      [
        "Ġcarrie",
        -9.533396779259228
      ],
      [
        "Ġfood",
        -9.533470065371626
      ],
      [
        "ĠUn",
        -9.533903551784762
      ],
      [
        "Ġtype",
        -9.53398238088323
      ],
      [
        "ĠHistor",
        -9.534334471502863
      ],
      [
        "stein",
        -9.534408444816592
      ],
      [
        "Ġresident",
        -9.534809780132157
      ],
      [
        "II",
        -9.53572742625078
      ],
      [
        "Ġ35",
        -9.53783810086652
      ],
      [
        "ĠFilm",
        -9.537858936780598
      ],
      [
        "latter",
        -9.538130417557769
      ],
      [
        "Ġannual",
        -9.538222241576165
      ],
      [
        "Ġdaughter",
        -9.541100345829983
      ],
      [
        "Ġnote",
        -9.54194635684266
      ],
      [
        "Ġcap",
        -9.542234897137782
      ],
      [
        "Ġtrade",
        -9.546132560510376
      ],
      [
        "Ġbattalion",
        -9.546499885984915
      ],
      [
        "Ġchose",
        -9.547059183593642
      ],
      [
        "ill",
        -9.548280537772506
      ],
      [
        "ĠSinc",
        -9.548627956640804
      ],
      [
        "ll",
        -9.548935317407437
      ],
      [
        "ĠCatholic",
        -9.550885789025527
      ],
      [
        "ries",
        -9.551208213842397
      ],
      [
        "Ġforest",
        -9.551484911387712
      ],
      [
        "Ġfund",
        -9.55150614920343
      ],
      [
        "Ġknow",
        -9.55300642580351
      ],
      [
        "Ġleg",
        -9.553743100810205
      ],
      [
        "ĠForce",
        -9.554129019269809
      ],
      [
        "Ġstone",
        -9.555173782366525
      ],
      [
        "Ġpitch",
        -9.555529845227559
      ],
      [
        "ĠX",
        -9.557764357262904
      ],
      [
        "ĠHill",
        -9.558520830882783
      ],
      [
        "ĠBrita",
        -9.558545150318341
      ],
      [
        "Ġresearch",
        -9.559572153852246
      ],
      [
        "ĠCreek",
        -9.55971617594836
      ],
      [
        "Ġsoldier",
        -9.559964700660444
      ],
      [
        "Ġsave",
        -9.560035959330454
      ],
      [
        "Ġhost",
        -9.560955029710401
      ],
      [
        "ĠRi",
        -9.562881443497819
      ],
      [
        "Ġcit",
        -9.563119949403157
      ],
      [
        "Ġpresident",
        -9.563448875363495
      ],
      [
        "ĠSuper",
        -9.565881784841018
      ],
      [
        "ĠCommand",
        -9.56685858220986
      ],
      [
        "Ġfutur",
        -9.568844790213426
      ],
      [
        "Ġearn",
        -9.569754061932185
      ],
      [
        "achel",
        -9.57195601463583
      ],
      [
        "Ġaffect",
        -9.57249626615073
      ],
      [
        "Ġanti",
        -9.572675110198933
      ],
      [
        "Ġattend",
        -9.572877628981942
      ],
      [
        "Ġpoet",
        -9.572896379719666
      ],
      [
        "Ġindustr",
        -9.573025933514387
      ],
      [
        "Ġanimal",
        -9.573110806780118
      ],
      [
        "Ġcentre",
        -9.573238820757371
      ],
      [
        "ĠCharles",
        -9.573271703518
      ],
      [
        "Ġassist",
        -9.57338883000996
      ],
      [
        "ĠOld",
        -9.574131721062516
      ],
      [
        "Ġoperate",
        -9.575362829985961
      ],
      [
        "Ġsound",
        -9.57558747452818
      ],
      [
        "Ġroom",
        -9.57664313820273
      ],
      [
        "Ġrunning",
        -9.577686387398202
      ],
      [
        "Ġbetter",
        -9.578038046726146
      ],
      [
        "Ġ45",
        -9.57826859057398
      ],
      [
        "Ġfleet",
        -9.578786024858715
      ],
      [
        "Ġreference",
        -9.57906418108286
      ],
      [
        "Ġ38",
        -9.580547656278537
      ],
      [
        "ĠMy",
        -9.581672315389683
      ],
      [
        "ur",
        -9.58181902303238
      ],
      [
        "ĠBut",
        -9.582563287816999
      ],
      [
        "upon",
        -9.58428648673397
      ],
      [
        "Ġport",
        -9.584821105178305
      ],
      [
        "all",
        -9.586265970372908
      ],
      [
        "Ġconcern",
        -9.586683792166689
      ],
      [
        "ĠRoute",
        -9.586703200781738
      ],
      [
        "Ġpractice",
        -9.589128452278771
      ],
      [
        "Ġwoman",
        -9.589596453175268
      ],
      [
        "Ġheavi",
        -9.591474506840065
      ],
      [
        "Ġmeeting",
        -9.591481245513775
      ],
      [
        "thus",
        -9.59174191519595
      ],
      [
        "Ġboat",
        -9.59201001072974
      ],
      [
        "Ġquarter",
        -9.59244692902774
      ],
      [
        "Ġ80",
        -9.593015818110876
      ],
      [
        "Ġculture",
        -9.594713834557433
      ],
      [
        "Ġwatch",
        -9.596218747594719
      ],
      [
        "Ġarrive",
        -9.596573619586886
      ],
      [
        "Ġspecial",
        -9.59860769397777
      ],
      [
        "ĠLaw",
        -9.599870803609768
      ],
      [
        "Ġpersonal",
        -9.599943972822848
      ],
      [
        "Ġserve",
        -9.601931501938424
      ],
      [
        "Ġsub",
        -9.604198741981644
      ],
      [
        "Ġgrant",
        -9.605097233545578
      ],
      [
        "Ġsummer",
        -9.605637250169497
      ],
      [
        "Ġdam",
        -9.605811105280496
      ],
      [
        "Ġcritical",
        -9.60819591183617
      ],
      [
        "Ġcoach",
        -9.609175866070643
      ],
      [
        "Ġfifth",
        -9.609988190333102
      ],
      [
        "pole",
        -9.610314576323711
      ],
      [
        "Ġstudents",
        -9.61080742853645
      ],
      [
        "Ġtell",
        -9.610839826421607
      ],
      [
        "Ġ75",
        -9.612463719730025
      ],
      [
        "Ġconnect",
        -9.613444025401119
      ],
      [
        "ĠScott",
        -9.614574411412022
      ],
      [
        "Ġdouble",
        -9.615545208530076
      ],
      [
        "Ġlyric",
        -9.616134165881142
      ],
      [
        "Ġrelated",
        -9.617003604237754
      ],
      [
        "ĠZealand",
        -9.619113592276635
      ],
      [
        "Ġbring",
        -9.619179471456366
      ],
      [
        "Ġradio",
        -9.619246177358816
      ],
      [
        "Ġcross",
        -9.621961644631952
      ],
      [
        "ĠPlay",
        -9.621972304396063
      ],
      [
        "larger",
        -9.622745211055264
      ],
      [
        "ĠArab",
        -9.623684351704062
      ],
      [
        "Ġmusical",
        -9.627167431961428
      ],
      [
        "Ġstaff",
        -9.627472600750883
      ],
      [
        "Ġthink",
        -9.627964885899226
      ],
      [
        "Ġassign",
        -9.628727921781309
      ],
      [
        "ĠWestern",
        -9.628872367988313
      ],
      [
        "Ġsuffer",
        -9.63306985352894
      ],
      [
        "ĠOlympic",
        -9.63332304026072
      ],
      [
        "playing",
        -9.635880506545933
      ],
      [
        "Ġdepict",
        -9.637794745137263
      ],
      [
        "ĠAir",
        -9.63798108250148
      ],
      [
        "Ġaudience",
        -9.638096832533716
      ],
      [
        "Ġprivate",
        -9.638100631502715
      ],
      [
        "ĠYear",
        -9.638197425965712
      ],
      [
        "old",
        -9.638273997504445
      ],
      [
        "Ġ36",
        -9.639945143312195
      ],
      [
        "Ġprotect",
        -9.641093776327612
      ],
      [
        "Ġamount",
        -9.641468305290417
      ],
      [
        "Ġcommander",
        -9.641676906916683
      ],
      [
        "Ġselect",
        -9.64269536066955
      ],
      [
        "Ġtreat",
        -9.642710126539031
      ],
      [
        "ĠScientolog",
        -9.642778083739973
      ],
      [
        "ĠHaifa",
        -9.642908158951126
      ],
      [
        "Ġmodel",
        -9.644824456763164
      ],
      [
        "ĠAtlanti",
        -9.6454305369152
      ],
      [
        "ward",
        -9.645569683327736
      ],
      [
        "Ġrespective",
        -9.645883683702795
      ],
      [
        "Ġmedia",
        -9.646492609517646
      ],
      [
        "illboard",
        -9.646855008424511
      ],
      [
        "Ġdeliver",
        -9.647768854641985
      ],
      [
        "Ġmeet",
        -9.64784916264722
      ],
      [
        "ĠLake",
        -9.648271315025692
      ],
      [
        "Ġlines",
        -9.649327848479814
      ],
      [
        "TV",
        -9.650230511808193
      ],
      [
        "ĠParliament",
        -9.65258981415331
      ],
      [
        "ĠAssociation",
        -9.652590001632198
      ],
      [
        "Ġnature",
        -9.65259518865388
      ],
      [
        "ĠSaint",
        -9.65268180808078
      ],
      [
        "lie",
        -9.65367561907908
      ],
      [
        "ĠOver",
        -9.65424690675627
      ],
      [
        "Ġtower",
        -9.65426262732937
      ],
      [
        "Ġdeep",
        -9.654576733425781
      ],
      [
        "Ġmarket",
        -9.65574407345833
      ],
      [
        "Ġactual",
        -9.657511754444887
      ],
      [
        "ĠCorp",
        -9.658043851819947
      ],
      [
        "Ġpair",
        -9.65841930378038
      ],
      [
        "Ġdie",
        -9.66006673383457
      ],
      [
        "Ġâ",
        -9.66201360615404
      ],
      [
        "Ġbroadcast",
        -9.66410296283425
      ],
      [
        "ĠVilla",
        -9.665569599536255
      ],
      [
        "Ġmass",
        -9.666725781976233
      ],
      [
        "Ġdistance",
        -9.66729692792643
      ],
      [
        "ĠBattle",
        -9.667502833964361
      ],
      [
        "Ġcollection",
        -9.667544626056051
      ],
      [
        "Ġprimar",
        -9.667577330689639
      ],
      [
        "Ġsequence",
        -9.667897638873608
      ],
      [
        "ĠCalifornia",
        -9.672246424430803
      ],
      [
        "Ġmoney",
        -9.67227005380214
      ],
      [
        "Ġthrow",
        -9.673085602798281
      ],
      [
        "ĠWood",
        -9.676602280353663
      ],
      [
        "ĠCouncil",
        -9.677212355654877
      ],
      [
        "Ġlink",
        -9.677239541277778
      ],
      [
        "Ġcyclone",
        -9.677251849694493
      ],
      [
        "Ġleav",
        -9.677605853466147
      ],
      [
        "Ġeducation",
        -9.67934607898009
      ],
      [
        "ĠRichard",
        -9.680503680286495
      ],
      [
        "Ġtraditional",
        -9.681461698036433
      ],
      [
        "ful",
        -9.682100077630672
      ],
      [
        "ĠGalveston",
        -9.68222154954286
      ],
      [
        "der",
        -9.683422132736005
      ],
      [
        "alway",
        -9.68350381999012
      ],
      [
        "ool",
        -9.683710674714288
      ],
      [
        "Ġemploy",
        -9.686019851160982
      ],
      [
        "ĠJewish",
        -9.687428059497941
      ],
      [
        "ĠDr",
        -9.687461032283014
      ],
      [
        "Ġrare",
        -9.687466340043127
      ],
      [
        "ĠCo",
        -9.688709416780554
      ],
      [
        "Ġtry",
        -9.689463980305604
      ],
      [
        "Ġintroduce",
        -9.690041228210951
      ],
      [
        "Ġauthor",
        -9.691129817781693
      ],
      [
        "ach",
        -9.691905602069019
      ],
      [
        "Ġquestion",
        -9.693290781489917
      ],
      [
        "Ġdead",
        -9.693373013193693
      ],
      [
        "Ġbrief",
        -9.697373337227694
      ],
      [
        "Ġ70",
        -9.699373287438807
      ],
      [
        "Ġprove",
        -9.700647480850453
      ],
      [
        "com",
        -9.701480147859993
      ],
      [
        "Ġdecade",
        -9.702501133662231
      ],
      [
        "M",
        -9.702605082591532
      ],
      [
        "ĠFinal",
        -9.704190062199316
      ],
      [
        "ĠAngel",
        -9.704652640093618
      ],
      [
        "Ġbreed",
        -9.705516777437897
      ],
      [
        "Ġparent",
        -9.706376110785751
      ],
      [
        "Ġmeaning",
        -9.706449726659692
      ],
      [
        "Ġorganization",
        -9.707648917693046
      ],
      [
        "Ġengineer",
        -9.709625861722998
      ],
      [
        "Ġoccur",
        -9.709902350310731
      ],
      [
        "il",
        -9.711299317052575
      ],
      [
        "ĠEarth",
        -9.712783475647896
      ],
      [
        "truck",
        -9.712825332822323
      ],
      [
        "Ġsituation",
        -9.71286787289931
      ],
      [
        "Ġmiss",
        -9.71371951559832
      ],
      [
        "ĠRoss",
        -9.713868594489183
      ],
      [
        "Ġguitar",
        -9.71781137268547
      ],
      [
        "aught",
        -9.717947464781485
      ],
      [
        "Ġtraffic",
        -9.71798564307774
      ],
      [
        "Ġwhe",
        -9.717985927560825
      ],
      [
        "Ġeffective",
        -9.71832274933884
      ],
      [
        "Ġsister",
        -9.718408160696997
      ],
      [
        "Ġtradition",
        -9.71873288161963
      ],
      [
        "ester",
        -9.719499893535613
      ],
      [
        "Ġcolor",
        -9.719703938127171
      ],
      [
        "Ġassociate",
        -9.720430446889157
      ],
      [
        "ĠLatin",
        -9.721477969399261
      ],
      [
        "ĠSo",
        -9.721876136837206
      ],
      [
        "Ġhistorical",
        -9.722596904940271
      ],
      [
        "ĠUnder",
        -9.722983991150654
      ],
      [
        "Ġuniversit",
        -9.723147890511509
      ],
      [
        "ĠChicago",
        -9.723148746302147
      ],
      [
        "Ġmission",
        -9.724841889333653
      ],
      [
        "ĠDon",
        -9.725786627367803
      ],
      [
        "Ġprior",
        -9.726485362350395
      ],
      [
        "Ġmarriage",
        -9.728386775914307
      ],
      [
        "ma",
        -9.72904323671564
      ],
      [
        "ĠScot",
        -9.729583949291516
      ],
      [
        "ĠIf",
        -9.730889490655898
      ],
      [
        "Ġ400",
        -9.731454886767349
      ],
      [
        "ĠMr",
        -9.731483566343517
      ],
      [
        "ĠAlice",
        -9.733978078133095
      ],
      [
        "bodies",
        -9.734581285531693
      ],
      [
        "Ġkeep",
        -9.734903548087509
      ],
      [
        "Ġstatu",
        -9.735497910627103
      ],
      [
        "Ġsinger",
        -9.735810608835699
      ],
      [
        "ka",
        -9.73768080635087
      ],
      [
        "Ġplant",
        -9.738577540310468
      ],
      [
        "Ġsexual",
        -9.738949220808262
      ],
      [
        "ĠNix",
        -9.7390296101641
      ],
      [
        "Ġgods",
        -9.740755025628673
      ],
      [
        "ĠTV",
        -9.741219445325843
      ],
      [
        "storie",
        -9.742178073380243
      ],
      [
        "op",
        -9.74254190615556
      ],
      [
        "Ġdefence",
        -9.744256899027764
      ],
      [
        "Ġjob",
        -9.744268417340766
      ],
      [
        "Ġpropose",
        -9.744374969341276
      ],
      [
        "Ġcolon",
        -9.744603306018341
      ],
      [
        "Ġcourse",
        -9.748913728464975
      ],
      [
        "Ġnewspaper",
        -9.749604395431481
      ],
      [
        "Ġhistorian",
        -9.749998300800355
      ],
      [
        "Ġfans",
        -9.752857871017994
      ],
      [
        "Ġthing",
        -9.752880923267846
      ],
      [
        "ak",
        -9.754481232894085
      ],
      [
        "ĠService",
        -9.754981018386202
      ],
      [
        "Ġedge",
        -9.7552966967716
      ],
      [
        "Ġbatter",
        -9.755363632726702
      ],
      [
        "Ġoverall",
        -9.756550588144115
      ],
      [
        "Ġmetal",
        -9.757098682158702
      ],
      [
        "ĠAfrican",
        -9.758239047925224
      ],
      [
        "Ġ33",
        -9.759231714456227
      ],
      [
        "ĠSecond",
        -9.760388639882287
      ],
      [
        "Ġrequest",
        -9.760410130596714
      ],
      [
        "Ġpainting",
        -9.760553321008468
      ],
      [
        "Ġ300",
        -9.761452859888621
      ],
      [
        "no",
        -9.761653060370982
      ],
      [
        "ĠNation",
        -9.762077559837905
      ],
      [
        "Ġvariet",
        -9.762110234909052
      ],
      [
        "Ġstates",
        -9.762298367803673
      ],
      [
        "Ġaccess",
        -9.762433567636817
      ],
      [
        "ĠSimon",
        -9.76266822159706
      ],
      [
        "Ġ90",
        -9.762790329346238
      ],
      [
        "Ġnatural",
        -9.764189804868538
      ],
      [
        "Ġmarrie",
        -9.764887805979809
      ],
      [
        "Ġminor",
        -9.765773156407441
      ],
      [
        "Ġtournament",
        -9.765820964363371
      ],
      [
        "Ġborder",
        -9.765851367577572
      ],
      [
        "ĠAlkan",
        -9.765867848139184
      ],
      [
        "ĠLiverp",
        -9.76590363159496
      ],
      [
        "Ġupper",
        -9.76770029226585
      ],
      [
        "Ġran",
        -9.767858994581506
      ],
      [
        "Ġkey",
        -9.768316071819534
      ],
      [
        "ĠUp",
        -9.769844355330406
      ],
      [
        "Ġread",
        -9.77026596714065
      ],
      [
        "ĠHigh",
        -9.770729440507864
      ],
      [
        "play",
        -9.771185301295073
      ],
      [
        "Ġscript",
        -9.771225467826056
      ],
      [
        "Ġrapid",
        -9.771288223077121
      ],
      [
        "Ġwhole",
        -9.772260599647915
      ],
      [
        "+",
        -9.776779913490703
      ],
      [
        "ĠChristmas",
        -9.776781357487717
      ],
      [
        "ĠTexa",
        -9.776786742720148
      ],
      [
        "ground",
        -9.776970880817867
      ],
      [
        "aylor",
        -9.777071074813826
      ],
      [
        "Ġprotest",
        -9.777685045365741
      ],
      [
        "ĠFort",
        -9.777749044021009
      ],
      [
        "ĠRecord",
        -9.777853108386626
      ],
      [
        "Ġserious",
        -9.777861913240297
      ],
      [
        "que",
        -9.777977842127118
      ],
      [
        "me",
        -9.78062608171008
      ],
      [
        "ĠAct",
        -9.782581346328389
      ],
      [
        "Ġprovid",
        -9.783140619700674
      ],
      [
        "done",
        -9.783169168115798
      ],
      [
        "ĠLive",
        -9.78340166560913
      ],
      [
        "ĠSomers",
        -9.784004073802107
      ],
      [
        "Ġsell",
        -9.78605780599646
      ],
      [
        "Ġpress",
        -9.787143654217882
      ],
      [
        "Ġadopt",
        -9.787563198583426
      ],
      [
        "Ġmoment",
        -9.787924303244807
      ],
      [
        "Ġspeed",
        -9.78794430059445
      ],
      [
        "yet",
        -9.788475270320566
      ],
      [
        "Ġpay",
        -9.78847750117243
      ],
      [
        "Ġdefend",
        -9.789608130211278
      ],
      [
        "ĠLady",
        -9.790426063981155
      ],
      [
        "ĠJane",
        -9.790696009740254
      ],
      [
        "ĠCa",
        -9.791656611902742
      ],
      [
        "Ġgot",
        -9.792348872182401
      ],
      [
        "ĠMosley",
        -9.793452056951235
      ],
      [
        "ĠItalian",
        -9.793529373312044
      ],
      [
        "ure",
        -9.793773534006291
      ],
      [
        "ĠTropic",
        -9.795091860949892
      ],
      [
        "Ġ39",
        -9.797115798503656
      ],
      [
        "ĠRepublic",
        -9.798983580604478
      ],
      [
        "ĠFowle",
        -9.799077956878818
      ],
      [
        "ĠCentr",
        -9.799499305915868
      ],
      [
        "Ġremov",
        -9.799866475771857
      ],
      [
        "Ġrating",
        -9.800723824929104
      ],
      [
        "ĠGo",
        -9.80140478667417
      ],
      [
        "Ġexpress",
        -9.801494935501442
      ],
      [
        "Ġspeak",
        -9.802768558457247
      ],
      [
        "Ġmountain",
        -9.804343961936311
      ],
      [
        "Ġconflict",
        -9.804714618146724
      ],
      [
        "ĠThree",
        -9.804714900407731
      ],
      [
        "ĠSquadron",
        -9.80471500009137
      ],
      [
        "Ġtemple",
        -9.804729035317878
      ],
      [
        "giving",
        -9.804789527959347
      ],
      [
        "Ġnative",
        -9.804824431098147
      ],
      [
        "Ġour",
        -9.804995342643526
      ],
      [
        "Ġdark",
        -9.805180990358696
      ],
      [
        "Ġmeasure",
        -9.80569294342864
      ],
      [
        "ĠCarolina",
        -9.806010565207055
      ],
      [
        "ĠOf",
        -9.807021888868185
      ],
      [
        "fore",
        -9.808719853143343
      ],
      [
        "Ġtail",
        -9.809420316417501
      ],
      [
        "Ġcontemporar",
        -9.810397913460445
      ],
      [
        "Ġlitera",
        -9.810441945027168
      ],
      [
        "Ġcathedral",
        -9.810443694514362
      ],
      [
        "Ġavoid",
        -9.810693500308165
      ],
      [
        "ĠTour",
        -9.810715886701093
      ],
      [
        "ĠSi",
        -9.811657007462923
      ],
      [
        "ota",
        -9.813147378726384
      ],
      [
        "Ġabandon",
        -9.816112303056379
      ],
      [
        "Ġpotential",
        -9.81611720478568
      ],
      [
        "Ġhealth",
        -9.816259230354163
      ],
      [
        "usch",
        -9.81695733895829
      ],
      [
        "Ġdecline",
        -9.817505295064116
      ],
      [
        "Ġslight",
        -9.817889261935125
      ],
      [
        "go",
        -9.818992077554201
      ],
      [
        "Ġbeat",
        -9.819613571433461
      ],
      [
        "Ġdollar",
        -9.82187895921695
      ],
      [
        "ĠMinne",
        -9.82190621016705
      ],
      [
        "Ġ180",
        -9.822174057752058
      ],
      [
        "Ġcouple",
        -9.822320903080247
      ],
      [
        "ĠParis",
        -9.823644316422058
      ],
      [
        "Ġera",
        -9.825097610736622
      ],
      [
        "Ġmarked",
        -9.825722877060127
      ],
      [
        "ĠInfantr",
        -9.827638273122844
      ],
      [
        "ĠLike",
        -9.827703363326552
      ],
      [
        "Ġcredit",
        -9.827770890425253
      ],
      [
        "Ġmajorit",
        -9.828681343603119
      ],
      [
        "Ġvia",
        -9.829567827145993
      ],
      [
        "ture",
        -9.829571755978282
      ],
      [
        "ĠStorm",
        -9.829667284718871
      ],
      [
        "ĠCross",
        -9.831540821582646
      ],
      [
        "ĠLos",
        -9.831918970359073
      ],
      [
        "Ġfrequent",
        -9.833452148788986
      ],
      [
        "Ġhusband",
        -9.83345217552125
      ],
      [
        "Ġdemand",
        -9.833490959991869
      ],
      [
        "ĠVirginia",
        -9.83374821166396
      ],
      [
        "ĠSoviet",
        -9.834209391975321
      ],
      [
        "Ġnation",
        -9.835075685333578
      ],
      [
        "Ġgirl",
        -9.835937484659206
      ],
      [
        "ize",
        -9.83641197008734
      ],
      [
        "ĠFrank",
        -9.83674264402974
      ],
      [
        "Ġscale",
        -9.837299357751803
      ],
      [
        "Ġnames",
        -9.83814888074565
      ],
      [
        "Ġpresen",
        -9.8383370598768
      ],
      [
        "Ġsevere",
        -9.839196668618818
      ],
      [
        "Ġheadquarter",
        -9.8393018037077
      ],
      [
        "Ġexpand",
        -9.839332517387074
      ],
      [
        "Ġmethod",
        -9.839729609798313
      ],
      [
        "Ġactive",
        -9.839870694316962
      ],
      [
        "Ġqualit",
        -9.839917806429607
      ],
      [
        "Ġmeant",
        -9.840098878403566
      ],
      [
        "Ġgod",
        -9.84091831868607
      ],
      [
        "ĠSerie",
        -9.841099076262363
      ],
      [
        "ĠHa",
        -9.842281733307532
      ],
      [
        "ĠCollege",
        -9.84550619326454
      ],
      [
        "Ġpropert",
        -9.847233821354438
      ],
      [
        "time",
        -9.84907605764152
      ],
      [
        "Ġseat",
        -9.849354675726124
      ],
      [
        "Ġhundred",
        -9.851099616790258
      ],
      [
        "ĠPennsylvania",
        -9.8511006132755
      ],
      [
        "ĠRosebery",
        -9.851101160763488
      ],
      [
        "ĠClub",
        -9.851113877469533
      ],
      [
        "Ġwound",
        -9.851167771178938
      ],
      [
        "Ġsearch",
        -9.851211255690844
      ],
      [
        "ĠAnderson",
        -9.851446117137437
      ],
      [
        "Ġinvolv",
        -9.853951195155087
      ],
      [
        "O",
        -9.854469236259781
      ],
      [
        "Ġmakes",
        -9.855376343302243
      ],
      [
        "Ġending",
        -9.856633145915845
      ],
      [
        "Ġconcept",
        -9.85673207557948
      ],
      [
        "Ġpiano",
        -9.85705230314401
      ],
      [
        "Ġcomplex",
        -9.857063176620985
      ],
      [
        "Ġtalk",
        -9.857064468826305
      ],
      [
        "ĠBeyonc",
        -9.857337916159462
      ],
      [
        "Ġfell",
        -9.857392276345568
      ],
      [
        "ĠOpen",
        -9.858261675566844
      ],
      [
        "Ġbirth",
        -9.858576189698312
      ],
      [
        "Ġcollect",
        -9.858833542406138
      ],
      [
        "Ã¡n",
        -9.85966229557307
      ],
      [
        "Ġvalue",
        -9.860717678170161
      ],
      [
        "Ġdrive",
        -9.860736740936517
      ],
      [
        "Ġindicate",
        -9.8614528104446
      ],
      [
        "lin",
        -9.862570498465718
      ],
      [
        "Ġmorning",
        -9.863040041274115
      ],
      [
        "ĠMajor",
        -9.86304010799524
      ],
      [
        "Ġweapon",
        -9.863040647642453
      ],
      [
        "Ġfill",
        -9.863167436160381
      ],
      [
        "Ġcopie",
        -9.863793851459347
      ],
      [
        "Ġnumero",
        -9.86444071397407
      ],
      [
        "ĠTom",
        -9.864705273865788
      ],
      [
        "Ġflow",
        -9.866103276306676
      ],
      [
        "Ġabilit",
        -9.866394519632049
      ],
      [
        "ĠWater",
        -9.867090883845508
      ],
      [
        "ĠGreen",
        -9.867110755627731
      ],
      [
        "Ġtie",
        -9.867213206467946
      ],
      [
        "iami",
        -9.867286249246952
      ],
      [
        "Ġextra",
        -9.868289410225632
      ],
      [
        "Ġcompar",
        -9.86853223677635
      ],
      [
        "ĠOttoman",
        -9.86911160007562
      ],
      [
        "Ġsentence",
        -9.869185415441986
      ],
      [
        "Ġsettlement",
        -9.869207638251535
      ],
      [
        "Ġ150",
        -9.869874339551526
      ],
      [
        "Ġfruit",
        -9.870769372344187
      ],
      [
        "Ġappoint",
        -9.871184919147943
      ],
      [
        "Ġreduce",
        -9.871748430979899
      ],
      [
        "asi",
        -9.871995479152904
      ],
      [
        "ul",
        -9.87397433203726
      ],
      [
        "Ġcommission",
        -9.875112215145887
      ],
      [
        "ĠMuseum",
        -9.875124813074992
      ],
      [
        "Ġenjoy",
        -9.875125697498937
      ],
      [
        "Ġraise",
        -9.875187475037839
      ],
      [
        "ĠJackson",
        -9.875508804833313
      ],
      [
        "ell",
        -9.876129081705724
      ],
      [
        "ko",
        -9.8775240718859
      ],
      [
        "Ġelect",
        -9.87779980664485
      ],
      [
        "ĠTime",
        -9.877969079038548
      ],
      [
        "ĠLi",
        -9.878347016748883
      ],
      [
        "ĠVer",
        -9.878817727306977
      ],
      [
        "ĠPrince",
        -9.87888210693281
      ],
      [
        "Ġachieve",
        -9.879361287311784
      ],
      [
        "ating",
        -9.880427258697976
      ],
      [
        "Ġtarget",
        -9.881222410771702
      ],
      [
        "Ġbrigade",
        -9.88122389868913
      ],
      [
        "ĠBill",
        -9.881573768595903
      ],
      [
        "Ġ32",
        -9.882043691845965
      ],
      [
        "im",
        -9.883330317297675
      ],
      [
        "ĠHar",
        -9.88527628258061
      ],
      [
        "Ġ44",
        -9.885369726189566
      ],
      [
        "fensive",
        -9.886298286945063
      ],
      [
        "Ġsafe",
        -9.886300057762975
      ],
      [
        "Ġkind",
        -9.887095201694551
      ],
      [
        "companie",
        -9.887352026122512
      ],
      [
        "ĠThrough",
        -9.887357532197242
      ],
      [
        "Ġimpact",
        -9.887377939822361
      ],
      [
        "Ġstrength",
        -9.88826916559194
      ],
      [
        "ling",
        -9.888745119369494
      ],
      [
        "ĠAge",
        -9.889270715919437
      ],
      [
        "ĠTheir",
        -9.889512863053083
      ],
      [
        "ĠSir",
        -9.889655831448591
      ],
      [
        "Ġadult",
        -9.889666841292954
      ],
      [
        "Ġcamp",
        -9.890913830723841
      ],
      [
        "Ġmount",
        -9.891265477606431
      ],
      [
        "Ġplot",
        -9.891306208919257
      ],
      [
        "gu",
        -9.891497418484821
      ],
      [
        "where",
        -9.891809483857823
      ],
      [
        "Ġreject",
        -9.893234339029172
      ],
      [
        "Ġdisease",
        -9.893530112885088
      ],
      [
        "ĠCourt",
        -9.893532160936173
      ],
      [
        "Ġaspect",
        -9.893533289197027
      ],
      [
        "Ġrecover",
        -9.893592099160864
      ],
      [
        "Ġ47",
        -9.893661460656737
      ],
      [
        "Ġartillery",
        -9.893936907731709
      ],
      [
        "Ġportion",
        -9.893981025296554
      ],
      [
        "ĠChris",
        -9.895700525188927
      ],
      [
        "ler",
        -9.896049649551017
      ],
      [
        "Ġparty",
        -9.896627868798578
      ],
      [
        "les",
        -9.896716828021844
      ],
      [
        "Ġwave",
        -9.896919715482046
      ],
      [
        "ĠOr",
        -9.898560075097542
      ],
      [
        "ĠKe",
        -9.89859474946243
      ],
      [
        "Ġpark",
        -9.899228148567225
      ],
      [
        "ĠSix",
        -9.899449925780456
      ],
      [
        "Ġenem",
        -9.899766115216128
      ],
      [
        "Ġpowerful",
        -9.899966815656958
      ],
      [
        "Ġconfirm",
        -9.900356288678132
      ],
      [
        "pp",
        -9.901405119434806
      ],
      [
        "Ġbill",
        -9.901870080321977
      ],
      [
        "ĠVan",
        -9.90285598814579
      ],
      [
        "Ġpercent",
        -9.9058090716413
      ],
      [
        "Ġpaper",
        -9.905954212264461
      ],
      [
        "Ġ42",
        -9.905964852114906
      ],
      [
        "Ġresponsibl",
        -9.905991272089551
      ],
      [
        "Ġblood",
        -9.905991661023798
      ],
      [
        "Ġnuclea",
        -9.906937920878594
      ],
      [
        "ng",
        -9.907497333708095
      ],
      [
        "ĠQueen",
        -9.908514426243643
      ],
      [
        "Ġopera",
        -9.908859040757354
      ],
      [
        "Ġbridge",
        -9.909979214760721
      ],
      [
        "Ġinside",
        -9.910233233857134
      ],
      [
        "ĠLand",
        -9.911948858209325
      ],
      [
        "ĠFootball",
        -9.912290126029797
      ],
      [
        "Ġtemperature",
        -9.912291615157901
      ],
      [
        "Ġedition",
        -9.913052002759118
      ],
      [
        "while",
        -9.91306791401904
      ],
      [
        "ĠBoth",
        -9.913325679331564
      ],
      [
        "ĠMarine",
        -9.913446543081204
      ],
      [
        "Ġ184",
        -9.914002393847651
      ],
      [
        "ĠChart",
        -9.914038316840408
      ],
      [
        "ĠBoy",
        -9.91458226686543
      ],
      [
        "Ġpurpose",
        -9.915058348989602
      ],
      [
        "ster",
        -9.915205365654929
      ],
      [
        "ĠHot",
        -9.9155776912482
      ],
      [
        "ĠBlue",
        -9.915802066501385
      ],
      [
        "Mont",
        -9.9163117142892
      ],
      [
        "Ġadvantage",
        -9.918609694683223
      ],
      [
        "ĠDepartment",
        -9.918609704840561
      ],
      [
        "Ġdegree",
        -9.918633903263327
      ],
      [
        "Ġreception",
        -9.918778993128054
      ],
      [
        "Ġdirection",
        -9.920455069039996
      ],
      [
        "Ġfeel",
        -9.920655123146393
      ],
      [
        "Ġblue",
        -9.921032911240705
      ],
      [
        "ĠBrad",
        -9.921401757471289
      ],
      [
        "Ġnormal",
        -9.922479347620921
      ],
      [
        "Ġdocument",
        -9.922510265232045
      ],
      [
        "Ġ182",
        -9.922759806557476
      ],
      [
        "Ġtouchdown",
        -9.92498661010887
      ],
      [
        "Ġmiddle",
        -9.924989323245217
      ],
      [
        "xenon",
        -9.925597151542709
      ],
      [
        "ĠTess",
        -9.926509660731874
      ],
      [
        "Ġmovie",
        -9.928886199318491
      ],
      [
        "ĠMo",
        -9.929027168191006
      ],
      [
        "Ġlanding",
        -9.929980121601268
      ],
      [
        "Ġpick",
        -9.931204685755908
      ],
      [
        "ĠChina",
        -9.931311411486544
      ],
      [
        "ĠBraathen",
        -9.931389385764854
      ],
      [
        "ĠSmith",
        -9.93139557801653
      ],
      [
        "ĠLouis",
        -9.93141230114787
      ],
      [
        "ĠTurk",
        -9.931414366748061
      ],
      [
        "ĠHorse",
        -9.931516953696633
      ],
      [
        "ĠCenter",
        -9.931600145980047
      ],
      [
        "Ġpromotion",
        -9.93183619226081
      ],
      [
        "Ġgenu",
        -9.932292348288948
      ],
      [
        "Ġphysical",
        -9.932587761416453
      ],
      [
        "Ġoppos",
        -9.933128473765144
      ],
      [
        "Ġleader",
        -9.93507511238306
      ],
      [
        "ier",
        -9.935396142378782
      ],
      [
        "Ġdefense",
        -9.937840995521931
      ],
      [
        "Ġrelief",
        -9.9379813913684
      ],
      [
        "ĠYoung",
        -9.938010497152302
      ],
      [
        "Ġtrue",
        -9.938987971091098
      ],
      [
        "Ġbar",
        -9.941063023250045
      ],
      [
        "Ġlot",
        -9.94155862301972
      ],
      [
        "Ġfactor",
        -9.941790353791404
      ],
      [
        "Ġsixth",
        -9.943503423282657
      ],
      [
        "Ġsociet",
        -9.944334501306155
      ],
      [
        "Ġhonor",
        -9.944340320049882
      ],
      [
        "ĠMiddle",
        -9.944341478702322
      ],
      [
        "ĠEgyptian",
        -9.944413950126556
      ],
      [
        "ĠHighway",
        -9.944498860970029
      ],
      [
        "Ġtrial",
        -9.944801745479648
      ],
      [
        "Ġhear",
        -9.945767197590975
      ],
      [
        "Ġpublication",
        -9.945855082212852
      ],
      [
        "inkel",
        -9.94613933583803
      ],
      [
        "Ġengine",
        -9.948311307113908
      ],
      [
        "BA",
        -9.94931146832651
      ],
      [
        "Ġextreme",
        -9.950870447270699
      ],
      [
        "ĠSociet",
        -9.951108362275562
      ],
      [
        "Ġsense",
        -9.952952796048615
      ],
      [
        "Ġbooks",
        -9.95461033556797
      ],
      [
        "drew",
        -9.954747949163936
      ],
      [
        "Ġlegal",
        -9.95600307617281
      ],
      [
        "Ġscreen",
        -9.957115543954151
      ],
      [
        "Ã¡",
        -9.957309159788194
      ],
      [
        "ĠMeyerbeer",
        -9.957449423432731
      ],
      [
        "ĠLong",
        -9.957591120079792
      ],
      [
        "Ġescape",
        -9.957596627318653
      ],
      [
        "Ġcontent",
        -9.95768290683021
      ],
      [
        "ĠShiva",
        -9.957963895291442
      ],
      [
        "Ġpurchase",
        -9.958611359379963
      ],
      [
        "ownsend",
        -9.958903361719768
      ],
      [
        "ĠPost",
        -9.959285326442401
      ],
      [
        "Ġcricket",
        -9.959437476121735
      ],
      [
        "Ġfacilit",
        -9.95964561473097
      ],
      [
        "ĠGames",
        -9.959688784522822
      ],
      [
        "Ġbuild",
        -9.96032368890349
      ],
      [
        "ĠYue",
        -9.9613081966381
      ],
      [
        "Ġworker",
        -9.961698472013598
      ],
      [
        "Ġplanet",
        -9.962216148967617
      ],
      [
        "E",
        -9.96307597970334
      ],
      [
        "Ġwing",
        -9.96352838469884
      ],
      [
        "Ġreflect",
        -9.96376680467654
      ],
      [
        "Ġstreet",
        -9.964055666488976
      ],
      [
        "Ġfinancial",
        -9.964077664904025
      ],
      [
        "ĠNicole",
        -9.96414342418473
      ],
      [
        "Ġshell",
        -9.964145729101293
      ],
      [
        "Ġweaken",
        -9.965202108589724
      ],
      [
        "wide",
        -9.966170970565058
      ],
      [
        "Ġtext",
        -9.96679722943361
      ],
      [
        "ĠAtlant",
        -9.967280298471415
      ],
      [
        "ĠAI",
        -9.968784777642615
      ],
      [
        "Ġbox",
        -9.968976868131694
      ],
      [
        "Ġbrown",
        -9.970738742731202
      ],
      [
        "Ġcougar",
        -9.970740221263348
      ],
      [
        "Ġcontrast",
        -9.970764212689264
      ],
      [
        "Ġfriends",
        -9.971321417146779
      ],
      [
        "Ġdraft",
        -9.971477523969172
      ],
      [
        "ĠHelm",
        -9.972158047714416
      ],
      [
        "ski",
        -9.97271148821769
      ],
      [
        "Ġdeit",
        -9.97273626379397
      ],
      [
        "Ġultimate",
        -9.97380030046751
      ],
      [
        "ĠOperation",
        -9.974401281669403
      ],
      [
        "Ġmurder",
        -9.975081894622154
      ],
      [
        "Ġlos",
        -9.975547031903725
      ],
      [
        "ĠAcadem",
        -9.976529586084183
      ],
      [
        "Ġ51",
        -9.976632774332495
      ],
      [
        "Ġopportunit",
        -9.977449984358516
      ],
      [
        "Ġrespond",
        -9.977449991128847
      ],
      [
        "Ġattention",
        -9.97745022529907
      ],
      [
        "Ġcasualt",
        -9.977765079970135
      ],
      [
        "Ġbackground",
        -9.977884961859349
      ],
      [
        "Ġcarry",
        -9.977985210550148
      ],
      [
        "Ġthick",
        -9.978085494027212
      ],
      [
        "Ġeye",
        -9.978127362081125
      ],
      [
        "Ġpromote",
        -9.978221391883567
      ],
      [
        "like",
        -9.978902044901385
      ],
      [
        "Ġnortheast",
        -9.979231080642213
      ],
      [
        "Ġcomed",
        -9.980429986274796
      ],
      [
        "ri",
        -9.98064010303292
      ],
      [
        "bam",
        -9.983967633492068
      ],
      [
        "ĠGovernment",
        -9.98420674126872
      ],
      [
        "Ġtechnique",
        -9.984206744813562
      ],
      [
        "up",
        -9.984312230602555
      ],
      [
        "Ġmatter",
        -9.984314431813079
      ],
      [
        "Ġreaction",
        -9.984326288589536
      ],
      [
        "T",
        -9.984680092928286
      ],
      [
        "vi",
        -9.98546118415267
      ],
      [
        "Ġcoin",
        -9.986462502474286
      ],
      [
        "Ġschedule",
        -9.98689230867458
      ],
      [
        "port",
        -9.990684289578745
      ],
      [
        "Ġassault",
        -9.991024592549188
      ],
      [
        "ĠHamel",
        -9.991059953348739
      ],
      [
        "nel",
        -9.991486033982913
      ],
      [
        "Ġrise",
        -9.992019910331077
      ],
      [
        "ca",
        -9.993124857164212
      ],
      [
        "ĠSevera",
        -9.993221379578225
      ],
      [
        "Station",
        -9.995147595259592
      ],
      [
        "ĠHome",
        -9.996262239655525
      ],
      [
        "Ġdiscuss",
        -9.996941848409366
      ],
      [
        "Ġprimari",
        -9.997235530596683
      ],
      [
        "Ġwalk",
        -9.997368752736339
      ],
      [
        "Ġspecimen",
        -9.99785877747297
      ],
      [
        "Ġvehicle",
        -9.99785877893438
      ],
      [
        "Ġcrowd",
        -9.997859557425052
      ],
      [
        "Ġwebsite",
        -9.9978599053054
      ],
      [
        "over",
        -9.998321671922426
      ],
      [
        "ĠJohnson",
        -9.999513336701824
      ],
      [
        "Ġhair",
        -10.000738919719721
      ],
      [
        "rang",
        -10.001779361572773
      ],
      [
        "Ġ52",
        -10.002732095060319
      ],
      [
        "Ġstore",
        -10.00321442628151
      ],
      [
        "Ġsport",
        -10.003341891477481
      ],
      [
        "Ġinspire",
        -10.00348265587388
      ],
      [
        "Ġsurrounding",
        -10.00412413875695
      ],
      [
        "Ġhospital",
        -10.004691232571213
      ],
      [
        "Ġsquare",
        -10.004755333007212
      ],
      [
        "Ġappeal",
        -10.00475536356555
      ],
      [
        "Ġsoundtrack",
        -10.004761103088056
      ],
      [
        "Ġcultural",
        -10.004774067636236
      ],
      [
        "ĠLittle",
        -10.004774676389541
      ],
      [
        "Ġrough",
        -10.00480017687163
      ],
      [
        "Ġtask",
        -10.004879686484195
      ],
      [
        "ger",
        -10.006294342723047
      ],
      [
        "Ġarriv",
        -10.009457684960806
      ],
      [
        "Ġcanno",
        -10.009901862152779
      ],
      [
        "Ġbad",
        -10.00996693890023
      ],
      [
        "Ġfiction",
        -10.010623313802064
      ],
      [
        "Ġoffensive",
        -10.010902705816527
      ],
      [
        "Ġpasse",
        -10.011294092501636
      ],
      [
        "Ġvolume",
        -10.011699936582058
      ],
      [
        "Ġthousand",
        -10.011700656915114
      ],
      [
        "ĠPortugues",
        -10.011708806024467
      ],
      [
        "ĠEdward",
        -10.01175265261538
      ],
      [
        "Ġheart",
        -10.011886665109287
      ],
      [
        "Ġdetermine",
        -10.012476621870896
      ],
      [
        "Ġtransferr",
        -10.013609935819062
      ],
      [
        "dom",
        -10.013888364496935
      ],
      [
        "ĠPo",
        -10.014561512494904
      ],
      [
        "Ġintens",
        -10.015545603977602
      ],
      [
        "Ġsex",
        -10.01841121894215
      ],
      [
        "ĠCaptain",
        -10.01869280977239
      ],
      [
        "Ġcolour",
        -10.018693791257704
      ],
      [
        "Ġpush",
        -10.018848841837972
      ],
      [
        "Ġwinter",
        -10.019017777757037
      ],
      [
        "expected",
        -10.01960716153613
      ],
      [
        "Ġsimpl",
        -10.020292772216154
      ],
      [
        "H",
        -10.023004468028969
      ],
      [
        "un",
        -10.023210612805276
      ],
      [
        "Ġprais",
        -10.023565575947295
      ],
      [
        "ĠFey",
        -10.025115538416223
      ],
      [
        "Ġinfantry",
        -10.025786379945675
      ],
      [
        "ĠCivil",
        -10.025787905590683
      ],
      [
        "ĠSpain",
        -10.025853452213656
      ],
      [
        "ĠThough",
        -10.025979593164994
      ],
      [
        "ĠCan",
        -10.026214292398938
      ],
      [
        "ĠApple",
        -10.026357079429996
      ],
      [
        "Ġprominent",
        -10.02635751273447
      ],
      [
        "Ġtwent",
        -10.026540326048043
      ],
      [
        "Ġ34",
        -10.026592473584536
      ],
      [
        "stream",
        -10.027841550591619
      ],
      [
        "Ġfast",
        -10.028512865337008
      ],
      [
        "Ġindependent",
        -10.028705869145274
      ],
      [
        "Ġmatche",
        -10.028935703898206
      ],
      [
        "ated",
        -10.030635430229808
      ],
      [
        "Ġinter",
        -10.03063588039727
      ],
      [
        "wise",
        -10.030662376617514
      ],
      [
        "Ġcomposition",
        -10.031085916002187
      ],
      [
        "ard",
        -10.03261854434907
      ],
      [
        "Ġsession",
        -10.03282980644822
      ],
      [
        "ĠMountain",
        -10.032947061329196
      ],
      [
        "ĠPop",
        -10.033308804737153
      ],
      [
        "tons",
        -10.034606349212165
      ],
      [
        "ĠGroup",
        -10.034669488877192
      ],
      [
        "Ġhero",
        -10.036209309585377
      ],
      [
        "Ġ181",
        -10.036513133125862
      ],
      [
        "Ġobject",
        -10.039193432999143
      ],
      [
        "Ġmemor",
        -10.039488439690263
      ],
      [
        "ĠWelsh",
        -10.039970313955155
      ],
      [
        "ĠTintin",
        -10.039971142309469
      ],
      [
        "Ġextensive",
        -10.039973690129838
      ],
      [
        "Ġreign",
        -10.039974593039164
      ],
      [
        "ĠBalti",
        -10.040265540772577
      ],
      [
        "ĠMaster",
        -10.040477326800517
      ],
      [
        "ĠAla",
        -10.04159653668452
      ],
      [
        "ĠGold",
        -10.042412968667199
      ],
      [
        "ĠLord",
        -10.042846290574879
      ],
      [
        "ge",
        -10.042915926713153
      ],
      [
        "Ġvote",
        -10.043291847098114
      ],
      [
        "ĠEva",
        -10.043373480236497
      ],
      [
        "hi",
        -10.043598366627862
      ],
      [
        "Ġnorthwest",
        -10.044055297120646
      ],
      [
        "inches",
        -10.044241607406297
      ],
      [
        "Ġpath",
        -10.045023482863197
      ],
      [
        "ĠPolis",
        -10.045503225611814
      ],
      [
        "Ġportray",
        -10.04583421216374
      ],
      [
        "Ġscience",
        -10.045946246049256
      ],
      [
        "white",
        -10.046933585325995
      ],
      [
        "ĠEmpire",
        -10.047164338887313
      ],
      [
        "Ġwind",
        -10.047168601754574
      ],
      [
        "Ġretain",
        -10.047173891934152
      ],
      [
        "Ġwindow",
        -10.047181705590067
      ],
      [
        "Ġhabitat",
        -10.047596386303763
      ],
      [
        "ĠAm",
        -10.047844983761125
      ],
      [
        "Ġmile",
        -10.049882085159428
      ],
      [
        "Ġnest",
        -10.049962218678225
      ],
      [
        "ĠY",
        -10.050338944369805
      ],
      [
        "Ġsales",
        -10.050791686054701
      ],
      [
        "Ġimprove",
        -10.051479421297223
      ],
      [
        "Ġthreat",
        -10.05275282625541
      ],
      [
        "Ġobserve",
        -10.052786118084425
      ],
      [
        "Ġarchaeolog",
        -10.054285657567105
      ],
      [
        "ĠNesbitt",
        -10.05441071111418
      ],
      [
        "Ġsucceed",
        -10.054410712631807
      ],
      [
        "ĠCeres",
        -10.054442653382306
      ],
      [
        "ĠLock",
        -10.054500822621156
      ],
      [
        "ĠAndrew",
        -10.054723537715534
      ],
      [
        "ĠChar",
        -10.054762764521076
      ],
      [
        "Ġdescription",
        -10.054846522602656
      ],
      [
        "j",
        -10.055510237845628
      ],
      [
        "craft",
        -10.056513796503094
      ],
      [
        "Ġhands",
        -10.058842640848132
      ],
      [
        "ĠVaran",
        -10.058915992943422
      ],
      [
        "Ġreviewer",
        -10.059472058368307
      ],
      [
        "Ġfunction",
        -10.060360805509092
      ],
      [
        "Ġcontroll",
        -10.061526880785351
      ],
      [
        "ĠOdaenath",
        -10.06170998393461
      ],
      [
        "Ġsustain",
        -10.061710307138105
      ],
      [
        "Ġcaptain",
        -10.061710769858077
      ],
      [
        "Ġdomestic",
        -10.061710784497329
      ],
      [
        "ĠSarnia",
        -10.06171178619782
      ],
      [
        "Ġacid",
        -10.061729086477504
      ],
      [
        "Ġancien",
        -10.06176779279642
      ],
      [
        "ĠMik",
        -10.062475186599926
      ],
      [
        "ĠNot",
        -10.06344319101056
      ],
      [
        "Ġjump",
        -10.063633032834037
      ],
      [
        "Ġcomputer",
        -10.063821240550315
      ],
      [
        "Ġcombine",
        -10.064738583636558
      ],
      [
        "Ġcounty",
        -10.064895239472419
      ],
      [
        "Ġconclude",
        -10.066665055081325
      ],
      [
        "ĠIsrael",
        -10.066678659098095
      ],
      [
        "Ġexcept",
        -10.068755216933221
      ],
      [
        "Ġpilot",
        -10.069063525109138
      ],
      [
        "Ġrisk",
        -10.069072030759393
      ],
      [
        "Ġnarrow",
        -10.069161524996147
      ],
      [
        "ĠTorre",
        -10.070547290292286
      ],
      [
        "Ġbasi",
        -10.070607987417866
      ],
      [
        "Ġtracks",
        -10.071785959116472
      ],
      [
        "Ġ49",
        -10.073271451446907
      ],
      [
        "Ġsecret",
        -10.073595474877779
      ],
      [
        "Ġagent",
        -10.076519567566217
      ],
      [
        "Ġchampionship",
        -10.076542367851555
      ],
      [
        "ĠEngineer",
        -10.076596586549996
      ],
      [
        "ĠArt",
        -10.076604796890047
      ],
      [
        "Ġeconomic",
        -10.076712327155224
      ],
      [
        "ĠWash",
        -10.07679896721442
      ],
      [
        "ĠZho",
        -10.07691003883428
      ],
      [
        "Ġsecure",
        -10.076963969956942
      ],
      [
        "Ġorganize",
        -10.077414303509762
      ],
      [
        "Ġwear",
        -10.077433346236388
      ],
      [
        "ĠStone",
        -10.077612790030908
      ],
      [
        "ĠManch",
        -10.077848583152676
      ],
      [
        "ĠIllinois",
        -10.078858166048436
      ],
      [
        "ĠFree",
        -10.079208980739098
      ],
      [
        "Ġintroduc",
        -10.07977973622313
      ],
      [
        "ĠSara",
        -10.08102784311778
      ],
      [
        "Ġboard",
        -10.081285490823273
      ],
      [
        "ĠPerÃ³n",
        -10.083941890232872
      ],
      [
        "ĠSimpson",
        -10.083945653867772
      ],
      [
        "Ġentrance",
        -10.084016650546062
      ],
      [
        "Ġrear",
        -10.08512290267446
      ],
      [
        "Ġalone",
        -10.085238958155774
      ],
      [
        "ik",
        -10.087610180226497
      ],
      [
        "R",
        -10.088190965492927
      ],
      [
        "Ġargue",
        -10.088251280056607
      ],
      [
        "Ġgre",
        -10.089039247612813
      ],
      [
        "eception",
        -10.090013721285398
      ],
      [
        "ĠBook",
        -10.090374881785028
      ],
      [
        "ĠOcean",
        -10.090734365789846
      ],
      [
        "var",
        -10.091389668144416
      ],
      [
        "ĠWilhelm",
        -10.091451813457148
      ],
      [
        "ĠThunderbird",
        -10.091452281428507
      ],
      [
        "Ġyellow",
        -10.091452654412114
      ],
      [
        "Ġapparent",
        -10.09145294902124
      ],
      [
        "Ġkakapo",
        -10.091458241915504
      ],
      [
        "Ġchapter",
        -10.091471901447274
      ],
      [
        "ĠWeek",
        -10.091482061304582
      ],
      [
        "Ġitem",
        -10.09173062600104
      ],
      [
        "V",
        -10.0917424461475
      ],
      [
        "Ġpop",
        -10.091844547113055
      ],
      [
        "ĠMean",
        -10.093181629350628
      ],
      [
        "Ġ48",
        -10.09412259709442
      ],
      [
        "ĠTown",
        -10.09461866297259
      ],
      [
        "Ġphase",
        -10.095751517259169
      ],
      [
        "Ġenerg",
        -10.097143315721054
      ],
      [
        "Ġstanding",
        -10.097319116218515
      ],
      [
        "ĠEaster",
        -10.09742340728701
      ],
      [
        "ĠKh",
        -10.098060177392021
      ],
      [
        "hann",
        -10.098141128040862
      ],
      [
        "Ġviewers",
        -10.098259383907983
      ],
      [
        "Ġmonument",
        -10.09902760410877
      ],
      [
        "Ġconvert",
        -10.099028213055874
      ],
      [
        "Ġcadmi",
        -10.099028284651931
      ],
      [
        "Ġopponent",
        -10.099032163675272
      ],
      [
        "li",
        -10.099210297477095
      ],
      [
        "Ġdelay",
        -10.099767230575683
      ],
      [
        "Ġhappen",
        -10.100033067554294
      ],
      [
        "ĠBob",
        -10.100080978619488
      ],
      [
        "Ġpartial",
        -10.100307913738007
      ],
      [
        "Ġhop",
        -10.101721966594726
      ],
      [
        "Ġstop",
        -10.102738944965758
      ],
      [
        "ĠBowl",
        -10.102926161572448
      ],
      [
        "Ġfeeling",
        -10.103549306961995
      ],
      [
        "Ġmaximu",
        -10.10500672849113
      ],
      [
        "Ġtransit",
        -10.105663880550289
      ],
      [
        "hood",
        -10.105702066837159
      ],
      [
        "ĠWi",
        -10.105874213304475
      ],
      [
        "Ġinning",
        -10.106197550582058
      ],
      [
        "ux",
        -10.10619939286169
      ],
      [
        "Ġcombat",
        -10.10662253627077
      ],
      [
        "ĠOmaha",
        -10.106661441717694
      ],
      [
        "Ġcontact",
        -10.1066723362954
      ],
      [
        "Ġpro",
        -10.106915575141915
      ],
      [
        "ĠEver",
        -10.106994999928677
      ],
      [
        "ĠJu",
        -10.108063374171742
      ],
      [
        "zy",
        -10.10834422071207
      ],
      [
        "ble",
        -10.109402181413275
      ],
      [
        "kovic",
        -10.111022146328853
      ],
      [
        "ĠCommon",
        -10.111215559265911
      ],
      [
        "Ġengage",
        -10.111643304865918
      ],
      [
        "ver",
        -10.112085455957295
      ],
      [
        "Ġcon",
        -10.11239232603777
      ],
      [
        "Ġnecessar",
        -10.114353468395432
      ],
      [
        "Ġpattern",
        -10.114353588526788
      ],
      [
        "Ġflank",
        -10.114353619706222
      ],
      [
        "ĠJoseph",
        -10.114358552466086
      ],
      [
        "Ġrainfall",
        -10.114390681867816
      ],
      [
        "Ġfailure",
        -10.114480812367312
      ],
      [
        "ring",
        -10.115582788775157
      ],
      [
        "ĠMogadish",
        -10.115671653303206
      ],
      [
        "ĠDel",
        -10.116633372360296
      ],
      [
        "Ġprogress",
        -10.117272904207622
      ],
      [
        "ĠSR",
        -10.118790851838234
      ],
      [
        "Ġrescue",
        -10.120303139434334
      ],
      [
        "ĠCon",
        -10.120605650923661
      ],
      [
        "Ġattract",
        -10.121604068287125
      ],
      [
        "ke",
        -10.121620733193858
      ],
      [
        "Ĵ",
        -10.122100861162451
      ],
      [
        "ĠFleet",
        -10.122105609294586
      ],
      [
        "Ġstarling",
        -10.12232775414489
      ],
      [
        "Ġnominate",
        -10.122385898769526
      ],
      [
        "Ġfish",
        -10.123178956717858
      ],
      [
        "Ġwood",
        -10.123543336774723
      ],
      [
        "ĠBen",
        -10.123894315005213
      ],
      [
        "Ġpossibl",
        -10.124551306489458
      ],
      [
        "water",
        -10.125047637510576
      ],
      [
        "Ġinstitution",
        -10.125812278915227
      ],
      [
        "older",
        -10.126323257069789
      ],
      [
        "Ġmaster",
        -10.126485140770654
      ],
      [
        "shore",
        -10.126567458871008
      ],
      [
        "ĠDot",
        -10.126931293899737
      ],
      [
        "Ġ64",
        -10.126961927929717
      ],
      [
        "Ġmulti",
        -10.129693413645693
      ],
      [
        "Ġdissipat",
        -10.129917904549554
      ],
      [
        "ĠAssembl",
        -10.129917919058995
      ],
      [
        "Ġchief",
        -10.129929669759331
      ],
      [
        "ĠInnis",
        -10.129970767015461
      ],
      [
        "Ġguest",
        -10.129984777764188
      ],
      [
        "ĠGar",
        -10.130162409370513
      ],
      [
        "ĠBo",
        -10.134694393413922
      ],
      [
        "Ġstand",
        -10.134843082796174
      ],
      [
        "Ġblock",
        -10.135235462067758
      ],
      [
        "Ġlabel",
        -10.135326120755273
      ],
      [
        "Ġpai",
        -10.135344993124292
      ],
      [
        "Ġyour",
        -10.135448960810997
      ],
      [
        "kare",
        -10.135685332102893
      ],
      [
        "ĠKent",
        -10.136318682897624
      ],
      [
        "Ġathlete",
        -10.137792029664169
      ],
      [
        "ĠMcCall",
        -10.137835181709502
      ],
      [
        "ĠAirport",
        -10.137867306048589
      ],
      [
        "Ġdistrict",
        -10.139103794537906
      ],
      [
        "Ġonto",
        -10.13978819734358
      ],
      [
        "ĠAbu",
        -10.140622309648382
      ],
      [
        "Ġroyal",
        -10.141419685758006
      ],
      [
        "board",
        -10.14164404536978
      ],
      [
        "Ġ46",
        -10.141908543805638
      ],
      [
        "ĠDam",
        -10.14193986576387
      ],
      [
        "ba",
        -10.142037440794542
      ],
      [
        "Ġreduc",
        -10.142228510235022
      ],
      [
        "ĠMore",
        -10.142379292636255
      ],
      [
        "Ġstudent",
        -10.143887648978666
      ],
      [
        "Ġbeliev",
        -10.144179859604316
      ],
      [
        "kept",
        -10.145423588123084
      ],
      [
        "Ġreligion",
        -10.145728428470505
      ],
      [
        "Ġunique",
        -10.14582122235798
      ],
      [
        "Ġstoryline",
        -10.146203562156554
      ],
      [
        "ĠCole",
        -10.148406092763858
      ],
      [
        "Ġcore",
        -10.148628228381419
      ],
      [
        "ĠTenn",
        -10.148956038563032
      ],
      [
        "back",
        -10.149478289512997
      ],
      [
        "U",
        -10.150014970466582
      ],
      [
        "Ġspread",
        -10.151441648520697
      ],
      [
        "shire",
        -10.151783892165628
      ],
      [
        "Ġoccupie",
        -10.152018170620856
      ],
      [
        "Ġsemi",
        -10.15209195186522
      ],
      [
        "ĠForest",
        -10.15241153691346
      ],
      [
        "Ġwithdraw",
        -10.152875661288203
      ],
      [
        "ĠJupiter",
        -10.153728430955201
      ],
      [
        "Ġcharacteristic",
        -10.153942118592967
      ],
      [
        "Ġproduct",
        -10.154265385128348
      ],
      [
        "stone",
        -10.156423018414472
      ],
      [
        "Ġdut",
        -10.158323825309289
      ],
      [
        "Ġcare",
        -10.161463695872541
      ],
      [
        "Ġequip",
        -10.16148386880956
      ],
      [
        "Ġcompound",
        -10.161792944635703
      ],
      [
        "Ġdepth",
        -10.161796529792793
      ],
      [
        "twic",
        -10.161838583006837
      ],
      [
        "ĠValley",
        -10.161884264366059
      ],
      [
        "Ġoccasional",
        -10.162772684940151
      ],
      [
        "Ġcomic",
        -10.16297083223937
      ],
      [
        "ĠLine",
        -10.163341637828227
      ],
      [
        "Ġ37",
        -10.165967884863237
      ],
      [
        "Ġacre",
        -10.166914294155331
      ],
      [
        "ĠCra",
        -10.167228757491223
      ],
      [
        "Ġdoing",
        -10.167628490086262
      ],
      [
        "kg",
        -10.167685588229837
      ],
      [
        "Ġ55",
        -10.168212459100506
      ],
      [
        "den",
        -10.168226639482851
      ],
      [
        "Ġreplac",
        -10.168970428960879
      ],
      [
        "Ġconsecutive",
        -10.169923025456187
      ],
      [
        "Ġfloor",
        -10.1699290674109
      ],
      [
        "ĠDjed",
        -10.169929699833691
      ],
      [
        "Ġnomination",
        -10.16996248016974
      ],
      [
        "delphi",
        -10.16998619094705
      ],
      [
        "ĠGreek",
        -10.169990059188496
      ],
      [
        "ĠFour",
        -10.17023774918104
      ],
      [
        "Ġsurviv",
        -10.170371033535936
      ],
      [
        "fall",
        -10.170651125142463
      ],
      [
        "Ġorbit",
        -10.171031605126965
      ],
      [
        "Ġfung",
        -10.171413545009539
      ],
      [
        "Ġrais",
        -10.173817090864754
      ],
      [
        "venue",
        -10.173841596739535
      ],
      [
        "Ġmuseum",
        -10.17481013472265
      ],
      [
        "gun",
        -10.176152229822543
      ],
      [
        "Ġserv",
        -10.177364781580685
      ],
      [
        "Ġlane",
        -10.177891770210875
      ],
      [
        "ĠDVD",
        -10.17811977292447
      ],
      [
        "Ġvessel",
        -10.178121668480198
      ],
      [
        "Ġnegative",
        -10.178138071700317
      ],
      [
        "Ġcivil",
        -10.178183470622187
      ],
      [
        "Ġpermanent",
        -10.178385829268132
      ],
      [
        "Ġoil",
        -10.178754812046371
      ],
      [
        "Ġcastle",
        -10.180310099199671
      ],
      [
        "Ġarmor",
        -10.180804839932865
      ],
      [
        "va",
        -10.181927516606518
      ],
      [
        "W",
        -10.182700213814622
      ],
      [
        "Ġwild",
        -10.182727256565485
      ],
      [
        "Ġchallenge",
        -10.182791942770848
      ],
      [
        "ĠBig",
        -10.18359731224689
      ],
      [
        "Ġrefer",
        -10.183674424045464
      ],
      [
        "Ġfear",
        -10.184112798784263
      ],
      [
        "Ġrival",
        -10.185126632888363
      ],
      [
        "ĠSky",
        -10.185236692924015
      ],
      [
        "Ġspot",
        -10.185437208809947
      ],
      [
        "Ġchance",
        -10.185521255100454
      ],
      [
        "Ġobtain",
        -10.186384212735542
      ],
      [
        "Ġopinion",
        -10.186424824728043
      ],
      [
        "Ġairport",
        -10.18657161873712
      ],
      [
        "Ġcreation",
        -10.187047409990344
      ],
      [
        "Ġorigin",
        -10.188481643083888
      ],
      [
        "eval",
        -10.189677194357738
      ],
      [
        "ĠSe",
        -10.190336054107302
      ],
      [
        "urus",
        -10.1908319565907
      ],
      [
        "Ġweight",
        -10.191075912249794
      ],
      [
        "ĠDue",
        -10.192648071537286
      ],
      [
        "Ġsurvive",
        -10.192696044489047
      ],
      [
        "panish",
        -10.19271645884152
      ],
      [
        "Ġburi",
        -10.193490709661349
      ],
      [
        "ĠBir",
        -10.193561698435634
      ],
      [
        "Ġheight",
        -10.193998113568563
      ],
      [
        "Ġ130",
        -10.194333200390309
      ],
      [
        "Ġrespect",
        -10.19444659141038
      ],
      [
        "ĠInstitute",
        -10.19471754295387
      ],
      [
        "ĠScience",
        -10.194719904628831
      ],
      [
        "Ġunknow",
        -10.19472089411115
      ],
      [
        "ĠChild",
        -10.194727924715252
      ],
      [
        "Ġexecutive",
        -10.194780717790191
      ],
      [
        "Ġspring",
        -10.19478856989234
      ],
      [
        "Ġelse",
        -10.194852007353852
      ],
      [
        "tried",
        -10.194978647327199
      ],
      [
        "Ġiron",
        -10.195239021450485
      ],
      [
        "Ġdesire",
        -10.195884396801473
      ],
      [
        "Ġthreaten",
        -10.196686733573435
      ],
      [
        "Ġsecurit",
        -10.196777335862173
      ],
      [
        "ov",
        -10.199252291092682
      ],
      [
        "Ġhope",
        -10.201641512129232
      ],
      [
        "burn",
        -10.202346037083833
      ],
      [
        "laid",
        -10.202354002975891
      ],
      [
        "Ġvisual",
        -10.203065786773308
      ],
      [
        "Ġencounter",
        -10.203124606995864
      ],
      [
        "borough",
        -10.203183785747902
      ],
      [
        "ĠField",
        -10.203374539474336
      ],
      [
        "Ġ120",
        -10.203452621922462
      ],
      [
        "Ġrefus",
        -10.203940691688805
      ],
      [
        "Ġrecognize",
        -10.20440532512659
      ],
      [
        "gen",
        -10.20628424979852
      ],
      [
        "Ġseek",
        -10.207125173874669
      ],
      [
        "ĠHo",
        -10.210203549953711
      ],
      [
        "Ġdeclar",
        -10.21089673674216
      ],
      [
        "Ġadapt",
        -10.211202404531145
      ],
      [
        "ĠSAFE",
        -10.21159548635804
      ],
      [
        "Ġtank",
        -10.211600249415259
      ],
      [
        "Ġstopp",
        -10.212231350669725
      ],
      [
        "ent",
        -10.212351488961616
      ],
      [
        "Ġidentifie",
        -10.21280073824881
      ],
      [
        "Ġtrip",
        -10.21325113440039
      ],
      [
        "ĠMac",
        -10.215815313011223
      ],
      [
        "Ġfac",
        -10.216057872642779
      ],
      [
        "ĠPar",
        -10.216297566799362
      ],
      [
        "Ġbowl",
        -10.218139492167468
      ],
      [
        "ĠJim",
        -10.219438390491144
      ],
      [
        "Ġknowledge",
        -10.220145517466651
      ],
      [
        "ĠMinister",
        -10.220171668947733
      ],
      [
        "Ġassociation",
        -10.220202776458112
      ],
      [
        "ĠMartin",
        -10.220317846629815
      ],
      [
        "Ġinvasion",
        -10.220438577626904
      ],
      [
        "Ġweather",
        -10.220563427392785
      ],
      [
        "ĠMichi",
        -10.220943399884442
      ],
      [
        "Ġfeed",
        -10.222741677397266
      ],
      [
        "growth",
        -10.224872304592889
      ],
      [
        "Ġtypes",
        -10.225157661892013
      ],
      [
        "Ġinch",
        -10.225549081808683
      ],
      [
        "Ġanalysi",
        -10.225942535593225
      ],
      [
        "ĠCroatia",
        -10.226444460280032
      ],
      [
        "Ġraid",
        -10.22722298156934
      ],
      [
        "Ġpeace",
        -10.228153456404836
      ],
      [
        "Ġcouncil",
        -10.228754582877446
      ],
      [
        "Ī",
        -10.228763177372572
      ],
      [
        "Ġfamous",
        -10.2287708176849
      ],
      [
        "Ġsculpture",
        -10.228771558373214
      ],
      [
        "ĠGood",
        -10.228816995369245
      ],
      [
        "ĠFurther",
        -10.228861036071287
      ],
      [
        "Ġbid",
        -10.229092069820652
      ],
      [
        "Ġfreeway",
        -10.229170277635323
      ],
      [
        "Ġtreatment",
        -10.229302078028812
      ],
      [
        "Ġfinding",
        -10.229359877377203
      ],
      [
        "Ġminer",
        -10.229409131265161
      ],
      [
        "ĠJain",
        -10.229607495998376
      ],
      [
        "Ġcampus",
        -10.229940483801727
      ],
      [
        "Ġstatement",
        -10.231821841681901
      ],
      [
        "ĠEnd",
        -10.232755435765707
      ],
      [
        "ular",
        -10.233751611552737
      ],
      [
        "ĠMu",
        -10.234154063663475
      ],
      [
        "Ġdivide",
        -10.234731149483284
      ],
      [
        "Ġceremon",
        -10.234772025453623
      ],
      [
        "abilit",
        -10.235014470923083
      ],
      [
        "Ġperfect",
        -10.237316063937577
      ],
      [
        "Ġsuper",
        -10.237327479753013
      ],
      [
        "ĠVideo",
        -10.237462270035552
      ],
      [
        "Ġfox",
        -10.237655128926827
      ],
      [
        "Ġspend",
        -10.237676167557748
      ],
      [
        "HMS",
        -10.23807441852623
      ],
      [
        "Ġteacher",
        -10.238585930304794
      ],
      [
        "Ġteaching",
        -10.240776062103166
      ],
      [
        "diff",
        -10.241604106679038
      ],
      [
        "ner",
        -10.242018865487305
      ],
      [
        "Ġtechnolog",
        -10.242536249683361
      ],
      [
        "Ġchannel",
        -10.242674780997252
      ],
      [
        "Ġdepend",
        -10.243176284167285
      ],
      [
        "ĠQ",
        -10.24395734025881
      ],
      [
        "Ġinstrument",
        -10.24489232916289
      ],
      [
        "ĠSu",
        -10.246176849091672
      ],
      [
        "Ġrecall",
        -10.246231551183252
      ],
      [
        "Ġbig",
        -10.246283555213402
      ],
      [
        "ĠBarrow",
        -10.24650371563746
      ],
      [
        "Ġdestroyer",
        -10.24746758474571
      ],
      [
        "ĠOp",
        -10.249680761647486
      ],
      [
        "Ġargu",
        -10.249729738886575
      ],
      [
        "Ġshift",
        -10.250338321066693
      ],
      [
        "Ġ65",
        -10.250563103272803
      ],
      [
        "Ġmouth",
        -10.25146296642508
      ],
      [
        "ĠEven",
        -10.251730143016724
      ],
      [
        "ĠPhila",
        -10.253168083217137
      ],
      [
        "Ġremove",
        -10.253859360569958
      ],
      [
        "Ġdropp",
        -10.254113770225803
      ],
      [
        "Ġfederal",
        -10.255080429376363
      ],
      [
        "ĠCongress",
        -10.255080952530978
      ],
      [
        "Ġgradual",
        -10.255081306553329
      ],
      [
        "Ġarrest",
        -10.25508271272918
      ],
      [
        "ĠKeats",
        -10.255111419064482
      ],
      [
        "Ġlandfall",
        -10.255175517649883
      ],
      [
        "Ġcriticism",
        -10.255682893216552
      ],
      [
        "ĠWay",
        -10.25646118809084
      ],
      [
        "ĠBridge",
        -10.257767716412047
      ],
      [
        "ĠNever",
        -10.260180018594797
      ],
      [
        "ĠMor",
        -10.260270620730548
      ],
      [
        "Ġeditor",
        -10.262000704678028
      ],
      [
        "Ġsupplie",
        -10.263425595440001
      ],
      [
        "Ġdrum",
        -10.263669830271425
      ],
      [
        "Ġkilometre",
        -10.264008892496118
      ],
      [
        "Ġpossibilit",
        -10.264008921925214
      ],
      [
        "ĠMorris",
        -10.264011119402994
      ],
      [
        "Ġdebate",
        -10.264047509066593
      ],
      [
        "Ġcivilian",
        -10.26414969621705
      ],
      [
        "Ġchair",
        -10.265341035352007
      ],
      [
        "ĠPremier",
        -10.265408279874709
      ],
      [
        "ĠGord",
        -10.265777599248999
      ],
      [
        "ackground",
        -10.266154170593634
      ],
      [
        "Ġstrengthen",
        -10.266502652617365
      ],
      [
        "Ġ54",
        -10.267490379004911
      ],
      [
        "Ġfoundation",
        -10.267663446740585
      ],
      [
        "Ġgreates",
        -10.269326336045442
      ],
      [
        "Ġfirm",
        -10.269616545602602
      ],
      [
        "Ġ43",
        -10.269810700917578
      ],
      [
        "Ġkilling",
        -10.271712014739647
      ],
      [
        "ĠKa",
        -10.272510543696324
      ],
      [
        "ĠAdditional",
        -10.273018567677084
      ],
      [
        "ĠAlbum",
        -10.273018626876603
      ],
      [
        "ĠDutch",
        -10.27301903988868
      ],
      [
        "Ġbudget",
        -10.273076849723296
      ],
      [
        "Ġmultiple",
        -10.273275378549894
      ],
      [
        "ĠAli",
        -10.273596863277032
      ],
      [
        "Ġcounter",
        -10.273897931462168
      ],
      [
        "ĠMax",
        -10.273918593285195
      ],
      [
        "Ġdivine",
        -10.274050287427364
      ],
      [
        "Ġsolo",
        -10.274253113182217
      ],
      [
        "Ġagreement",
        -10.274281277551733
      ],
      [
        "Ġ56",
        -10.27747035036443
      ],
      [
        "Ġdance",
        -10.278232809253037
      ],
      [
        "Ġappointe",
        -10.27856558835595
      ],
      [
        "ĠSteve",
        -10.278604025419956
      ],
      [
        "Ġ53",
        -10.279958090925119
      ],
      [
        "Ġrefuse",
        -10.281238863242505
      ],
      [
        "om",
        -10.28167107354183
      ],
      [
        "ĠFestival",
        -10.282108808081231
      ],
      [
        "Ġactress",
        -10.282118775600619
      ],
      [
        "Ġbelief",
        -10.282122448603552
      ],
      [
        "ĠNathan",
        -10.28213074385133
      ],
      [
        "Ġstruggle",
        -10.282687832898143
      ],
      [
        "Ġconnection",
        -10.282699783444485
      ],
      [
        "Ġformation",
        -10.285314748455756
      ],
      [
        "Ġnewly",
        -10.28608056475873
      ],
      [
        "Ġcompose",
        -10.286561137944794
      ],
      [
        "Ġforeign",
        -10.286862152541616
      ],
      [
        "ac",
        -10.287250493648607
      ],
      [
        "Ġkick",
        -10.288201194738704
      ],
      [
        "ĠDer",
        -10.288324253359372
      ],
      [
        "ĠRam",
        -10.288466770129126
      ],
      [
        "pe",
        -10.289003460665297
      ],
      [
        "Ġoccasion",
        -10.2901879268228
      ],
      [
        "Ġ160",
        -10.291156470353613
      ],
      [
        "Ġcollege",
        -10.291283129464126
      ],
      [
        "Ġsilver",
        -10.291298224142913
      ],
      [
        "Ġdata",
        -10.291421409547858
      ],
      [
        "Ġobservation",
        -10.291614849090973
      ],
      [
        "ĠHeart",
        -10.29168543961972
      ],
      [
        "ĠRoll",
        -10.291903280027686
      ],
      [
        "spread",
        -10.293991574965036
      ],
      [
        "Ġchang",
        -10.294571778060803
      ],
      [
        "ari",
        -10.295390395026121
      ],
      [
        "ĠLo",
        -10.296350582614254
      ],
      [
        "ĠPer",
        -10.296450687781165
      ],
      [
        "ĠEn",
        -10.299368219101945
      ],
      [
        "Ġdai",
        -10.299590021237087
      ],
      [
        "onference",
        -10.300054225908363
      ],
      [
        "Ġnucleus",
        -10.300542378963861
      ],
      [
        "Ġrestaurant",
        -10.300542381228986
      ],
      [
        "Ġchoice",
        -10.30054308627788
      ],
      [
        "Ġexcavation",
        -10.300580987649218
      ],
      [
        "ĠUSA",
        -10.300698044271606
      ],
      [
        "Ġhighlight",
        -10.300744572703643
      ],
      [
        "Ġarrangement",
        -10.300820077946007
      ],
      [
        "ĠRanger",
        -10.30084227433796
      ],
      [
        "tra",
        -10.300892462152731
      ],
      [
        "Ġrush",
        -10.301014783833
      ],
      [
        "Ġcandidate",
        -10.301040209841652
      ],
      [
        "Ġbit",
        -10.301293356186822
      ],
      [
        "Ġzone",
        -10.301421514633859
      ],
      [
        "ĠOde",
        -10.302232966955675
      ],
      [
        "ĠHaven",
        -10.302462266102907
      ],
      [
        "theles",
        -10.302633524874768
      ],
      [
        "Ġreleas",
        -10.303131685851447
      ],
      [
        "wa",
        -10.303802612036836
      ],
      [
        "ĠOriginal",
        -10.304367605644742
      ],
      [
        "ĠEd",
        -10.305930937855225
      ],
      [
        "Ġfur",
        -10.306363109893356
      ],
      [
        "Ġrail",
        -10.307270437750827
      ],
      [
        "Ġfit",
        -10.307605389729023
      ],
      [
        "Ġclean",
        -10.307826019984697
      ],
      [
        "ĠSlam",
        -10.307846550771554
      ],
      [
        "Ġwh",
        -10.309750839103028
      ],
      [
        "Ġinscription",
        -10.309888173355475
      ],
      [
        "Ġvictim",
        -10.30988817348426
      ],
      [
        "Ġstraight",
        -10.309888300727904
      ],
      [
        "ĠGulf",
        -10.30995961751724
      ],
      [
        "ĠInter",
        -10.31000311761117
      ],
      [
        "Ġlives",
        -10.310312440131941
      ],
      [
        "ĠLewis",
        -10.310604894670421
      ],
      [
        "Ġ57",
        -10.310632364395921
      ],
      [
        "Ġrepair",
        -10.310955197559542
      ],
      [
        "Ġsides",
        -10.311065957913602
      ],
      [
        "Ġattribute",
        -10.311223372071545
      ],
      [
        "Ġformal",
        -10.311508897223685
      ],
      [
        "Ġassembl",
        -10.312851062090168
      ],
      [
        "ha",
        -10.312943146277615
      ],
      [
        "Ġ110",
        -10.313834871310249
      ],
      [
        "Ġsimple",
        -10.314090396315592
      ],
      [
        "Ġ96",
        -10.314818033260224
      ],
      [
        "Ġprepared",
        -10.315603612723201
      ],
      [
        "Ġmind",
        -10.316441266917185
      ],
      [
        "Ġdifference",
        -10.317112228641719
      ],
      [
        "sses",
        -10.317373096215224
      ],
      [
        "Ġtransfer",
        -10.317469097103785
      ],
      [
        "Ġdon",
        -10.318570405903472
      ],
      [
        "Ġ41",
        -10.31872900347522
      ],
      [
        "Ġrecommend",
        -10.318850905592328
      ],
      [
        "per",
        -10.318923791668201
      ],
      [
        "Ġdrama",
        -10.319144873349641
      ],
      [
        "ru",
        -10.319187087511203
      ],
      [
        "Ġcrime",
        -10.319322145092212
      ],
      [
        "ĠCardinal",
        -10.319322463778793
      ],
      [
        "ĠRevolution",
        -10.319332475654745
      ],
      [
        "ĠProduction",
        -10.319345799568099
      ],
      [
        "Ġminister",
        -10.319349985899724
      ],
      [
        "ĠAmong",
        -10.31936099518554
      ],
      [
        "Ġcombination",
        -10.319433655071448
      ],
      [
        "Ġoption",
        -10.319602075756876
      ],
      [
        "off",
        -10.320042360914826
      ],
      [
        "Ġpassage",
        -10.320402864059165
      ],
      [
        "Ġsetting",
        -10.32076170246474
      ],
      [
        "ĠTemple",
        -10.321477127575823
      ],
      [
        "FA",
        -10.322334890788618
      ],
      [
        "Ġaim",
        -10.322707815998102
      ],
      [
        "Ġhire",
        -10.32287167346314
      ],
      [
        "pi",
        -10.323713782066692
      ],
      [
        "Ġincident",
        -10.327684920909292
      ],
      [
        "ĠPeople",
        -10.328845982052083
      ],
      [
        "ĠOxford",
        -10.328846275838321
      ],
      [
        "Ġarticle",
        -10.328847356170877
      ],
      [
        "ĠEntertainment",
        -10.328909227871296
      ],
      [
        "ĠTurner",
        -10.329119521016104
      ],
      [
        "ĠCoast",
        -10.329251789352117
      ],
      [
        "Ġunlike",
        -10.329365037269518
      ],
      [
        "Ġsail",
        -10.329614004836383
      ],
      [
        "ex",
        -10.329849386714862
      ],
      [
        "ĠRussian",
        -10.33009550802573
      ],
      [
        "Ġ700",
        -10.332297086524639
      ],
      [
        "ĠReview",
        -10.334181177781067
      ],
      [
        "Ġ179",
        -10.334369207810525
      ],
      [
        "Ġframe",
        -10.334556589963057
      ],
      [
        "ĠGirl",
        -10.335085274353704
      ],
      [
        "Ġouter",
        -10.33543678510039
      ],
      [
        "ĠMario",
        -10.336941942123293
      ],
      [
        "Ġpaint",
        -10.33770454913256
      ],
      [
        "ap",
        -10.338486489531064
      ],
      [
        "Ġhotel",
        -10.33858364421199
      ],
      [
        "Ġintersection",
        -10.33862578882319
      ],
      [
        "Ġobjective",
        -10.338724289186427
      ],
      [
        "ĠFox",
        -10.339028498406098
      ],
      [
        "ĠBois",
        -10.339064095596362
      ],
      [
        "Ġdigital",
        -10.339194946960852
      ],
      [
        "ius",
        -10.339920989163621
      ],
      [
        "Ġ76",
        -10.340327935495583
      ],
      [
        "ization",
        -10.34061401604885
      ],
      [
        "Ġbottom",
        -10.34110846506086
      ],
      [
        "ĠOut",
        -10.341474138589657
      ],
      [
        "bi",
        -10.3425624333603
      ],
      [
        "lo",
        -10.343285943608336
      ],
      [
        "ĠRome",
        -10.345506905193897
      ],
      [
        "ĠCommission",
        -10.346013172639829
      ],
      [
        "yond",
        -10.346307514279156
      ],
      [
        "Ġdrawing",
        -10.347008073060536
      ],
      [
        "ĠJoe",
        -10.34705240938867
      ],
      [
        "Ġskill",
        -10.347884217333316
      ],
      [
        "Ġtorpedo",
        -10.347998054090061
      ],
      [
        "ĠGovernor",
        -10.348170067904793
      ],
      [
        "Ġritual",
        -10.348170094275535
      ],
      [
        "ĠDirector",
        -10.348351174503318
      ],
      [
        "ĠFantas",
        -10.348705470341546
      ],
      [
        "ĠPro",
        -10.349115991239227
      ],
      [
        "ĠDaniel",
        -10.3492926759914
      ],
      [
        "Ġgreen",
        -10.350457264830348
      ],
      [
        "Ġsupply",
        -10.351290087084022
      ],
      [
        "ĠBon",
        -10.351342418449153
      ],
      [
        "Ġprint",
        -10.351704322487457
      ],
      [
        "Ġsouthwest",
        -10.352187257919198
      ],
      [
        "Ġcomplet",
        -10.352843058471342
      ],
      [
        "ĠBosto",
        -10.352912240966322
      ],
      [
        "ĠStudios",
        -10.353083511661465
      ],
      [
        "ĠBart",
        -10.35313469550237
      ],
      [
        "Ġ95",
        -10.354192201120085
      ],
      [
        "Ġskin",
        -10.354458017419034
      ],
      [
        "Ġbatsm",
        -10.355738360757769
      ],
      [
        "Ġcommittee",
        -10.356760307437828
      ],
      [
        "ĠAllie",
        -10.357331663115298
      ],
      [
        "ez",
        -10.35788786706231
      ],
      [
        "ĠMuslim",
        -10.357973996158224
      ],
      [
        "Ġexpedition",
        -10.357974017985377
      ],
      [
        "Ġantimony",
        -10.357974139786494
      ],
      [
        "Ġpromise",
        -10.357975544881782
      ],
      [
        "Ġpenalt",
        -10.357977628439368
      ],
      [
        "Ġegg",
        -10.357979073991089
      ],
      [
        "ĠLife",
        -10.35798035430771
      ],
      [
        "Ġaccompanie",
        -10.357983376986535
      ],
      [
        "Ġmessage",
        -10.358017876452095
      ],
      [
        "Ġcave",
        -10.358020535734823
      ],
      [
        "Ġgenre",
        -10.358034032111888
      ],
      [
        "Ġpage",
        -10.358172524761304
      ],
      [
        "ĠBrook",
        -10.358372994825048
      ],
      [
        "ĠJuan",
        -10.358484902721617
      ],
      [
        "ĠChain",
        -10.358899358782828
      ],
      [
        "he",
        -10.361406795225005
      ],
      [
        "Ġ800",
        -10.361906452872907
      ],
      [
        "Ġremark",
        -10.36370442200744
      ],
      [
        "Ġsend",
        -10.36404974964941
      ],
      [
        "Ġhunt",
        -10.364396613504404
      ],
      [
        "Ġboy",
        -10.365096014355313
      ],
      [
        "ĠArea",
        -10.366141989500438
      ],
      [
        "Ġreserve",
        -10.36665233217772
      ],
      [
        "ett",
        -10.366754577482792
      ],
      [
        "bout",
        -10.367349707825529
      ],
      [
        "Ġfan",
        -10.36746833731827
      ],
      [
        "Ġbeach",
        -10.367481044171736
      ],
      [
        "ado",
        -10.367824385531641
      ],
      [
        "ĠMagazine",
        -10.367874979546698
      ],
      [
        "ĠEvita",
        -10.36787501162378
      ],
      [
        "ĠSystem",
        -10.367875793467562
      ],
      [
        "ĠWhat",
        -10.368031724923643
      ],
      [
        "Ġwinner",
        -10.368146798935744
      ],
      [
        "Ġgas",
        -10.36819787908317
      ],
      [
        "Ġnaval",
        -10.368446679402343
      ],
      [
        "ĠCrown",
        -10.368697372012326
      ],
      [
        "Ġcompare",
        -10.36872151828469
      ],
      [
        "ĠBishop",
        -10.368930930327785
      ],
      [
        "Ġcamera",
        -10.368990970848444
      ],
      [
        "ĠSingle",
        -10.369401784796516
      ],
      [
        "Ġsurvey",
        -10.369776617086325
      ],
      [
        "Ġverse",
        -10.370132306269678
      ],
      [
        "ĠWilliams",
        -10.371310576715771
      ],
      [
        "Ġnotable",
        -10.371762505029142
      ],
      [
        "ĠYan",
        -10.371926892967068
      ],
      [
        "Ġbranch",
        -10.37283581710393
      ],
      [
        "ĠPlayer",
        -10.373926163389857
      ],
      [
        "Ġspore",
        -10.37393057478197
      ],
      [
        "Ġ62",
        -10.37396691262863
      ],
      [
        "za",
        -10.374120780676149
      ],
      [
        "ĠHan",
        -10.37428591556961
      ],
      [
        "Äģ",
        -10.37451663327911
      ],
      [
        "Ġstarr",
        -10.375125037869243
      ],
      [
        "ĠLee",
        -10.375571641256975
      ],
      [
        "Ġweak",
        -10.376442495106472
      ],
      [
        "almos",
        -10.37694141794579
      ],
      [
        "Ġcaptur",
        -10.377442642893072
      ],
      [
        "Ġarrange",
        -10.37761745334128
      ],
      [
        "Ġtechnical",
        -10.377908616688192
      ],
      [
        "Ġdrain",
        -10.3779149835255
      ],
      [
        "Ġinteraction",
        -10.378010424749482
      ],
      [
        "Ġgeneration",
        -10.378087199285655
      ],
      [
        "Ġfavor",
        -10.37999793451823
      ],
      [
        "Ġguide",
        -10.381431191483417
      ],
      [
        "Ġ73",
        -10.381624209320176
      ],
      [
        "Ġbillion",
        -10.383212198996285
      ],
      [
        "Ġpolicy",
        -10.383616162350151
      ],
      [
        "Ġindependen",
        -10.383723651967822
      ],
      [
        "Ġ85",
        -10.384039621756015
      ],
      [
        "body",
        -10.384789421881823
      ],
      [
        "Ġmedica",
        -10.384826435654492
      ],
      [
        "Ġb",
        -10.385435593882962
      ],
      [
        "Ġ61",
        -10.38557821646381
      ],
      [
        "Ġwarm",
        -10.385609840398173
      ],
      [
        "Ġhere",
        -10.386317782406463
      ],
      [
        "istrict",
        -10.386360666236754
      ],
      [
        "pa",
        -10.386682910910865
      ],
      [
        "Ġprincipal",
        -10.387975989391752
      ],
      [
        "Ġmushroom",
        -10.387975989490545
      ],
      [
        "Ġretreat",
        -10.387976106177133
      ],
      [
        "Ġunusual",
        -10.387979465505158
      ],
      [
        "Ġsector",
        -10.388052243273428
      ],
      [
        "Ġconcret",
        -10.388489560154241
      ],
      [
        "Ġwait",
        -10.388579442909176
      ],
      [
        "ci",
        -10.38861948764372
      ],
      [
        "Ġairline",
        -10.388636794282359
      ],
      [
        "ĠLiu",
        -10.388801078180908
      ],
      [
        "ji",
        -10.38922582545571
      ],
      [
        "Ġbroad",
        -10.389387983803404
      ],
      [
        "Ġdu",
        -10.389390351801653
      ],
      [
        "ĠKang",
        -10.389889907887508
      ],
      [
        "ĠMega",
        -10.390151203095858
      ],
      [
        "Ġreform",
        -10.391077930387983
      ],
      [
        "ĠToda",
        -10.392158965163272
      ],
      [
        "Ġpremiere",
        -10.392548157585358
      ],
      [
        "ĠPi",
        -10.392893599535658
      ],
      [
        "G",
        -10.394681675756985
      ],
      [
        "Ġboundar",
        -10.394712493733355
      ],
      [
        "ĠNin",
        -10.397076791093333
      ],
      [
        "cal",
        -10.397399946302084
      ],
      [
        "Ġmotion",
        -10.397522054472692
      ],
      [
        "ĠProject",
        -10.3981800716501
      ],
      [
        "Ġsenior",
        -10.398180182898525
      ],
      [
        "ĠJurchen",
        -10.398181550267402
      ],
      [
        "ĠPower",
        -10.398182600791532
      ],
      [
        "Ġemperor",
        -10.398684047732061
      ],
      [
        "Ġcool",
        -10.398723052368194
      ],
      [
        "Ġcreator",
        -10.398840714623393
      ],
      [
        "Ġinform",
        -10.401052642653998
      ],
      [
        "ĠMarl",
        -10.401201351276931
      ],
      [
        "hat",
        -10.40228618194908
      ],
      [
        "ĠBro",
        -10.403518631623452
      ],
      [
        "Ġ94",
        -10.404042076524872
      ],
      [
        "Ġ164",
        -10.40605113892516
      ],
      [
        "Ġdress",
        -10.406204349520422
      ],
      [
        "ĠRecording",
        -10.406477175445998
      ],
      [
        "Ġeasi",
        -10.407436108910655
      ],
      [
        "sey",
        -10.408167325727579
      ],
      [
        "Ĺ",
        -10.40829381487954
      ],
      [
        "Ġprotagonist",
        -10.408489349379941
      ],
      [
        "Ġchorus",
        -10.408490386151875
      ],
      [
        "Ġpull",
        -10.408491104876138
      ],
      [
        "Ġcommunication",
        -10.408519807279843
      ],
      [
        "ĠDevelopment",
        -10.408537569242785
      ],
      [
        "ĠBoard",
        -10.408550010899951
      ],
      [
        "ĠSummer",
        -10.408566092618994
      ],
      [
        "ang",
        -10.40904870430537
      ],
      [
        "bury",
        -10.409266869692537
      ],
      [
        "Ġarrival",
        -10.4101695052555
      ],
      [
        "ĠTheatr",
        -10.410334470443026
      ],
      [
        "Ġnothing",
        -10.410990989565512
      ],
      [
        "Ġnor",
        -10.412550118498253
      ],
      [
        "worth",
        -10.414376992347293
      ],
      [
        "Ġspac",
        -10.414572714470324
      ],
      [
        "Ġphotograph",
        -10.416001292130556
      ],
      [
        "tory",
        -10.416299550474124
      ],
      [
        "ĠPr",
        -10.416561867988726
      ],
      [
        "Ġsole",
        -10.416682250887998
      ],
      [
        "ĠMD",
        -10.417033021201428
      ],
      [
        "let",
        -10.417108203947386
      ],
      [
        "Ġstrike",
        -10.417312978933698
      ],
      [
        "Ġfresh",
        -10.418303746656129
      ],
      [
        "Ġentr",
        -10.41864199223659
      ],
      [
        "Ġvision",
        -10.418914911048223
      ],
      [
        "Ġessential",
        -10.418951997341718
      ],
      [
        "Ġplatform",
        -10.418959970065668
      ],
      [
        "ĠTeam",
        -10.419029028994728
      ],
      [
        "Ġguard",
        -10.419069456546143
      ],
      [
        "TC",
        -10.419272513724607
      ],
      [
        "ĠRadio",
        -10.419363226204121
      ],
      [
        "ĠTrack",
        -10.419487912083998
      ],
      [
        "Ġsoil",
        -10.419618252608352
      ],
      [
        "ĠBaby",
        -10.420671052667501
      ],
      [
        "ĠDi",
        -10.42152059345091
      ],
      [
        "onica",
        -10.422336023512052
      ],
      [
        "ĠFamil",
        -10.425372894837018
      ],
      [
        "Ġrain",
        -10.425884237311866
      ],
      [
        "Ġmoral",
        -10.426100170916321
      ],
      [
        "ĠMont",
        -10.426299968026186
      ],
      [
        "Ġtend",
        -10.426402925472615
      ],
      [
        "ĠÃ",
        -10.42694927912639
      ],
      [
        "Ġflag",
        -10.427114088345576
      ],
      [
        "ou",
        -10.428509316817
      ],
      [
        "ĠGA",
        -10.428779357399975
      ],
      [
        "ĠEgypt",
        -10.429294459566238
      ],
      [
        "Ġregime",
        -10.429417912463446
      ],
      [
        "#",
        -10.429432331830853
      ],
      [
        "ĠMacLeod",
        -10.429433051511424
      ],
      [
        "Ġadministration",
        -10.429434123045837
      ],
      [
        "Ġpriest",
        -10.429451446987837
      ],
      [
        "Ġclassifie",
        -10.429460109570027
      ],
      [
        "Ġfuel",
        -10.429485904688597
      ],
      [
        "Ġrepresentative",
        -10.429501641722034
      ],
      [
        "Ġdeclare",
        -10.429981322078689
      ],
      [
        "Ġcruiser",
        -10.430341300876993
      ],
      [
        "ĠWil",
        -10.431837898749794
      ],
      [
        "Ġholding",
        -10.433991783521025
      ],
      [
        "ĠAsia",
        -10.434081986570838
      ],
      [
        "P",
        -10.436664939747274
      ],
      [
        "ĠReal",
        -10.437315331808124
      ],
      [
        "Ġcharter",
        -10.437661017008011
      ],
      [
        "Ġbiograph",
        -10.437915573801671
      ],
      [
        "Ġ1936",
        -10.438291990123194
      ],
      [
        "yson",
        -10.438814261548526
      ],
      [
        "Ġ72",
        -10.439510540616148
      ],
      [
        "Ġfolk",
        -10.43976004487509
      ],
      [
        "ĠAdmiral",
        -10.440070634170503
      ],
      [
        "ĠAthletic",
        -10.440070776895944
      ],
      [
        "Ġpassenger",
        -10.440072037188878
      ],
      [
        "Ġviolence",
        -10.440086811175679
      ],
      [
        "ĠAnthon",
        -10.440129511279185
      ],
      [
        "glades",
        -10.44023292076685
      ],
      [
        "tage",
        -10.44026685219681
      ],
      [
        "ĠSa",
        -10.444082613156386
      ],
      [
        "Ġlayer",
        -10.444322468858715
      ],
      [
        "CE",
        -10.445024664812586
      ],
      [
        "Ġ177",
        -10.445547590684875
      ],
      [
        "ĠItal",
        -10.446554856346113
      ],
      [
        "Ġtall",
        -10.44681692381512
      ],
      [
        "Ġdesignate",
        -10.446949655860475
      ],
      [
        "ĠRio",
        -10.447063589625259
      ],
      [
        "mi",
        -10.447381077557178
      ],
      [
        "ĠSwed",
        -10.447843904910304
      ],
      [
        "Ġshoot",
        -10.44895278450625
      ],
      [
        "ĠConstantin",
        -10.448989772145502
      ],
      [
        "Ġcatch",
        -10.449329626741191
      ],
      [
        "Ġ71",
        -10.449891477218765
      ],
      [
        "Ġparallel",
        -10.450149653795506
      ],
      [
        "Ġprovince",
        -10.450823323497186
      ],
      [
        "Ġfashion",
        -10.450823426213567
      ],
      [
        "ĠDouglas",
        -10.450823505416299
      ],
      [
        "Ġatmosphere",
        -10.450823676386769
      ],
      [
        "Ġremnant",
        -10.450829096553573
      ],
      [
        "Ġroof",
        -10.450831052583462
      ],
      [
        "Ġearthquake",
        -10.450893368524394
      ],
      [
        "idden",
        -10.45099171277922
      ],
      [
        "Ġpossession",
        -10.4510408024023
      ],
      [
        "Ġknot",
        -10.45108567157112
      ],
      [
        "Ġexclusive",
        -10.451163147249574
      ],
      [
        "Ġrenam",
        -10.451173978306187
      ],
      [
        "Ġmassive",
        -10.451249125195648
      ],
      [
        "Ġproposal",
        -10.451313588321845
      ],
      [
        "ĠWalter",
        -10.451344573709527
      ],
      [
        "Ġhomes",
        -10.452234280536763
      ],
      [
        "Ġbasic",
        -10.45274761126413
      ],
      [
        "Ġsettler",
        -10.453584791763632
      ],
      [
        "slo",
        -10.453756607834034
      ],
      [
        "ĠSomali",
        -10.454388092018768
      ],
      [
        "mar",
        -10.454694874745293
      ],
      [
        "ence",
        -10.45503123193929
      ],
      [
        "Ġgraph",
        -10.455214110386674
      ],
      [
        "Ġdedicate",
        -10.455358008985066
      ],
      [
        "Ġ77",
        -10.45556091131755
      ],
      [
        "Ġrebel",
        -10.459352277159613
      ],
      [
        "Ġaddress",
        -10.459371805630482
      ],
      [
        "Ġcollapse",
        -10.460332644814248
      ],
      [
        "Ġ250",
        -10.461021080251989
      ],
      [
        "Ġcolumn",
        -10.461563064302954
      ],
      [
        "ĠCommittee",
        -10.461692883093981
      ],
      [
        "Ġunsuccessful",
        -10.461693271239307
      ],
      [
        "ĠAnonymous",
        -10.461694871608003
      ],
      [
        "Ġbasket",
        -10.461697154549018
      ],
      [
        "ĠHornung",
        -10.46169922741661
      ],
      [
        "Ġchapel",
        -10.461713025842604
      ],
      [
        "Ġfellow",
        -10.461721492506133
      ],
      [
        "Ġsubmarine",
        -10.461791596156914
      ],
      [
        "Ġprotection",
        -10.462383847809098
      ],
      [
        "Ġperhap",
        -10.462499209315052
      ],
      [
        "iro",
        -10.462689055075263
      ],
      [
        "Ġsurround",
        -10.462788821706093
      ],
      [
        "Ġbasin",
        -10.463057825828663
      ],
      [
        "Ġmedi",
        -10.463073729395237
      ],
      [
        "Ġderive",
        -10.463213122839733
      ],
      [
        "ĠGolden",
        -10.464299349063744
      ],
      [
        "ox",
        -10.464419859495141
      ],
      [
        "ĠBond",
        -10.466023084147427
      ],
      [
        "fort",
        -10.467225337283255
      ],
      [
        "Ġjudge",
        -10.467870996482986
      ],
      [
        "Ġparticipate",
        -10.468386798654237
      ],
      [
        "Ġ59",
        -10.468446450641949
      ],
      [
        "ĠJos",
        -10.46861933260299
      ],
      [
        "von",
        -10.468664506434349
      ],
      [
        "Ġimpress",
        -10.468678089755738
      ],
      [
        "Ġbass",
        -10.469283031694602
      ],
      [
        "ible",
        -10.470859389189114
      ],
      [
        "ol",
        -10.47171335329832
      ],
      [
        "po",
        -10.47178142620215
      ],
      [
        "Ġgovern",
        -10.471998011523933
      ],
      [
        "ĠLieutenant",
        -10.472681894081784
      ],
      [
        "ĠCaribbean",
        -10.472681895205247
      ],
      [
        "ĠDemocrat",
        -10.4726819351472
      ],
      [
        "Ġwedding",
        -10.472708509419611
      ],
      [
        "ĠSunday",
        -10.472992271401864
      ],
      [
        "ĠMilit",
        -10.473178799184927
      ],
      [
        "ĠAML",
        -10.473195714263124
      ],
      [
        "Ġtruth",
        -10.473247731243433
      ],
      [
        "ĠPrime",
        -10.473959933388372
      ],
      [
        "ki",
        -10.474736540638247
      ],
      [
        "Ġcompos",
        -10.474955143758987
      ],
      [
        "Ġindicat",
        -10.475077326530755
      ],
      [
        "Ġsample",
        -10.475515976428408
      ],
      [
        "Ġowner",
        -10.475974643798391
      ],
      [
        "ĠMari",
        -10.47782199899542
      ],
      [
        "ĠNC",
        -10.477978529724604
      ],
      [
        "Ġla",
        -10.478456800788214
      ],
      [
        "ĠChels",
        -10.478600199823031
      ],
      [
        "ette",
        -10.478732809002485
      ],
      [
        "Ġtable",
        -10.479083315493423
      ],
      [
        "Ġ81",
        -10.47945420484518
      ],
      [
        "ĠTe",
        -10.479650311361473
      ],
      [
        "Ġ175",
        -10.480304363330992
      ],
      [
        "Ġdecide",
        -10.48178069893996
      ],
      [
        "Ġtrail",
        -10.481796833634068
      ],
      [
        "berg",
        -10.482948572519305
      ],
      [
        "ĠChrist",
        -10.48344467807765
      ],
      [
        "Ġresign",
        -10.483547903403146
      ],
      [
        "Ġsufficient",
        -10.483793005198947
      ],
      [
        "Ġeleven",
        -10.483793280671108
      ],
      [
        "Ġhousehold",
        -10.483867696780779
      ],
      [
        "Ġpanel",
        -10.483918940403246
      ],
      [
        "ĠColumbia",
        -10.484116294109201
      ],
      [
        "ruli",
        -10.484117548875947
      ],
      [
        "ĠRoger",
        -10.484253700845805
      ],
      [
        "Ġestate",
        -10.484283650814351
      ],
      [
        "Ġinterior",
        -10.484489527345342
      ],
      [
        "ERA",
        -10.484504776409157
      ],
      [
        "ĠHindu",
        -10.484742138308789
      ],
      [
        "ĠNe",
        -10.484838234940497
      ],
      [
        "Ġsuccessor",
        -10.484888734701205
      ],
      [
        "Ġsupposed",
        -10.485181063890614
      ],
      [
        "Ġequal",
        -10.485585660580536
      ],
      [
        "ĠGeorgian",
        -10.485647298825011
      ],
      [
        "ĠRa",
        -10.485734415686476
      ],
      [
        "mont",
        -10.486175567261903
      ],
      [
        "Ġbank",
        -10.486274977277667
      ],
      [
        "Ġemotional",
        -10.486597383412176
      ],
      [
        "Ġcomposer",
        -10.487287096934589
      ],
      [
        "Ġremix",
        -10.487379480220792
      ],
      [
        "die",
        -10.487396707743773
      ],
      [
        "Ġspoke",
        -10.488696758296335
      ],
      [
        "nam",
        -10.488963731642873
      ],
      [
        "Ġpreserve",
        -10.490474741626869
      ],
      [
        "Ġdistinguish",
        -10.490701892317524
      ],
      [
        "Ġobserv",
        -10.491312883944994
      ],
      [
        "Ġleaders",
        -10.49358165530941
      ],
      [
        "Ġadventure",
        -10.493860417926197
      ],
      [
        "Ġshooting",
        -10.494274731371922
      ],
      [
        "Ġeconom",
        -10.494491298054388
      ],
      [
        "ĠPublic",
        -10.494599928170395
      ],
      [
        "gÃ©",
        -10.494738389242276
      ],
      [
        "Ġdeploy",
        -10.49475623857617
      ],
      [
        "ĠRomani",
        -10.494798714977037
      ],
      [
        "Ġsoutheast",
        -10.494818160009189
      ],
      [
        "ĠGwen",
        -10.495034411641466
      ],
      [
        "Ġtunnel",
        -10.495034520462772
      ],
      [
        "Ġarchaeologist",
        -10.495226359206939
      ],
      [
        "Ġattain",
        -10.495228750946298
      ],
      [
        "ious",
        -10.495302231227015
      ],
      [
        "Ġjournalist",
        -10.495478534829573
      ],
      [
        "ĠIG",
        -10.496075415508397
      ],
      [
        "ĠMen",
        -10.496128979119046
      ],
      [
        "ga",
        -10.496875748628831
      ],
      [
        "Ġestablishment",
        -10.497039819264824
      ],
      [
        "ĠHolly",
        -10.497204973554059
      ],
      [
        "ker",
        -10.497396945699068
      ],
      [
        "fer",
        -10.50013937622418
      ],
      [
        "ĠMiss",
        -10.503862614192098
      ],
      [
        "ĠCD",
        -10.504168219322313
      ],
      [
        "Ġplane",
        -10.50502473476871
      ],
      [
        "Ġcorrect",
        -10.505614591594178
      ],
      [
        "gett",
        -10.506058078027367
      ],
      [
        "ĠIguanodon",
        -10.506071027709318
      ],
      [
        "ĠIndustr",
        -10.506321159353941
      ],
      [
        "Ġcomponent",
        -10.50639259664933
      ],
      [
        "Ġconvoy",
        -10.506392858121231
      ],
      [
        "Ġtheatre",
        -10.50647327823317
      ],
      [
        "ĠUl",
        -10.506527120318541
      ],
      [
        "ĠVenus",
        -10.506532752899847
      ],
      [
        "quite",
        -10.506839984216892
      ],
      [
        "X",
        -10.506949816626129
      ],
      [
        "Ġvisitor",
        -10.507440239334194
      ],
      [
        "efore",
        -10.507642262114448
      ],
      [
        "Ġkne",
        -10.50842608223108
      ],
      [
        "Ġdrop",
        -10.50908894941438
      ],
      [
        "CA",
        -10.509651412766036
      ],
      [
        "Ġcontribute",
        -10.50970365236282
      ],
      [
        "eath",
        -10.509888730973778
      ],
      [
        "Ġwor",
        -10.510212628865913
      ],
      [
        "J",
        -10.510611119611283
      ],
      [
        "ĠPri",
        -10.51102510060024
      ],
      [
        "ook",
        -10.511103647373583
      ],
      [
        "Ġgraphic",
        -10.511369075780443
      ],
      [
        "Ġsplit",
        -10.511972166885831
      ],
      [
        "Ġex",
        -10.51226907062102
      ],
      [
        "Ġrepeated",
        -10.513669985205532
      ],
      [
        "tadium",
        -10.513706826006262
      ],
      [
        "ĠBull",
        -10.514651045143061
      ],
      [
        "ĠLes",
        -10.515167045320661
      ],
      [
        "Ġpolitic",
        -10.515214836325802
      ],
      [
        "Ġfinds",
        -10.515862035148594
      ],
      [
        "Ġ66",
        -10.517150649954122
      ],
      [
        "net",
        -10.517162707938802
      ],
      [
        "ĠLis",
        -10.517198788148594
      ],
      [
        "ĠHaiti",
        -10.517271310148937
      ],
      [
        "Ġapprove",
        -10.517886850521945
      ],
      [
        "Ġdispute",
        -10.517886857369223
      ],
      [
        "Ġspeech",
        -10.517886861203838
      ],
      [
        "Ġexact",
        -10.517887398808444
      ],
      [
        "Ġoffense",
        -10.517892234121778
      ],
      [
        "Ġrural",
        -10.517927182937552
      ],
      [
        "Ġacademic",
        -10.5180458522475
      ],
      [
        "Ġexit",
        -10.518174477570218
      ],
      [
        "ĠDestin",
        -10.5182652264294
      ],
      [
        "ĠHoward",
        -10.518435329495588
      ],
      [
        "ĠCarl",
        -10.518578276579204
      ],
      [
        "Ġtwin",
        -10.518598676234257
      ],
      [
        "ĠSol",
        -10.519188555527393
      ],
      [
        "ĠJones",
        -10.519260027906459
      ],
      [
        "ĠFA",
        -10.51951713851123
      ],
      [
        "ĠPerr",
        -10.520327089424917
      ],
      [
        "Ġbough",
        -10.5204064566365
      ],
      [
        "Ġdog",
        -10.520836934515197
      ],
      [
        "Ġice",
        -10.522024490740122
      ],
      [
        "wealth",
        -10.522642458904762
      ],
      [
        "Ġdriver",
        -10.523073266047694
      ],
      [
        "Ġassume",
        -10.523708526871516
      ],
      [
        "ĠDown",
        -10.524745002593143
      ],
      [
        "ĠHoly",
        -10.526880557080592
      ],
      [
        "ÃŃ",
        -10.527403471782339
      ],
      [
        "ĠAlexand",
        -10.52847829679233
      ],
      [
        "ĠPol",
        -10.529409032444043
      ],
      [
        "Ġcontrovers",
        -10.529430381703314
      ],
      [
        "ĠSimilar",
        -10.529514762972116
      ],
      [
        "Ġpredator",
        -10.529515184370068
      ],
      [
        "Ġplain",
        -10.529524557660391
      ],
      [
        "ĠSecretary",
        -10.529929494911084
      ],
      [
        "Ġmarch",
        -10.530360519820258
      ],
      [
        "Ġrestore",
        -10.530733297155209
      ],
      [
        "ĠSap",
        -10.531219134238015
      ],
      [
        "Ġalter",
        -10.531847005718713
      ],
      [
        "Ġdesignation",
        -10.532334100074419
      ],
      [
        "ĠDublin",
        -10.536190942752958
      ],
      [
        "Ġload",
        -10.536438982658492
      ],
      [
        "Ġdoubt",
        -10.536517823915492
      ],
      [
        "Ġlands",
        -10.536745746220795
      ],
      [
        "Ġdis",
        -10.537237585616012
      ],
      [
        "Ġglass",
        -10.538208065526014
      ],
      [
        "Ġincorporate",
        -10.538558563714567
      ],
      [
        "Ġbomb",
        -10.538885382441297
      ],
      [
        "Ġencourage",
        -10.540060394161756
      ],
      [
        "ĠOffice",
        -10.540156664545343
      ],
      [
        "Ġear",
        -10.540466612063895
      ],
      [
        "Ġexhibit",
        -10.5409765974543
      ],
      [
        "Ġsports",
        -10.540998691283578
      ],
      [
        "Ġconstant",
        -10.541279485757446
      ],
      [
        "Ġcertifie",
        -10.541279493948684
      ],
      [
        "Ġbenefit",
        -10.541279502206391
      ],
      [
        "Ġvariation",
        -10.541279596899578
      ],
      [
        "Ġrifle",
        -10.541280897418009
      ],
      [
        "ĠStephen",
        -10.541282964216487
      ],
      [
        "Ġpregnan",
        -10.541283452835204
      ],
      [
        "Ġfix",
        -10.541295147122241
      ],
      [
        "ĠMontana",
        -10.541300070827303
      ],
      [
        "Ġopposition",
        -10.54130501137772
      ],
      [
        "Ġdownload",
        -10.541337854321727
      ],
      [
        "ĠSnow",
        -10.541393692855998
      ],
      [
        "Ġinspiration",
        -10.541423446137994
      ],
      [
        "Ġblow",
        -10.541551783949439
      ],
      [
        "ĠNative",
        -10.541582294041904
      ],
      [
        "ibari",
        -10.541686274969669
      ],
      [
        "Ġreplacement",
        -10.542302534427705
      ],
      [
        "Ġimportan",
        -10.542956114652245
      ],
      [
        "ĠRoxa",
        -10.54343771116229
      ],
      [
        "Ġbear",
        -10.544145385358885
      ],
      [
        "ĠBand",
        -10.544257304158759
      ],
      [
        "ĠCol",
        -10.54493951966463
      ],
      [
        "Ġtwel",
        -10.545236824360835
      ],
      [
        "ĠHomer",
        -10.545419338053712
      ],
      [
        "Ġrich",
        -10.546091207803546
      ],
      [
        "ĠNH",
        -10.546277372444536
      ],
      [
        "Ġcapacit",
        -10.546364512286939
      ],
      [
        "Ġrose",
        -10.547553867212244
      ],
      [
        "Ġcontest",
        -10.548248272843523
      ],
      [
        "ĠBase",
        -10.549293085874965
      ],
      [
        "inner",
        -10.549451715967434
      ],
      [
        "Ġintroduction",
        -10.550030378516999
      ],
      [
        "Ġurban",
        -10.550097962843651
      ],
      [
        "ership",
        -10.550326823653752
      ],
      [
        "Ġnois",
        -10.551582489893656
      ],
      [
        "ĠNight",
        -10.55240822834637
      ],
      [
        "Ġdriv",
        -10.552695202772433
      ],
      [
        "ĠStevens",
        -10.552891846385343
      ],
      [
        "ĠMississippi",
        -10.553184224249996
      ],
      [
        "Ġrecruit",
        -10.553184224301159
      ],
      [
        "Ġjourney",
        -10.553184250327345
      ],
      [
        "ĠActivis",
        -10.553184341830363
      ],
      [
        "ĠTrujill",
        -10.553184372027289
      ],
      [
        "Ġreputation",
        -10.553187619111615
      ],
      [
        "Ġsequel",
        -10.553190611872667
      ],
      [
        "ĠSamuel",
        -10.55319531659515
      ],
      [
        "tial",
        -10.55323749636995
      ],
      [
        "ĠRidge",
        -10.553284415116853
      ],
      [
        "Ġsubstantial",
        -10.553295086077778
      ],
      [
        "Ġexception",
        -10.55415027770519
      ],
      [
        "Ġfun",
        -10.55442890847713
      ],
      [
        "ĠCritical",
        -10.55447493861588
      ],
      [
        "Ġsurrender",
        -10.55496491887679
      ],
      [
        "ĠBana",
        -10.55502442637234
      ],
      [
        "Ġfictional",
        -10.555407265198173
      ],
      [
        "ĠDann",
        -10.555642122787471
      ],
      [
        "Ġdistinct",
        -10.5557852224238
      ],
      [
        "ĠCroatian",
        -10.55642996095268
      ],
      [
        "ĠNorman",
        -10.558960974989828
      ],
      [
        "Ġfine",
        -10.559164747666816
      ],
      [
        "ĠGull",
        -10.560293548303516
      ],
      [
        "ĠFriends",
        -10.560786642245219
      ],
      [
        "Ġdefender",
        -10.561246881562656
      ],
      [
        "Ġexchange",
        -10.56229009231781
      ],
      [
        "Ġheat",
        -10.5629319285811
      ],
      [
        "Ġprey",
        -10.563436230516132
      ],
      [
        "Ġmap",
        -10.563712059568537
      ],
      [
        "ig",
        -10.564359521384812
      ],
      [
        "Ġapplie",
        -10.564380090206381
      ],
      [
        "Ġromantic",
        -10.565232498624205
      ],
      [
        "Ġhonour",
        -10.565233243399376
      ],
      [
        "Ġinstance",
        -10.565242620787043
      ],
      [
        "Ġvalley",
        -10.565249196025398
      ],
      [
        "Ġdistribution",
        -10.565304126837013
      ],
      [
        "Ġexpansion",
        -10.56557771350662
      ],
      [
        "Ġmanner",
        -10.565725920410756
      ],
      [
        "ĠJam",
        -10.565769623074758
      ],
      [
        "ĠLenn",
        -10.566622759353566
      ],
      [
        "Ġbaby",
        -10.56671625151783
      ],
      [
        "ĠRose",
        -10.567087361921415
      ],
      [
        "Ġparliament",
        -10.56771351658244
      ],
      [
        "Ġtouch",
        -10.56828345917994
      ],
      [
        "Ġsymbol",
        -10.56856656383987
      ],
      [
        "Ġneck",
        -10.569412580368635
      ],
      [
        "Ġ176",
        -10.569834428180371
      ],
      [
        "Ġdisc",
        -10.570309679656171
      ],
      [
        "ĠHart",
        -10.571475194220248
      ],
      [
        "Ġtomb",
        -10.572066689868521
      ],
      [
        "Ġdry",
        -10.573259275253337
      ],
      [
        "Ġrequir",
        -10.575197127787876
      ],
      [
        "telligence",
        -10.575490786406494
      ],
      [
        "gone",
        -10.575530372946586
      ],
      [
        "ĠTop",
        -10.57663132808136
      ],
      [
        "ĠAlan",
        -10.57678849853166
      ],
      [
        "Ġearth",
        -10.576826388665712
      ],
      [
        "Ġresponsibilit",
        -10.577427538978547
      ],
      [
        "Ġapplication",
        -10.577428494394717
      ],
      [
        "Ġmonarch",
        -10.577429461519465
      ],
      [
        "ĠFrederick",
        -10.57743036047058
      ],
      [
        "Ġalternative",
        -10.577467905536205
      ],
      [
        "Ġdrug",
        -10.577497486795625
      ],
      [
        "Ġdominate",
        -10.577546723169132
      ],
      [
        "Ġdepartment",
        -10.577628474275134
      ],
      [
        "ĠHarris",
        -10.577720677326873
      ],
      [
        "Ġsignal",
        -10.57783320341148
      ],
      [
        "mann",
        -10.577933590178173
      ],
      [
        "ĠIsabell",
        -10.578087014361753
      ],
      [
        "iness",
        -10.578376273932674
      ],
      [
        "Ġshipp",
        -10.579126231897535
      ],
      [
        "Ġcharit",
        -10.580052407043976
      ],
      [
        "ĠSk",
        -10.580210954555389
      ],
      [
        "Ġexisten",
        -10.581303321004352
      ],
      [
        "Ġbelong",
        -10.58189710488978
      ],
      [
        "ĠNi",
        -10.582032172186628
      ],
      [
        "ction",
        -10.58271598207924
      ],
      [
        "Ġlose",
        -10.582961150337095
      ],
      [
        "Ġensure",
        -10.58366423851804
      ],
      [
        "jev",
        -10.583730841835749
      ],
      [
        "Ġpitcher",
        -10.58376444221349
      ],
      [
        "ĠWill",
        -10.585180434730962
      ],
      [
        "Ġrealize",
        -10.585264069731341
      ],
      [
        "ĠPen",
        -10.586510622583571
      ],
      [
        "Ġbound",
        -10.588919045173853
      ],
      [
        "q",
        -10.589173977842275
      ],
      [
        "iston",
        -10.589650495193725
      ],
      [
        "Ġthirt",
        -10.589769117425828
      ],
      [
        "ĠStefan",
        -10.589773229929264
      ],
      [
        "ĠCalvert",
        -10.589773309630568
      ],
      [
        "Ġportrait",
        -10.589773329621117
      ],
      [
        "Ġinterchange",
        -10.58977337985922
      ],
      [
        "Ġexpert",
        -10.589774427148672
      ],
      [
        "Ġfavorite",
        -10.589775552117587
      ],
      [
        "ĠTower",
        -10.589780839496505
      ],
      [
        "Ġrailway",
        -10.589959977890242
      ],
      [
        "istic",
        -10.59012486746084
      ],
      [
        "ĠOrder",
        -10.59022391002803
      ],
      [
        "Ġbattleship",
        -10.590255040299745
      ],
      [
        "Ġsigning",
        -10.59075682505615
      ],
      [
        "ĠPress",
        -10.591300180330872
      ],
      [
        "ĠDa",
        -10.591436981654711
      ],
      [
        "Ġafterward",
        -10.59193425060744
      ],
      [
        "Ġreading",
        -10.593079569735853
      ],
      [
        "ĠArthur",
        -10.593704290751628
      ],
      [
        "Ġdefine",
        -10.596640504159597
      ],
      [
        "ĠDream",
        -10.597498749811173
      ],
      [
        "Ġhistoric",
        -10.598113561733701
      ],
      [
        "Ġproper",
        -10.598400459417023
      ],
      [
        "Ġdoor",
        -10.598450381817537
      ],
      [
        "ĠBell",
        -10.59878122535387
      ],
      [
        "pr",
        -10.599352498073745
      ],
      [
        "Ġcanal",
        -10.59984270045071
      ],
      [
        "Ġpound",
        -10.600007909127125
      ],
      [
        "Ġcompete",
        -10.600827981432204
      ],
      [
        "Ġcult",
        -10.60221402398793
      ],
      [
        "ĠPlunkett",
        -10.602273218046815
      ],
      [
        "Ġresource",
        -10.602273224308805
      ],
      [
        "Ġsurprise",
        -10.602273291655289
      ],
      [
        "Ġcrown",
        -10.602273560144067
      ],
      [
        "Ġsquadron",
        -10.602279977168948
      ],
      [
        "Ġbright",
        -10.602306822299596
      ],
      [
        "ĠHugh",
        -10.60232063462751
      ],
      [
        "Ġconvecti",
        -10.60265427370857
      ],
      [
        "Ġidentit",
        -10.603870594922746
      ],
      [
        "bert",
        -10.603889844132013
      ],
      [
        "olar",
        -10.604196499153549
      ],
      [
        "Ġpuzzle",
        -10.604511983244686
      ],
      [
        "ware",
        -10.604830029410117
      ],
      [
        "Ġmoderate",
        -10.604891927378336
      ],
      [
        "Ġ98",
        -10.60493875375111
      ],
      [
        "Ġinvite",
        -10.605091111297826
      ],
      [
        "Ġcycle",
        -10.605843969235574
      ],
      [
        "Ġauthors",
        -10.605986832863344
      ],
      [
        "Ġsoft",
        -10.607069951630997
      ],
      [
        "Ġadvanc",
        -10.607370360574933
      ],
      [
        "Ġrow",
        -10.607819875156755
      ],
      [
        "ida",
        -10.607847840714182
      ],
      [
        "uck",
        -10.608717509352871
      ],
      [
        "Ġplays",
        -10.609386162407683
      ],
      [
        "Ġfarm",
        -10.609577810945924
      ],
      [
        "Ġworship",
        -10.609799984430687
      ],
      [
        "Ġfranchise",
        -10.609807540813827
      ],
      [
        "Ġwish",
        -10.61200965577731
      ],
      [
        "Ġalien",
        -10.612209539333945
      ],
      [
        "Ġtribes",
        -10.613584629205803
      ],
      [
        "ĠEr",
[...]
