[PAD]	0
[UNK]	0
[CLS]	0
[SEP]	0
<0x00>	0
<0x01>	0
<0x02>	0
<0x03>	0
<0x04>	0
<0x05>	0
<0x06>	0
<0x07>	0
<0x08>	0
<0x09>	0
<0x0A>	0
<0x0B>	0
<0x0C>	0
<0x0D>	0
<0x0E>	0
<0x0F>	0
<0x10>	0
<0x11>	0
<0x12>	0
<0x13>	0
<0x14>	0
<0x15>	0
<0x16>	0
<0x17>	0
<0x18>	0
<0x19>	0
<0x1A>	0
<0x1B>	0
<0x1C>	0
<0x1D>	0
<0x1E>	0
<0x1F>	0
<0x20>	0
<0x21>	0
<0x22>	0
<0x23>	0
<0x24>	0
<0x25>	0
<0x26>	0
<0x27>	0
<0x28>	0
<0x29>	0
<0x2A>	0
<0x2B>	0
<0x2C>	0
<0x2D>	0
<0x2E>	0
<0x2F>	0
<0x30>	0
<0x31>	0
<0x32>	0
<0x33>	0
<0x34>	0
<0x35>	0
<0x36>	0
<0x37>	0
<0x38>	0
<0x39>	0
<0x3A>	0
<0x3B>	0
<0x3C>	0
<0x3D>	0
<0x3E>	0
<0x3F>	0
<0x40>	0
<0x41>	0
<0x42>	0
<0x43>	0
<0x44>	0
<0x45>	0
<0x46>	0
<0x47>	0
<0x48>	0
<0x49>	0
<0x4A>	0
<0x4B>	0
<0x4C>	0
<0x4D>	0
<0x4E>	0
<0x4F>	0
<0x50>	0
<0x51>	0
<0x52>	0
<0x53>	0
<0x54>	0
<0x55>	0
<0x56>	0
<0x57>	0
<0x58>	0
<0x59>	0
<0x5A>	0
<0x5B>	0
<0x5C>	0
<0x5D>	0
<0x5E>	0
<0x5F>	0
<0x60>	0
<0x61>	0
<0x62>	0
<0x63>	0
<0x64>	0
<0x65>	0
<0x66>	0
<0x67>	0
<0x68>	0
<0x69>	0
<0x6A>	0
<0x6B>	0
<0x6C>	0
<0x6D>	0
<0x6E>	0
<0x6F>	0
<0x70>	0
<0x71>	0
<0x72>	0
<0x73>	0
<0x74>	0
<0x75>	0
<0x76>	0
<0x77>	0
<0x78>	0
<0x79>	0
<0x7A>	0
<0x7B>	0
<0x7C>	0
<0x7D>	0
<0x7E>	0
<0x7F>	0
<0x80>	0
<0x81>	0
<0x82>	0
<0x83>	0
<0x84>	0
<0x85>	0
<0x86>	0
<0x87>	0
<0x88>	0
<0x89>	0
<0x8A>	0
<0x8B>	0
<0x8C>	0
<0x8D>	0
<0x8E>	0
<0x8F>	0
<0x90>	0
<0x91>	0
<0x92>	0
<0x93>	0
<0x94>	0
<0x95>	0
<0x96>	0
<0x97>	0
<0x98>	0
<0x99>	0
<0x9A>	0
<0x9B>	0
<0x9C>	0
<0x9D>	0
<0x9E>	0
<0x9F>	0
<0xA0>	0
<0xA1>	0
<0xA2>	0
<0xA3>	0
<0xA4>	0
<0xA5>	0
<0xA6>	0
<0xA7>	0
<0xA8>	0
<0xA9>	0
<0xAA>	0
<0xAB>	0
<0xAC>	0
<0xAD>	0
<0xAE>	0
<0xAF>	0
<0xB0>	0
<0xB1>	0
<0xB2>	0
<0xB3>	0
<0xB4>	0
<0xB5>	0
<0xB6>	0
<0xB7>	0
<0xB8>	0
<0xB9>	0
<0xBA>	0
<0xBB>	0
<0xBC>	0
<0xBD>	0
<0xBE>	0
<0xBF>	0
<0xC0>	0
<0xC1>	0
<0xC2>	0
<0xC3>	0
<0xC4>	0
<0xC5>	0
<0xC6>	0
<0xC7>	0
<0xC8>	0
<0xC9>	0
<0xCA>	0
<0xCB>	0
<0xCC>	0
<0xCD>	0
<0xCE>	0
<0xCF>	0
<0xD0>	0
<0xD1>	0
<0xD2>	0
<0xD3>	0
<0xD4>	0
<0xD5>	0
<0xD6>	0
<0xD7>	0
<0xD8>	0
<0xD9>	0
<0xDA>	0
<0xDB>	0
<0xDC>	0
<0xDD>	0
<0xDE>	0
<0xDF>	0
<0xE0>	0
<0xE1>	0
<0xE2>	0
<0xE3>	0
<0xE4>	0
<0xE5>	0
<0xE6>	0
<0xE7>	0
<0xE8>	0
<0xE9>	0
<0xEA>	0
<0xEB>	0
<0xEC>	0
<0xED>	0
<0xEE>	0
<0xEF>	0
<0xF0>	0
<0xF1>	0
<0xF2>	0
<0xF3>	0
<0xF4>	0
<0xF5>	0
<0xF6>	0
<0xF7>	0
<0xF8>	0
<0xF9>	0
<0xFA>	0
<0xFB>	0
<0xFC>	0
<0xFD>	0
<0xFE>	0
<0xFF>	0
s	-3.09143
▁the	-3.13193
▁,	-3.29772
ed	-3.5991
▁.	-3.6082
▁of	-3.86029
▁	-3.88554
▁and	-3.97865
▁in	-4.18776
▁to	-4.19294
▁a	-4.20456
ing	-4.43467
▁=	-4.51527
▁"	-4.55886
y	-4.58229
▁was	-4.85307
@	-4.88058
▁@	-4.9224
▁'	-4.97686
▁The	-4.98962
-	-5.04955
ly	-5.11209
▁on	-5.24237
▁that	-5.25319
▁with	-5.26895
▁for	-5.28539
▁as	-5.39293
▁by	-5.40477
▁)	-5.41682
(	-5.41782
▁is	-5.44342
e	-5.48552
▁be	-5.48673
d	-5.49839
▁from	-5.71131
.	-5.72111
▁his	-5.76784
▁at	-5.80542
▁it	-5.90831
▁were	-5.90917
t	-6.04116
▁he	-6.08439
▁In	-6.09377
▁an	-6.11503
▁had	-6.16081
n	-6.17327
▁which	-6.18903
a	-6.25845
▁A	-6.29314
er	-6.35009
▁are	-6.359
al	-6.418
th	-6.42391
▁;	-6.46135
▁not	-6.4794
▁their	-6.48599
▁but	-6.50048
ies	-6.51409
▁first	-6.51762
–	-6.53249
l	-6.54567
▁:	-6.56557
▁her	-6.58398
▁or	-6.58913
▁19	-6.62684
also	-6.65527
▁have	-6.66311
▁one	-6.68716
▁its	-6.6892
▁has	-6.69166
o	-6.69202
▁He	-6.7231
▁been	-6.72317
▁two	-6.72629
▁who	-6.72794
▁I	-6.75705
st	-6.76829
▁this	-6.77694
on	-6.82363
▁year	-6.82413
▁It	-6.89234
es	-6.89338
▁@,@	-6.90932
▁after	-6.91596
▁other	-6.94192
▁time	-6.94311
r	-6.95997
▁1	-6.98833
▁into	-7.00954
▁2	-7.02575
▁would	-7.05123
▁B	-7.05391
▁more	-7.06198
▁F	-7.07069
ce	-7.07089
se	-7.08161
▁over	-7.08556
mber	-7.09576
in	-7.10957
i	-7.13027
▁all	-7.13073
▁up	-7.16826
ion	-7.17191
▁she	-7.17378
▁when	-7.18158
▁3	-7.18955
▁game	-7.1926
h	-7.19445
▁most	-7.21852
ary	-7.21979
▁play	-7.22718
▁us	-7.23495
▁C	-7.24745
during	-7.25541
tween	-7.27474
▁only	-7.28106
about	-7.2825
▁out	-7.28903
▁him	-7.28926
▁S	-7.29346
▁again	-7.30511
▁three	-7.31007
ish	-7.31166
▁season	-7.31572
▁On	-7.31909
▁than	-7.33736
▁18	-7.34658
le	-7.35554
▁through	-7.35785
▁T	-7.3625
us	-7.36518
▁later	-7.37886
▁while	-7.38235
▁some	-7.39422
▁5	-7.39479
made	-7.40602
▁new	-7.40733
able	-7.40977
▁M	-7.4145
▁U	-7.43203
▁New	-7.44239
▁4	-7.45076
ever	-7.46361
ity	-7.46699
▁where	-7.47508
▁second	-7.47715
▁film	-7.47765
▁part	-7.47777
such	-7.48065
▁song	-7.48652
▁number	-7.48902
▁follow	-7.50428
▁them	-7.50818
▁This	-7.51049
▁de	-7.51214
▁record	-7.51823
▁work	-7.51994
▁call	-7.52261
▁000	-7.52852
▁before	-7.53411
▁under	-7.53555
land	-7.54837
gan	-7.55092
ic	-7.55857
▁album	-7.57095
▁large	-7.57328
en	-7.57684
an	-7.57726
▁end	-7.57909
▁can	-7.58937
▁high	-7.60845
▁being	-7.61258
▁area	-7.61645
▁series	-7.61819
▁includ	-7.62435
▁no	-7.62465
▁there	-7.63124
m	-7.6415
▁both	-7.64158
came	-7.65295
out	-7.65493
est	-7.65596
▁al	-7.6588
▁form	-7.66099
▁show	-7.66413
▁/	-7.66972
▁well	-7.67576
▁known	-7.67985
▁episode	-7.6801
▁—	-7.68731
▁like	-7.69334
though	-7.70304
▁6	-7.70625
▁many	-7.71693
▁found	-7.72237
▁m	-7.72386
▁United	-7.72617
▁long	-7.73582
▁use	-7.73713
▁10	-7.7384
▁R	-7.75125
▁20	-7.75168
▁century	-7.75578
▁four	-7.76368
▁After	-7.77049
man	-7.77778
▁American	-7.77933
▁so	-7.78639
cause	-7.79607
▁E	-7.79791
▁Brit	-7.80161
▁team	-7.80353
▁near	-7.80627
▁D	-7.81784
▁remain	-7.82367
▁early	-7.83886
▁could	-7.83952
▁final	-7.8399
▁P	-7.84177
▁did	-7.8496
▁along	-7.8667
▁8	-7.87106
▁then	-7.87186
▁un	-7.87206
▁may	-7.87406
▁name	-7.88015
▁place	-7.88127
um	-7.88194
▁As	-7.8823
▁sai	-7.88314
2	-7.88579
▁7	-7.8866
▁character	-7.89093
▁9	-7.90005
▁She	-7.90146
▁0	-7.9035
▁day	-7.90382
ation	-7.9111
▁back	-7.91264
▁w	-7.91275
round	-7.91557
▁unti	-7.91723
u	-7.91746
▁At	-7.92646
▁same	-7.92995
▁city	-7.93066
▁original	-7.93129
▁O	-7.93793
▁million	-7.94339
▁force	-7.94439
▁people	-7.94448
▁return	-7.94649
▁War	-7.95233
▁km	-7.95391
▁N	-7.95544
▁player	-7.95633
▁main	-7.96244
ry	-7.96322
▁12	-7.96442
▁May	-7.96673
▁August	-7.9719
▁how	-7.97261
▁John	-7.98144
▁North	-7.98175
▁South	-7.98376
▁16	-7.98388
▁ship	-7.9859
▁down	-7.99004
▁start	-7.99324
▁off	-7.9972
ber	-8.00361
▁How	-8.00389
▁support	-8.00793
▁any	-8.0125
nother	-8.01252
▁releas	-8.02081
▁small	-8.02249
▁lead	-8.02424
▁Al	-8.03017
▁life	-8.03185
▁group	-8.0374
▁Septe	-8.03917
▁each	-8.0431
ok	-8.04445
▁German	-8.04765
▁receiv	-8.049
▁World	-8.05459
▁K	-8.05675
▁five	-8.06992
▁single	-8.07128
▁result	-8.07697
ment	-8.07992
▁appear	-8.08161
▁17	-8.08227
▁15	-8.0908
▁own	-8.09346
ton	-8.09594
▁attack	-8.09731
▁music	-8.0993
▁point	-8.10023
▁describ	-8.10429
▁e	-8.10495
▁Dur	-8.10871
▁great	-8.10972
▁June	-8.11244
if	-8.11371
▁state	-8.11772
ten	-8.1211
▁consider	-8.12318
▁order	-8.12408
g	-8.12492
▁take	-8.1292
1	-8.13316
▁since	-8.13571
▁line	-8.13717
▁what	-8.13771
▁late	-8.16513
▁will	-8.16544
▁11	-8.16644
▁They	-8.16894
▁States	-8.17106
▁set	-8.17194
3	-8.17474
▁mov	-8.17522
▁last	-8.17865
▁Octo	-8.17976
▁famil	-8.18247
▁system	-8.1837
son	-8.18421
$	-8.18637
rote	-8.18656
▁...	-8.18742
▁week	-8.18795
▁home	-8.18934
ril	-8.19788
▁Ap	-8.20518
[	-8.20651
▁world	-8.20864
▁reach	-8.21182
▁now	-8.21363
▁role	-8.21468
▁won	-8.22302
▁child	-8.23011
▁re	-8.23106
▁due	-8.23605
et	-8.23726
▁W	-8.23847
▁war	-8.23921
way	-8.24065
very	-8.24555
▁L	-8.25058
▁death	-8.2523
▁allow	-8.25294
▁direct	-8.2561
▁York	-8.25794
▁Janu	-8.26385
▁do	-8.26715
▁storm	-8.26832
S	-8.26844
▁six	-8.26929
is	-8.26945
▁short	-8.27012
▁left	-8.27236
▁No	-8.27256
▁England	-8.27526
▁government	-8.27541
▁video	-8.28108
ese	-8.28263
▁position	-8.28302
▁Man	-8.2833
▁include	-8.28367
ers	-8.28482
▁bas	-8.28755
ren	-8.28844
▁March	-8.28862
▁release	-8.2893
▁attempt	-8.28989
▁30	-8.28992
▁general	-8.29614
▁third	-8.30026
▁title	-8.30162
▁Nove	-8.31321
▁previous	-8.31375
▁become	-8.31376
▁Jul	-8.3151
▁open	-8.31622
▁north	-8.31686
▁14	-8.31839
▁book	-8.31956
▁included	-8.31959
x	-8.32257
▁water	-8.32263
▁design	-8.32323
▁make	-8.32504
age	-8.32607
z	-8.32764
▁St	-8.32946
▁school	-8.33046
▁specie	-8.33501
▁Dece	-8.33608
▁severa	-8.33614
▁13	-8.33803
▁men	-8.34358
▁south	-8.3457
▁River	-8.34923
▁develop	-8.35084
▁perform	-8.35092
▁His	-8.35112
▁major	-8.35388
▁buil	-8.35823
▁City	-8.359
▁just	-8.35998
▁go	-8.36226
▁way	-8.36234
▁25	-8.36239
ive	-8.3661
▁US	-8.36909
k	-8.36928
▁When	-8.37131
▁month	-8.37133
▁An	-8.37298
▁publish	-8.37325
▁version	-8.37336
▁local	-8.38036
▁period	-8.38339
▁De	-8.38526
▁even	-8.38553
c	-8.38591
▁2009	-8.38741
▁di	-8.3889
▁2010	-8.38901
▁old	-8.38963
▁best	-8.39281
▁2008	-8.39392
▁National	-8.39422
▁There	-8.39771
▁Be	-8.39958
▁continu	-8.40274
▁b	-8.40658
▁II	-8.40775
▁By	-8.40851
▁public	-8.40877
▁club	-8.41201
▁All	-8.41322
▁feature	-8.41322
▁tho	-8.41564
▁side	-8.41775
ness	-8.41833
▁H	-8.42264
▁establish	-8.42508
▁still	-8.42881
▁career	-8.43603
▁common	-8.43902
▁G	-8.44328
▁top	-8.4463
ie	-8.44841
▁present	-8.45071
▁To	-8.45289
▁games	-8.45345
▁led	-8.45354
4	-8.45361
▁power	-8.45393
▁site	-8.45413
▁100	-8.45537
▁list	-8.45682
▁few	-8.46504
▁help	-8.46514
company	-8.46677
▁muc	-8.46907
▁next	-8.47029
▁2007	-8.4704
▁arm	-8.47713
▁English	-8.47738
▁turn	-8.4778
▁often	-8.47914
▁One	-8.48049
▁French	-8.48099
▁building	-8.4813
▁similar	-8.48273
ty	-8.48378
▁State	-8.48396
▁head	-8.4846
▁right	-8.49831
▁histor	-8.49839
▁fire	-8.49908
▁writ	-8.50105
▁nam	-8.50273
by	-8.50511
▁With	-8.50691
▁seven	-8.5099
▁you	-8.51097
▁produc	-8.51346
▁level	-8.51359
▁pass	-8.51453
▁For	-8.51642
▁half	-8.51877
▁claim	-8.52088
▁Division	-8.52285
▁contain	-8.52573
▁run	-8.52601
spite	-8.52759
▁former	-8.52804
▁among	-8.52845
▁J	-8.52951
▁close	-8.53192
▁full	-8.53271
▁want	-8.53614
▁total	-8.53846
▁came	-8.53917
or	-8.5394
▁church	-8.54229
▁production	-8.54391
ether	-8.54697
▁suggest	-8.54847
▁population	-8.5493
▁review	-8.55257
ism	-8.55661
▁further	-8.55694
▁2011	-8.55896
▁track	-8.56144
▁though	-8.56154
▁different	-8.56267
▁change	-8.56425
▁According	-8.56658
▁2006	-8.56672
▁field	-8.56817
▁Church	-8.56853
held	-8.57261
▁militar	-8.57858
▁add	-8.57859
▁particular	-8.58225
▁official	-8.58252
ebru	-8.58615
&	-8.5862
▁human	-8.5926
el	-8.59282
▁strong	-8.59905
▁League	-8.60018
▁increase	-8.60219
▁kill	-8.60441
▁control	-8.60577
▁every	-8.60704
▁scor	-8.60825
ern	-8.61043
▁service	-8.61437
▁finish	-8.61504
▁cover	-8.61651
gave	-8.61902
▁defeat	-8.62048
nd	-8.62415
stead	-8.62437
▁Dylan	-8.62459
▁Song	-8.62471
▁21	-8.62591
▁unit	-8.62658
▁land	-8.62781
▁sever	-8.63003
▁h	-8.63024
▁man	-8.63207
▁caus	-8.63434
5	-8.63441
▁2012	-8.63719
▁story	-8.64125
▁reported	-8.64413
▁body	-8.64486
▁per	-8.64555
▁base	-8.6511
▁songs	-8.65147
▁match	-8.6528
▁tropic	-8.65283
▁General	-8.65385
▁east	-8.65708
▁air	-8.65732
▁hav	-8.65812
▁region	-8.66177
▁critic	-8.66309
▁Japan	-8.66452
▁fee	-8.665
▁days	-8.66586
▁we	-8.66774
▁star	-8.6683
▁see	-8.67039
ve	-8.67179
▁house	-8.6731
▁project	-8.67665
ous	-8.67684
▁term	-8.67755
▁Park	-8.67989
▁low	-8.68053
▁writing	-8.68077
ia	-8.68082
▁America	-8.68188
▁young	-8.68407
▁creat	-8.68508
▁country	-8.68551
▁Arm	-8.68561
▁complete	-8.68759
▁west	-8.68783
re	-8.68946
▁Whil	-8.69234
▁light	-8.69288
▁thought	-8.69428
▁mak	-8.69501
▁2013	-8.69727
▁tour	-8.69973
went	-8.69994
▁members	-8.69999
ma	-8.70234
▁operation	-8.70283
▁V	-8.7062
▁style	-8.70671
▁range	-8.70797
▁never	-8.7085
▁development	-8.70881
▁plan	-8.71017
▁popular	-8.71384
self	-8.71426
▁Universit	-8.71455
▁less	-8.71462
▁action	-8.71607
▁West	-8.71665
▁town	-8.71718
▁issue	-8.71829
▁award	-8.71862
lost	-8.71901
▁band	-8.7203
▁23	-8.72204
▁toward	-8.72777
▁50	-8.72798
▁Australian	-8.72836
▁stated	-8.72927
▁ft	-8.73085
▁win	-8.73227
ther	-8.73282
▁novel	-8.73306
coming	-8.73392
▁scene	-8.73824
▁t	-8.73831
ley	-8.73958
▁Ire	-8.74005
▁enter	-8.74024
ical	-8.74208
▁chart	-8.74285
ither	-8.74372
▁hour	-8.74486
▁join	-8.7471
▁22	-8.74754
▁real	-8.74929
▁earlie	-8.74988
▁island	-8.75222
▁Black	-8.75416
▁You	-8.75506
seen	-8.75675
ch	-8.75735
▁writer	-8.75737
▁c	-8.75881
given	-8.76122
▁element	-8.76122
▁white	-8.76505
felt	-8.76607
▁London	-8.76833
▁live	-8.76893
▁age	-8.76957
▁route	-8.77153
▁serv	-8.7726
▁28	-8.77418
6	-8.77431
▁24	-8.77749
▁good	-8.77791
▁himself	-8.77861
▁damage	-8.77976
▁sign	-8.7861
▁road	-8.79031
▁Australia	-8.79032
▁King	-8.79033
▁significant	-8.79303
f	-8.79632
▁important	-8.80026
▁initial	-8.80219
▁father	-8.80521
▁act	-8.80783
▁get	-8.80848
▁female	-8.8096
▁television	-8.80968
▁eight	-8.81139
▁performance	-8.81143
▁black	-8.81206
▁various	-8.81457
▁interest	-8.81477
▁minute	-8.81706
é	-8.81759
▁stage	-8.82181
▁James	-8.82252
▁featur	-8.82275
b	-8.8234
ally	-8.8237
▁miles	-8.82533
▁success	-8.83158
▁successful	-8.83224
▁case	-8.8328
▁does	-8.83426
▁peak	-8.83727
▁son	-8.83738
less	-8.8393
▁political	-8.84043
▁discover	-8.84052
ian	-8.8429
▁ground	-8.8458
▁26	-8.84723
ist	-8.8478
▁mm	-8.84875
▁art	-8.84972
ne	-8.84982
line	-8.85108
▁modern	-8.85194
▁poem	-8.85264
▁look	-8.85284
▁ten	-8.85506
▁example	-8.85783
▁County	-8.85995
▁sent	-8.86077
w	-8.86165
▁give	-8.86275
▁Road	-8.86566
▁influence	-8.86661
▁need	-8.86705
▁events	-8.86709
▁should	-8.86791
▁effect	-8.87068
▁structure	-8.87487
▁eventual	-8.87671
▁We	-8.88021
▁mid	-8.8865
▁2004	-8.88704
▁move	-8.88786
hind	-8.88805
▁entire	-8.88954
▁2005	-8.88969
▁construction	-8.89006
▁Ma	-8.89163
▁announc	-8.89227
▁represent	-8.89732
▁date	-8.9033
▁p	-8.90926
▁leas	-8.91122
▁national	-8.9113
▁locat	-8.91518
’	-8.91675
ium	-8.9188
▁27	-8.92381
▁hurricane	-8.92506
▁word	-8.92744
ra	-8.92793
▁debut	-8.93066
lso	-8.9316
▁difficult	-8.93344
▁Kingdom	-8.9335
p	-8.93451
▁wide	-8.93614
▁campaign	-8.93625
▁Island	-8.93648
across	-8.93774
▁Cup	-8.93939
▁post	-8.94044
▁victor	-8.94186
▁provid	-8.94196
▁Tw	-8.94243
▁times	-8.9435
▁addition	-8.94455
▁come	-8.94718
▁mi	-8.94829
▁view	-8.94855
▁litt	-8.94868
▁offer	-8.94907
▁Company	-8.95041
ought	-8.9516
▁fight	-8.95232
▁night	-8.95362
ar	-8.95502
▁Robert	-8.9565
ance	-8.9576
▁highway	-8.9581
▁provide	-8.96189
▁report	-8.96361
▁continue	-8.96554
▁Re	-8.96587
▁Love	-8.9668
▁visit	-8.96699
▁Some	-8.96712
▁figure	-8.96768
▁male	-8.97126
▁Battalion	-8.9735
▁believ	-8.97356
▁liv	-8.97408
▁born	-8.97581
▁David	-8.97643
▁France	-8.97644
▁wife	-8.97664
▁southern	-8.97678
▁coast	-8.97701
ll	-8.97936
▁class	-8.97949
▁goal	-8.98335
▁comment	-8.98423
▁Brigade	-8.98525
▁women	-8.98525
▁study	-8.98567
▁love	-8.98575
▁too	-8.98586
▁Grand	-8.98699
▁Her	-8.98779
▁command	-8.98966
▁guns	-8.98988
▁process	-8.99216
▁mother	-8.99261
▁put	-8.99349
▁eastern	-8.99448
▁complet	-8.99465
8	-8.99645
▁free	-8.99727
▁relationship	-8.99731
▁2003	-9.00045
ford	-9.00061
▁co	-9.00113
▁40	-9.00351
▁image	-9.00376
ine	-9.00736
▁2015	-9.00939
▁Other	-9.00974
▁loss	-9.01356
▁exist	-9.01556
▁face	-9.0164
▁Music	-9.01864
▁race	-9.01928
▁fourth	-9.02093
▁Europe	-9.02126
▁European	-9.02187
ter	-9.02247
ld	-9.02323
▁Roman	-9.02562
▁non	-9.02622
▁God	-9.03176
ship	-9.03238
▁heavy	-9.03368
▁East	-9.03444
▁me	-9.03503
▁idea	-9.03513
▁decided	-9.03539
cy	-9.03859
▁problem	-9.03989
▁Royal	-9.04016
▁White	-9.04074
▁sold	-9.04166
▁William	-9.04167
N	-9.04178
▁gun	-9.04247
▁stars	-9.04352
▁rest	-9.04485
K	-9.04508
▁individual	-9.04615
▁director	-9.04675
▁program	-9.04882
▁lack	-9.04931
▁shot	-9.05022
14	-9.05127
▁consist	-9.05179
▁condom	-9.05247
▁member	-9.05297
▁rule	-9.05471
▁grow	-9.05532
▁Earl	-9.05586
▁29	-9.05594
▁noted	-9.05662
▁limit	-9.05694
▁Carey	-9.05697
▁Port	-9.05698
side	-9.06234
▁hand	-9.06479
▁begin	-9.06542
▁communit	-9.06546
▁accept	-9.06601
▁find	-9.06647
▁village	-9.07063
▁Federer	-9.07481
▁protein	-9.07482
one	-9.07607
▁cell	-9.07627
▁appearance	-9.08163
▁fall	-9.08242
▁front	-9.08399
▁International	-9.08455
▁source	-9.08455
▁George	-9.08487
▁manager	-9.08532
▁ra	-9.08633
▁Le	-9.08705
▁tog	-9.08727
▁yard	-9.08754
▁center	-9.08825
▁activit	-9.08963
▁ask	-9.09034
▁far	-9.09064
▁language	-9.0911
▁Wales	-9.09202
▁rock	-9.09233
▁196	-9.0932
▁Christian	-9.09451
9	-9.09662
▁regular	-9.09769
▁current	-9.09789
▁San	-9.09992
▁wall	-9.10021
▁House	-9.10116
ircraft	-9.10346
▁person	-9.10371
▁Z	-9.10509
▁involv	-9.10512
▁destroy	-9.10585
▁wh	-9.10753
▁battle	-9.10826
▁river	-9.10954
▁clear	-9.11087
▁Hero	-9.11146
▁my	-9.1115
▁size	-9.11174
▁Street	-9.11437
te	-9.11558
▁mix	-9.11604
▁Championship	-9.11774
▁event	-9.11788
▁prais	-9.11911
▁Part	-9.11999
▁artist	-9.12041
▁opening	-9.12061
▁Follow	-9.1211
▁experience	-9.12209
▁Game	-9.12223
▁Jordan	-9.12449
▁hit	-9.12525
▁central	-9.12614
▁Nav	-9.12641
▁score	-9.12691
▁cit	-9.12739
▁evidence	-9.12789
▁regard	-9.12789
▁commercial	-9.1279
▁From	-9.12796
rought	-9.12934
▁launch	-9.13007
taken	-9.13126
▁Michael	-9.13132
▁gain	-9.13142
▁draw	-9.13333
▁Day	-9.13514
▁Me	-9.13811
▁agree	-9.13842
▁works	-9.14025
▁200	-9.14218
▁fail	-9.14338
▁saw	-9.14543
▁rank	-9.14854
▁reveal	-9.14855
▁subsequent	-9.14857
▁outside	-9.15287
▁troops	-9.15456
▁La	-9.1558
▁Mary	-9.15592
▁northern	-9.156
▁contract	-9.15857
▁Rock	-9.15864
wood	-9.16012
ham	-9.16156
▁replac	-9.16169
field	-9.16187
it	-9.16253
lorida	-9.16408
II	-9.16538
▁section	-9.16617
▁break	-9.16726
▁31	-9.16884
95	-9.16978
▁cast	-9.1705
▁location	-9.17062
ities	-9.17064
▁possible	-9.17205
▁league	-9.1732
▁crew	-9.1733
▁Paul	-9.17426
▁station	-9.17451
▁recording	-9.17481
▁account	-9.17677
▁competition	-9.17677
▁flood	-9.17677
▁court	-9.17923
mph	-9.17939
▁voice	-9.17955
▁international	-9.18036
▁effort	-9.18036
▁Richard	-9.18036
▁500	-9.18185
▁average	-9.18252
▁mean	-9.18278
▁Most	-9.18324
tic	-9.18416
▁saying	-9.18435
▁ever	-9.18585
▁whom	-9.18605
▁Hurricane	-9.18756
▁Missouri	-9.18756
▁poor	-9.18758
▁extend	-9.18873
▁appoint	-9.19081
▁2001	-9.19152
▁sea	-9.19331
▁introduc	-9.19391
▁length	-9.19426
▁reason	-9.19594
▁Tech	-9.19749
▁material	-9.20193
▁ball	-9.20285
▁Indian	-9.20427
read	-9.20565
▁quick	-9.20581
▁producer	-9.20684
▁Red	-9.20777
▁Sea	-9.20826
co	-9.21107
tlantic	-9.21108
▁met	-9.21214
▁yards	-9.21295
▁magazine	-9.2134
▁stay	-9.2137
ial	-9.21402
▁law	-9.21644
▁conduct	-9.21665
▁learn	-9.21692
▁Great	-9.21693
▁leave	-9.22051
▁horse	-9.22067
more	-9.22068
low	-9.22068
▁First	-9.22073
▁availab	-9.22124
▁pre	-9.22129
▁king	-9.22325
▁decision	-9.2244
▁condition	-9.22441
▁1970	-9.22462
▁Best	-9.22775
▁arriv	-9.22775
7	-9.22913
▁travel	-9.23042
ant	-9.23095
▁approach	-9.23145
▁Sun	-9.23155
▁above	-9.23311
£	-9.23572
rd	-9.23602
▁Jack	-9.23939
▁positive	-9.23953
▁working	-9.24115
day	-9.24138
town	-9.24209
▁office	-9.24241
▁stor	-9.24268
▁say	-9.24311
▁studio	-9.24335
▁soon	-9.24432
▁red	-9.24459
▁deal	-9.24478
▁Africa	-9.24601
▁maintain	-9.24717
▁interview	-9.24717
▁business	-9.24722
▁plann	-9.24807
▁Canada	-9.25103
▁letter	-9.25139
▁tree	-9.25187
▁authorit	-9.25281
▁winds	-9.25324
▁Bay	-9.25462
▁Brown	-9.25488
▁President	-9.25505
▁cause	-9.2557
▁construct	-9.25736
▁2000	-9.25844
°	-9.25875
▁Henry	-9.25876
▁referr	-9.25921
▁usual	-9.25964
▁And	-9.25975
▁estimat	-9.26005
▁India	-9.26048
▁Du	-9.26159
▁machine	-9.26305
▁199	-9.26364
▁think	-9.26537
▁Oldham	-9.26664
▁1990	-9.26679
▁Peter	-9.26715
▁metre	-9.26739
▁Chin	-9.27015
▁burn	-9.27071
▁sometime	-9.27081
▁car	-9.27207
▁round	-9.27258
▁Olivier	-9.27457
am	-9.27581
▁social	-9.27836
▁western	-9.2787
▁nine	-9.28017
▁lower	-9.28171
▁response	-9.28233
▁concert	-9.28234
▁focus	-9.28297
den	-9.28468
▁capital	-9.28544
▁Regiment	-9.28631
▁taking	-9.28634
▁recent	-9.28636
▁mention	-9.28644
▁write	-9.28729
▁others	-9.28814
▁thing	-9.28962
▁Mexico	-9.29031
▁School	-9.29032
▁Vietnam	-9.29032
▁Later	-9.29091
▁broke	-9.29104
ur	-9.29268
▁special	-9.2927
▁test	-9.29318
▁Irish	-9.2944
▁Mark	-9.29462
▁197	-9.29622
F	-9.29647
▁prevent	-9.29836
▁transport	-9.29985
men	-9.30116
▁brother	-9.30241
▁Times	-9.3047
▁flight	-9.30635
▁Thomas	-9.30648
▁Canadian	-9.30648
▁football	-9.30715
▁must	-9.30845
▁subject	-9.31056
▁standard	-9.31163
▁hold	-9.31359
▁friend	-9.31422
▁Mount	-9.31461
▁religious	-9.31466
▁slow	-9.31569
▁stone	-9.31627
▁Hall	-9.31639
▁00	-9.31793
▁forward	-9.31824
▁create	-9.31843
▁explain	-9.31877
▁network	-9.31877
▁surface	-9.31882
▁pressure	-9.31884
▁Pol	-9.31886
▁foot	-9.3196
C	-9.32046
▁1960	-9.32318
▁NY	-9.32342
▁intend	-9.32425
▁studie	-9.32427
▁rate	-9.32609
▁fly	-9.32664
▁increasing	-9.32705
▁Guitar	-9.32705
special	-9.32782
▁approximate	-9.3281
ro	-9.32829
▁60	-9.32871
▁piece	-9.32876
▁port	-9.33066
▁past	-9.33088
▁That	-9.33124
▁professional	-9.33156
▁Union	-9.33171
ves	-9.33442
▁specific	-9.33566
▁actor	-9.33714
▁seem	-9.33719
▁goals	-9.3374
▁cost	-9.33749
▁typical	-9.33994
▁relative	-9.34003
▁fact	-9.34066
▁election	-9.34436
▁charge	-9.34484
▁leg	-9.34604
ney	-9.34666
▁Star	-9.34756
▁requir	-9.34772
▁territor	-9.34796
▁certain	-9.34806
▁winning	-9.34811
▁injur	-9.34819
▁might	-9.34821
▁pitch	-9.34904
▁Law	-9.34915
▁almo	-9.34977
▁hard	-9.3512
▁Histor	-9.35133
▁Pacific	-9.35232
▁immediate	-9.35232
▁additional	-9.3526
▁division	-9.35292
▁police	-9.35401
▁display	-9.35662
▁Light	-9.35667
▁detail	-9.3567
▁depression	-9.35671
▁movement	-9.35726
▁describe	-9.35895
ways	-9.36057
▁beginning	-9.36092
▁Wheeler	-9.36096
▁type	-9.36119
latter	-9.36129
▁occurr	-9.36165
▁El	-9.36183
▁X	-9.36186
▁space	-9.36198
▁Wal	-9.36203
▁Air	-9.36208
▁according	-9.3622
▁gold	-9.36447
▁food	-9.36522
▁2002	-9.36576
▁resident	-9.36707
A	-9.36949
▁Film	-9.36956
▁daughter	-9.36993
▁training	-9.37046
D	-9.37068
▁cap	-9.37072
▁remov	-9.37099
▁compar	-9.37123
stein	-9.3725
▁media	-9.37409
99	-9.37505
▁spen	-9.37507
▁Jin	-9.37587
▁fund	-9.37621
▁My	-9.37718
▁g	-9.37743
▁Award	-9.3778
ory	-9.37816
▁battalion	-9.37824
▁chose	-9.37879
▁f	-9.37895
be	-9.37922
nough	-9.37923
▁cut	-9.38029
▁Ri	-9.38119
na	-9.3818
▁Catholic	-9.38262
▁coach	-9.38275
▁probabl	-9.3834
▁Force	-9.38495
▁know	-9.38496
ball	-9.38527
▁Hill	-9.38571
▁room	-9.38587
▁host	-9.38747
▁cross	-9.38881
▁research	-9.38964
▁forest	-9.38967
▁watch	-9.38977
▁Creek	-9.39147
▁soldier	-9.39172
▁save	-9.39189
▁Sinc	-9.39364
▁earn	-9.39371
▁Scott	-9.39562
▁president	-9.39619
▁separate	-9.39631
▁personal	-9.39976
▁captur	-9.39998
▁affect	-9.40011
▁futur	-9.40042
▁sound	-9.40053
▁anti	-9.40079
▁serve	-9.40125
▁fleet	-9.40191
98	-9.40295
ir	-9.40313
▁poet	-9.40442
▁attend	-9.40457
▁industr	-9.40474
▁animal	-9.40485
▁centre	-9.40502
achel	-9.40517
▁Old	-9.40529
▁Charles	-9.40539
▁woman	-9.40689
▁running	-9.40941
formation	-9.41016
▁better	-9.41027
▁boat	-9.41128
▁Super	-9.41152
ta	-9.4123
▁But	-9.41293
▁read	-9.41326
▁mass	-9.41478
▁believe	-9.41835
▁concern	-9.41844
▁Route	-9.41845
▁culture	-9.41945
▁quarter	-9.42299
▁practice	-9.42302
▁heavi	-9.42303
▁tell	-9.42344
ka	-9.42404
▁Awards	-9.4249
▁meeting	-9.4251
▁80	-9.42713
▁prior	-9.42757
▁35	-9.42956
▁reference	-9.43128
▁connect	-9.43188
▁dam	-9.43209
▁summer	-9.43293
▁45	-9.43579
▁grant	-9.43695
▁amount	-9.4377
▁TV	-9.43952
▁advance	-9.43976
▁critical	-9.44037
▁sub	-9.44086
osaurus	-9.44123
▁fifth	-9.44164
▁related	-9.4426
▁students	-9.44435
▁double	-9.44615
▁1980	-9.44627
▁rais	-9.44761
▁Zealand	-9.44913
▁radio	-9.45099
▁staff	-9.45187
ach	-9.45362
go	-9.45435
▁bring	-9.45463
▁Arab	-9.45533
▁broadcast	-9.45558
▁Ca	-9.4582
▁express	-9.45883
▁assign	-9.45992
▁musical	-9.45999
▁Western	-9.46069
▁cm	-9.4613
▁suffer	-9.46261
▁protect	-9.46504
▁Olympic	-9.46506
▁birds	-9.4659
ate	-9.46598
▁trade	-9.46677
▁depict	-9.46907
▁audience	-9.46983
▁private	-9.46986
▁So	-9.4699
▁Year	-9.46997
▁notes	-9.47002
ell	-9.47102
▁chang	-9.47133
▁market	-9.47215
illboard	-9.47302
▁select	-9.47361
house	-9.4737
▁treat	-9.47431
▁commander	-9.47447
▁Scientology	-9.47464
▁Haifa	-9.47464
▁respective	-9.47478
▁produce	-9.47631
▁model	-9.47655
L	-9.47694
▁author	-9.47696
▁ran	-9.47772
▁tower	-9.47778
▁meet	-9.47795
▁deliver	-9.4795
▁Over	-9.47996
▁Lake	-9.48013
ain	-9.48054
▁Parliament	-9.48433
▁nature	-9.48435
▁Saint	-9.48437
▁Association	-9.48437
▁2016	-9.48449
▁deep	-9.48451
ota	-9.48747
▁pair	-9.48984
▁actual	-9.49025
▁primar	-9.49313
86	-9.49388
▁damag	-9.49547
▁lines	-9.49572
▁link	-9.49599
ful	-9.4987
▁distance	-9.49903
▁Battle	-9.49928
▁collection	-9.49966
▁38	-9.50019
▁breed	-9.50058
▁sequence	-9.5008
▁throw	-9.50268
▁forc	-9.50318
▁California	-9.50398
▁money	-9.50401
▁employ	-9.50541
▁try	-9.5056
▁Wood	-9.5085
uch	-9.50854
▁Council	-9.50894
▁education	-9.50912
▁cyclone	-9.50923
▁leav	-9.50944
▁tri	-9.51056
▁traditional	-9.51339
▁Galveston	-9.51396
▁Angel	-9.5161
iz	-9.51711
▁Ju	-9.51856
msel	-9.51919
▁Jewish	-9.5192
▁rare	-9.51931
▁1950	-9.51952
ester	-9.52246
▁question	-9.52363
▁propos	-9.52382
▁dead	-9.52466
89	-9.5256
▁Li	-9.52602
▁Villa	-9.5278
▁states	-9.52858
▁expect	-9.52874
▁reduc	-9.52895
▁brief	-9.52911
▁Ver	-9.53035
▁color	-9.53206
head	-9.53342
▁decade	-9.53421
▁parent	-9.53422
aught	-9.53426
upon	-9.53524
▁fac	-9.5357
▁Final	-9.53606
id	-9.53759
▁mission	-9.53851
▁organization	-9.5396
▁sing	-9.53987
B	-9.53989
op	-9.54057
▁meaning	-9.54093
▁occur	-9.5435
▁Don	-9.54365
▁lyrics	-9.54366
▁Earth	-9.54452
▁miss	-9.54457
▁situation	-9.54473
▁Ross	-9.54582
▁70	-9.54743
▁course	-9.54831
▁traffic	-9.54969
▁sister	-9.54978
▁effective	-9.55013
▁tradition	-9.55027
▁Act	-9.55282
▁historical	-9.55312
▁Latin	-9.55374
▁universit	-9.55488
▁Chicago	-9.55488
▁Under	-9.55497
▁colon	-9.5561
▁Scot	-9.55616
▁If	-9.55748
▁statu	-9.55898
▁Co	-9.5594
▁natural	-9.55974
▁marriage	-9.56037
▁keep	-9.5611
▁minor	-9.56128
fore	-9.56523
▁Alice	-9.56589
▁plant	-9.56642
ure	-9.56763
▁singer	-9.56869
▁Cr	-9.56917
▁sexual	-9.57105
▁Up	-9.57382
▁officers	-9.5739
▁Go	-9.57543
▁defence	-9.57599
▁job	-9.576
ility	-9.57602
▁gods	-9.5764
▁1940	-9.57649
▁fans	-9.57711
▁High	-9.58084
▁newspaper	-9.58134
▁key	-9.58152
▁Sever	-9.58163
▁Centr	-9.58174
▁historian	-9.58176
▁train	-9.58206
▁edge	-9.58292
▁marri	-9.58509
▁Service	-9.58672
▁batter	-9.58725
▁upper	-9.58809
▁overall	-9.58823
▁theme	-9.5884
▁our	-9.58865
▁metal	-9.58926
▁beat	-9.58942
▁African	-9.58965
▁refus	-9.58995
▁share	-9.59055
▁self	-9.5921
▁Second	-9.59212
▁request	-9.59214
▁75	-9.5925
▁Nation	-9.59252
▁painting	-9.59343
▁Simon	-9.5943
▁compos	-9.59752
▁tournament	-9.59756
▁border	-9.59757
▁Alkan	-9.59761
▁1930	-9.59813
▁400	-9.5995
▁variet	-9.60037
la	-9.60049
▁names	-9.60151
ling	-9.60155
▁carri	-9.60268
▁rapid	-9.60303
▁1993	-9.60368
▁era	-9.60421
ha	-9.6053
▁Live	-9.60601
▁195	-9.6065
▁Record	-9.60754
▁parts	-9.60771
▁protest	-9.60774
▁pay	-9.60816
▁declar	-9.60835
▁Liverpool	-9.60852
▁Christmas	-9.60852
▁serious	-9.60852
▁Nixon	-9.60856
aylor	-9.60887
▁whole	-9.60901
▁Fort	-9.61103
▁abilit	-9.61184
thing	-9.61269
▁sell	-9.61309
▁Somers	-9.61416
▁Ke	-9.61605
que	-9.61646
▁Dr	-9.6167
▁tail	-9.61714
▁wood	-9.61775
▁press	-9.61791
ner	-9.61877
▁adopt	-9.61884
▁script	-9.61952
▁Texas	-9.6196
▁speed	-9.61964
▁moment	-9.61968
47	-9.61978
▁defend	-9.62002
▁inspir	-9.6205
▁litera	-9.62088
▁got	-9.62164
▁Lady	-9.62201
▁Jane	-9.62347
▁operat	-9.62432
▁Mosley	-9.62519
91	-9.62532
▁Italian	-9.62533
com	-9.62593
▁Tropic	-9.62654
▁shape	-9.62752
▁speak	-9.62782
▁Republic	-9.63028
▁Fowle	-9.63082
▁drive	-9.63133
▁active	-9.63155
▁mountain	-9.63159
da	-9.63324
▁rating	-9.63526
▁observ	-9.63549
▁conflict	-9.63645
▁Three	-9.63645
▁Squadron	-9.63645
▁temple	-9.63647
giving	-9.63647
▁native	-9.63647
▁Carolina	-9.63677
▁1996	-9.63722
▁Of	-9.6378
▁Frank	-9.6411
▁cathedral	-9.64219
▁Land	-9.64239
▁Tour	-9.64253
ver	-9.64411
▁avoid	-9.64413
▁90	-9.6446
▁300	-9.64477
lin	-9.64512
▁god	-9.64613
▁potential	-9.64785
▁health	-9.64794
▁slight	-9.64812
▁fruit	-9.65004
panish	-9.65065
▁nation	-9.65076
▁via	-9.65291
▁guitar	-9.65303
▁dedicat	-9.6536
▁dollar	-9.65361
▁Minne	-9.6537
▁marked	-9.65408
▁couple	-9.6546
▁Sir	-9.6561
▁Ha	-9.65742
▁Paris	-9.65856
ture	-9.65859
▁Like	-9.65949
usch	-9.65951
▁Cross	-9.66037
▁meant	-9.6608
ward	-9.66371
▁Storm	-9.66428
ko	-9.66468
▁Infantry	-9.66519
▁girl	-9.66519
▁husband	-9.66519
▁frequent	-9.66519
▁demand	-9.6652
▁Virginia	-9.6656
▁Soviet	-9.66564
▁blue	-9.66605
▁associat	-9.66628
▁seat	-9.66661
▁Los	-9.66741
most	-9.66836
▁Or	-9.66955
▁flow	-9.67031
▁method	-9.6704
▁headquarter	-9.67104
▁expand	-9.67104
▁qualit	-9.67105
▁presen	-9.6719
▁runs	-9.67342
▁los	-9.67361
yet	-9.67641
▁dark	-9.67662
▁annual	-9.67684
▁Series	-9.67695
▁College	-9.67717
▁fell	-9.67727
▁scale	-9.67957
▁36	-9.68215
▁ending	-9.68239
M	-9.68271
▁hundred	-9.68284
▁Pennsylvania	-9.68284
▁Rosebery	-9.68284
▁Club	-9.68285
▁search	-9.68294
▁Anderson	-9.68301
▁wound	-9.68305
▁capture	-9.68343
▁Mo	-9.68363
▁birth	-9.68367
▁propert	-9.68449
do	-9.68549
▁inter	-9.68732
▁collect	-9.68758
▁concept	-9.688
▁piano	-9.68879
▁talk	-9.68879
▁complex	-9.6888
▁Beyonc	-9.68912
▁Open	-9.6892
▁value	-9.68925
▁argu	-9.68928
▁park	-9.68952
▁conclud	-9.68971
well	-9.69292
▁aid	-9.69358
án	-9.69379
fensive	-9.69382
▁stat	-9.69421
▁morning	-9.69478
▁weapon	-9.69478
▁Major	-9.69479
▁numero	-9.69481
▁access	-9.6955
iami	-9.69566
play	-9.69633
▁Green	-9.69819
pole	-9.6988
▁fill	-9.69909
▁elect	-9.69944
▁extra	-9.70028
▁Ottoman	-9.70085
▁settlement	-9.70089
▁1997	-9.70124
▁Bill	-9.70252
▁makes	-9.7028
▁kind	-9.70294
▁commission	-9.70409
▁don	-9.70514
▁Time	-9.70531
▁bar	-9.70648
▁majorit	-9.70652
▁Museum	-9.70686
▁enjoy	-9.70686
▁Jackson	-9.70739
▁something	-9.70774
▁safe	-9.70801
▁copie	-9.70835
▁dat	-9.70837
▁Prince	-9.70982
▁party	-9.71089
▁185	-9.7115
▁abandon	-9.71174
▁bridge	-9.71272
▁target	-9.71296
▁brigade	-9.71296
▁mount	-9.7139
to	-9.71514
▁nuclea	-9.71611
▁compani	-9.71802
▁strength	-9.71889
ke	-9.71904
▁Through	-9.71909
▁impact	-9.7191
at	-9.71938
▁plot	-9.71961
▁adult	-9.72093
▁thu	-9.7217
▁camp	-9.7221
▁Their	-9.72237
▁lot	-9.72329
▁reject	-9.72452
▁disease	-9.72527
▁Court	-9.72527
▁recover	-9.72531
▁bill	-9.72583
▁confirm	-9.72611
▁portion	-9.72641
▁aspect	-9.72672
▁Chris	-9.72725
▁artillery	-9.72805
84	-9.72961
▁fort	-9.72983
▁enem	-9.73151
▁powerful	-9.73175
▁wave	-9.73193
▁wor	-9.7324
▁194	-9.73255
der	-9.7346
▁countr	-9.73543
▁Queen	-9.73593
▁involve	-9.73622
▁33	-9.73645
▁percent	-9.73752
▁paper	-9.73769
▁blood	-9.73773
▁responsibl	-9.73773
▁vocals	-9.73786
▁Helm	-9.73846
▁purpose	-9.73884
▁severe	-9.73888
▁Har	-9.73993
▁document	-9.74031
▁Chart	-9.74052
▁normal	-9.74062
▁China	-9.74095
▁Six	-9.74106
▁sentence	-9.74179
▁Age	-9.74266
▁Boy	-9.7429
▁Blue	-9.74309
▁Football	-9.74403
▁temperature	-9.74403
▁inside	-9.74444
▁edition	-9.74454
▁Both	-9.74552
io	-9.74558
▁Hot	-9.74566
▁Marine	-9.7462
▁discuss	-9.7462
ground	-9.74655
▁Si	-9.74877
▁count	-9.74891
▁feel	-9.7503
▁Department	-9.75035
▁advantage	-9.75035
▁degree	-9.75037
▁reception	-9.75038
▁content	-9.75114
▁bird	-9.75156
▁Brad	-9.75234
▁thick	-9.75327
▁bodie	-9.75331
larger	-9.75374
▁direction	-9.75423
ol	-9.75536
ti	-9.75638
▁middle	-9.75672
▁touchdown	-9.75672
▁genu	-9.75713
▁build	-9.75809
xenon	-9.76063
ent	-9.76075
▁pick	-9.76273
▁Braathen	-9.76313
▁Smith	-9.76313
▁Turk	-9.76313
▁Louis	-9.76318
▁Center	-9.76338
▁Horse	-9.76363
▁widely	-9.76424
▁physical	-9.76436
▁promotion	-9.76456
▁progress	-9.76812
▁clos	-9.76814
▁true	-9.76833
▁achiev	-9.76873
▁39	-9.76887
▁defense	-9.76958
▁relief	-9.7696
▁Young	-9.76974
▁hop	-9.77004
▁draft	-9.77046
▁1994	-9.77057
▁factor	-9.77092
▁screen	-9.77132
▁Van	-9.77307
▁movie	-9.7742
▁surviv	-9.77574
▁honor	-9.77607
▁Middle	-9.77607
▁Egyptian	-9.77616
▁Corps	-9.77641
▁Highway	-9.77651
inkel	-9.77652
▁sixth	-9.77691
▁sense	-9.77715
▁publication	-9.77751
up	-9.77791
▁trial	-9.77825
▁performances	-9.7783
▁engine	-9.77835
▁receive	-9.77858
▁Jam	-9.77899
▁Un	-9.78009
▁oppos	-9.78024
▁extreme	-9.78274
▁northeast	-9.78318
▁landing	-9.78336
▁shell	-9.7845
ownsend	-9.78458
ak	-9.78473
▁box	-9.78583
ington	-9.78799
▁legal	-9.78853
▁Meyerbeer	-9.78919
▁Shiva	-9.78927
▁Long	-9.78939
▁cricket	-9.78949
▁text	-9.78991
drew	-9.7905
done	-9.79051
▁contemporary	-9.79083
▁ultimate	-9.7912
▁Yue	-9.79131
▁Post	-9.79159
▁comed	-9.79257
▁planet	-9.79341
▁reflect	-9.79503
▁managed	-9.7951
TV	-9.79511
▁measure	-9.79532
old	-9.79577
▁street	-9.79579
▁financial	-9.79582
▁Nicole	-9.79592
▁weaken	-9.79616
▁board	-9.79739
▁facilit	-9.79794
BA	-9.79823
ski	-9.79837
no	-9.79877
▁Games	-9.79901
▁32	-9.8018
▁cougar	-9.80248
▁contrast	-9.8026
▁books	-9.80262
▁brown	-9.80287
▁Operation	-9.80605
▁murder	-9.80612
▁opera	-9.80743
▁Academ	-9.80806
▁Tess	-9.80873
▁47	-9.80883
▁opportunit	-9.80919
▁respond	-9.80919
15	-9.80955
▁attention	-9.80957
▁friends	-9.8097
▁background	-9.80975
▁sex	-9.80976
▁carry	-9.8098
▁worker	-9.81005
truck	-9.81172
▁eye	-9.8123
▁Government	-9.81594
▁technique	-9.81594
▁Society	-9.81596
▁matter	-9.81606
▁reaction	-9.81618
▁rise	-9.81638
▁150	-9.81726
▁coin	-9.81785
▁fast	-9.81986
rew	-9.82065
▁assault	-9.82276
▁Hamel	-9.82283
▁hair	-9.82285
▁simpl	-9.82524
▁sport	-9.82576
ik	-9.82657
▁Home	-9.82782
▁heart	-9.82934
▁crowd	-9.82959
▁specimen	-9.82959
▁vehicle	-9.82959
▁website	-9.82959
▁combin	-9.82983
▁Illinois	-9.83025
H	-9.83122
▁Johnson	-9.83165
▁v	-9.83372
▁officer	-9.83403
▁determin	-9.8363
▁hospital	-9.83637
▁AI	-9.83648
▁appeal	-9.83649
▁square	-9.83649
▁cultural	-9.8365
▁soundtrack	-9.8365
▁rough	-9.83651
▁Little	-9.83652
▁task	-9.83653
▁surrounding	-9.83712
▁primari	-9.83831
▁wear	-9.83921
▁bad	-9.84067
▁fiction	-9.84122
▁canno	-9.8421
ble	-9.84264
ger	-9.84303
▁thousand	-9.84344
▁volume	-9.84344
▁Portugues	-9.84344
▁Edward	-9.84348
im	-9.84385
▁transferr	-9.84415
65	-9.84486
▁Brita	-9.8451
▁wind	-9.84574
▁offensive	-9.84708
▁Captain	-9.85043
▁appearances	-9.85047
▁winter	-9.85081
▁northwest	-9.85086
▁push	-9.85087
▁Ka	-9.85103
▁colour	-9.85109
▁intens	-9.85314
▁Bo	-9.85333
▁matche	-9.8552
▁Gold	-9.85726
▁infantry	-9.85753
▁Spain	-9.8576
▁Civil	-9.85764
▁Fey	-9.85782
▁prominent	-9.85782
▁Though	-9.85797
▁formation	-9.85798
▁composition	-9.85813
▁Apple	-9.85814
▁twent	-9.8586
▁Mr	-9.8587
time	-9.8591
▁independent	-9.85914
ler	-9.85959
▁leader	-9.85984
▁hero	-9.86
where	-9.86033
dom	-9.86288
▁issu	-9.86314
ab	-9.86318
▁session	-9.86456
▁Ocean	-9.86457
64	-9.86474
▁Group	-9.8648
▁Mountain	-9.86481
ux	-9.86486
▁Wi	-9.86492
▁Eva	-9.86631
wise	-9.86901
▁object	-9.8698
▁Not	-9.87009
▁Lord	-9.87027
▁memor	-9.87156
▁Tintin	-9.87171
▁Welsh	-9.87171
▁science	-9.87171
▁extensive	-9.87174
▁reign	-9.8718
▁Master	-9.87205
69	-9.87295
ite	-9.87337
▁criticiz	-9.87484
▁Kh	-9.87541
▁portray	-9.87726
▁wing	-9.87734
▁prov	-9.87786
▁Pop	-9.87846
▁mile	-9.8785
▁spread	-9.87854
▁Empire	-9.8789
▁retain	-9.87891
▁window	-9.87892
▁assist	-9.87935
while	-9.88005
▁nest	-9.88045
ville	-9.88111
▁designat	-9.88152
▁advanc	-9.88155
▁county	-9.88337
▁sales	-9.88398
▁Israel	-9.88501
▁Balti	-9.88537
▁threat	-9.88562
▁archaeolog	-9.88603
▁succeed	-9.88615
▁Nesbitt	-9.88615
▁Varanasi	-9.88615
▁description	-9.88622
▁Lock	-9.88633
▁Andrew	-9.88653
species	-9.88659
▁Gar	-9.88683
Mont	-9.88734
92	-9.88756
all	-9.88999
▁tracks	-9.89028
▁Ceres	-9.89096
▁credit	-9.8913
▁function	-9.89181
▁controll	-9.89191
▁pro	-9.89206
ba	-9.89247
▁sustain	-9.89345
▁Odaenath	-9.89345
▁captain	-9.89345
▁domestic	-9.89345
▁Sarnia	-9.89345
▁acid	-9.89351
▁casualties	-9.89357
▁computer	-9.89373
▁42	-9.89414
ated	-9.89436
▁indicate	-9.89479
▁reviewer	-9.89539
78	-9.89659
▁jump	-9.89847
▁path	-9.89883
ncient	-9.89894
▁hands	-9.89917
▁except	-9.90003
á	-9.9002
▁pilot	-9.9008
▁risk	-9.90081
▁narrow	-9.90081
▁divid	-9.90209
▁Torre	-9.9023
hood	-9.903
▁Tom	-9.90352
ge	-9.90363
il	-9.90363
▁economic	-9.90482
▁Del	-9.9054
ki	-9.90672
▁championship	-9.90827
▁Engineer	-9.90837
▁1920	-9.90887
▁Stone	-9.90923
▁Manch	-9.9095
kovic	-9.90979
me	-9.91025
▁agent	-9.91033
ard	-9.9128
ho	-9.9135
▁fish	-9.91413
ul	-9.91464
▁Mik	-9.91466
▁Sara	-9.91546
▁Perón	-9.91568
▁Simpson	-9.91568
▁entrance	-9.91576
▁51	-9.91576
▁stop	-9.91577
▁k	-9.91669
▁alone	-9.91696
▁phase	-9.91702
▁Free	-9.91724
▁pop	-9.91835
▁am	-9.91862
ron	-9.91892
▁standing	-9.91938
▁44	-9.91944
laba	-9.92065
▁escape	-9.92183
▁Se	-9.92269
▁Thunderbird	-9.92319
▁Wilhelm	-9.92319
▁yellow	-9.92319
▁apparent	-9.92319
▁kakapo	-9.9232
▁chapter	-9.92322
▁Week	-9.92333
▁energ	-9.92432
▁Mean	-9.92503
▁item	-9.92524
▁organiz	-9.92663
▁basi	-9.92756
▁viewers	-9.92761
▁habitat	-9.92998
▁Washington	-9.93076
▁cadmi	-9.93076
▁monument	-9.93076
▁institution	-9.93076
▁convert	-9.93077
▁opponent	-9.93077
va	-9.9308
▁happen	-9.93111
▁delay	-9.93115
▁rear	-9.93198
▁partial	-9.93207
▁Bob	-9.9328
wide	-9.93317
66	-9.93356
▁Mu	-9.93477
▁twi	-9.93615
▁Town	-9.93646
ca	-9.93647
▁transit	-9.93689
▁feeling	-9.93774
▁Bowl	-9.93833
▁Omaha	-9.9384
▁contact	-9.93841
▁inning	-9.93851
▁combat	-9.93859
▁1988	-9.93869
▁Common	-9.93895
▁Art	-9.94059
▁store	-9.94226
▁master	-9.9423
▁Command	-9.94308
▁SR	-9.94445
67	-9.94582
▁flank	-9.94609
▁necessar	-9.94609
▁pattern	-9.94609
▁Joseph	-9.94609
▁rainfall	-9.94611
▁require	-9.94613
▁failure	-9.94625
▁Bridge	-9.94663
vi	-9.94754
▁Mogadish	-9.94776
▁attract	-9.95283
I	-9.953
▁secret	-9.95324
▁Fleet	-9.95384
▁starling	-9.95413
▁Mor	-9.95552
▁Big	-9.95576
▁Abu	-9.95589
▁183	-9.95652
▁possibl	-9.95743
▁core	-9.95788
E	-9.95968
▁retir	-9.95983
▁Assembl	-9.96165
▁dissipat	-9.96165
▁chief	-9.96168
▁royal	-9.96169
▁guest	-9.96171
▁Innis	-9.96184
ng	-9.96316
▁society	-9.96373
▁pai	-9.96514
▁your	-9.9658
▁themes	-9.96609
▁acre	-9.96619
▁onto	-9.96707
▁label	-9.96727
ade	-9.96939
▁athlete	-9.96953
▁Short	-9.96956
▁McCall	-9.96956
▁district	-9.9696
▁Airport	-9.96961
▁Kent	-9.9701
▁Na	-9.97025
kare	-9.97127
▁student	-9.97256
▁la	-9.97353
j	-9.97456
za	-9.97559
▁Dam	-9.97612
ang	-9.97734
▁religion	-9.97746
▁unique	-9.97756
▁storyline	-9.97802
▁occupie	-9.97823
kept	-9.97847
▁product	-9.97955
▁Ra	-9.97973
▁Cole	-9.98036
▁semi	-9.9807
▁films	-9.98074
▁stand	-9.98148
▁lane	-9.98152
▁Way	-9.98264
▁castle	-9.98325
▁withdraw	-9.984
▁Easter	-9.98406
▁occasional	-9.98416
▁Line	-9.98434
▁Forest	-9.9845
gen	-9.98455
▁multi	-9.98508
▁care	-9.98529
▁Jupiter	-9.98546
▁PlayStation	-9.98546
▁engineer	-9.98677
12	-9.9869
▁Water	-9.98819
port	-9.98906
▁Sa	-9.99028
tory	-9.99066
▁weight	-9.99219
▁equip	-9.99337
▁compound	-9.99353
▁depth	-9.99353
▁Valley	-9.99364
▁comic	-9.99371
▁ne	-9.99371
▁management	-9.99389
600	-9.99428
▁dut	-9.99459
▁wild	-9.99618
stream	-9.99718
▁180	-9.99833
▁improv	-10.0006
▁consecutive	-10.0017
▁floor	-10.0017
▁Djed	-10.0017
▁Greek	-10.0017
delphi	-10.0017
▁Four	-10.002
56	-10.0021
▁orbit	-10.0023
▁museum	-10.0023
▁nomination	-10.0024
▁block	-10.005
▁fear	-10.0065
hou	-10.0065
▁fung	-10.0066
ina	-10.008
▁sets	-10.0086
▁vessel	-10.0099
▁DVD	-10.0099
▁negative	-10.0099
▁civil	-10.0099
▁permanent	-10.01
46	-10.01
▁mouth	-10.0114
▁52	-10.0117
▁doing	-10.0123
▁Pro	-10.0124
▁oil	-10.0135
▁Sky	-10.0135
▁armor	-10.0139
white	-10.0141
away	-10.0144
▁dur	-10.0148
▁indicat	-10.0154
eval	-10.0168
▁refer	-10.0173
83	-10.0174
▁48	-10.0179
kg	-10.0179
▁kick	-10.0181
▁obtain	-10.0181
▁airport	-10.0183
▁opinion	-10.0184
▁chance	-10.0189
▁origin	-10.0192
▁promot	-10.0193
▁Ba	-10.0197
▁identifi	-10.0199
▁creation	-10.021
▁contribut	-10.0216
▁mind	-10.0223
▁inch	-10.0237
laid	-10.0241
▁iron	-10.0246
▁34	-10.0247
hi	-10.0248
76	-10.0255
▁rush	-10.026
▁respect	-10.0262
▁feed	-10.0262
▁buri	-10.0263
▁Institute	-10.0265
▁Science	-10.0265
▁spring	-10.0265
▁Child	-10.0265
▁executive	-10.0267
▁unknow	-10.027
▁threaten	-10.0271
▁else	-10.0271
▁height	-10.0273
▁Y	-10.0293
ah	-10.0301
▁Due	-10.031
▁types	-10.032
ster	-10.034
ius	-10.0345
▁visual	-10.0346
▁encounter	-10.0349
▁Field	-10.0353
borough	-10.0353
▁Mac	-10.0358
▁seek	-10.036
▁raid	-10.0373
▁decline	-10.0394
▁nominat	-10.0407
ular	-10.042
▁adapt	-10.043
om	-10.0432
1987	-10.0432
▁SAFE	-10.0433
▁tank	-10.0434
▁stopp	-10.0436
▁BBC	-10.0438
rang	-10.0444
11	-10.0463
li	-10.0474
▁En	-10.048
▁bowl	-10.0487
▁trip	-10.0489
41	-10.0502
▁Bir	-10.051
▁knowledge	-10.0519
▁Minister	-10.0519
▁invasion	-10.0519
▁weather	-10.052
▁Martin	-10.0522
▁analysi	-10.053
▁association	-10.053
▁operate	-10.0531
▁recogniz	-10.0539
var	-10.0539
▁Michi	-10.054
▁Jim	-10.0542
▁participat	-10.0548
▁BC	-10.055
▁Der	-10.0551
▁securit	-10.0554
▁37	-10.0557
▁More	-10.0564
▁ceremon	-10.0564
gun	-10.0579
▁Croatia	-10.0584
▁Su	-10.0585
▁End	-10.0599
▁peace	-10.0601
▁council	-10.0605
▁famous	-10.0605
▁sculpture	-10.0605
▁Further	-10.0606
▁Good	-10.0609
▁treatment	-10.0612
▁miner	-10.0613
▁campus	-10.0614
▁freeway	-10.0615
▁1972	-10.0616
▁spot	-10.062
▁Jain	-10.0621
ily	-10.0624
ill	-10.0633
▁statement	-10.0635
▁bid	-10.0665
▁finding	-10.0667
lo	-10.0669
▁perfect	-10.0686
▁super	-10.0691
ting	-10.0691
▁fox	-10.0694
▁Video	-10.0695
▁1985	-10.0695
▁technolog	-10.0697
▁channel	-10.0698
▁teacher	-10.0706
▁shift	-10.0715
▁Tenn	-10.0715
▁depend	-10.0722
▁chair	-10.0724
idden	-10.0725
31	-10.0728
HMS	-10.0728
▁teaching	-10.0732
▁titles	-10.074
▁Can	-10.0754
▁big	-10.0756
les	-10.0757
▁Op	-10.0758
▁instrument	-10.0763
▁Cardiff	-10.078
▁recall	-10.078
▁clean	-10.078
▁spend	-10.0781
▁Barrow	-10.0782
▁Phila	-10.0789
ence	-10.0798
▁49	-10.0798
▁Mont	-10.0815
ga	-10.0826
▁destroyer	-10.0827
▁dropp	-10.0837
shire	-10.0845
▁Even	-10.0853
▁arrest	-10.0868
▁Congress	-10.0868
▁federal	-10.0868
▁gradual	-10.0868
▁Keats	-10.0868
▁landfall	-10.0869
▁188	-10.0875
▁1944	-10.0875
▁editor	-10.0878
▁criticism	-10.0879
mo	-10.0898
▁maximu	-10.09
water	-10.09
▁Ram	-10.0912
▁Never	-10.0916
ackground	-10.0918
shore	-10.0933
▁print	-10.0948
▁supplie	-10.0954
▁kilometre	-10.0957
▁possibilit	-10.0957
▁Morris	-10.0958
▁debate	-10.0959
▁civilian	-10.0959
▁strengthen	-10.0965
▁firm	-10.0967
▁engag	-10.0973
▁Premier	-10.0982
▁counter	-10.0983
craft	-10.0993
▁assembl	-10.0994
▁fine	-10.0995
▁foundation	-10.0997
▁Con	-10.0999
▁Gord	-10.1004
▁Car	-10.1021
▁vocal	-10.1044
▁Ever	-10.1046
▁Album	-10.1048
▁budget	-10.1048
▁Additional	-10.1048
▁Dutch	-10.1048
▁multiple	-10.1052
▁solo	-10.1053
▁divine	-10.1056
v	-10.1062
▁Po	-10.1063
79	-10.1064
▁Am	-10.1069
▁Max	-10.1074
▁boy	-10.1075
ez	-10.1079
▁agreement	-10.109
▁Par	-10.1112
▁Steve	-10.1117
▁130	-10.1123
▁killing	-10.113
▁Festival	-10.1138
▁actress	-10.1139
▁belief	-10.1139
▁Nathan	-10.1139
▁120	-10.1151
▁connection	-10.1154
58	-10.1162
▁foreign	-10.117
▁Bon	-10.1177
yond	-10.1183
▁Ali	-10.1203
▁challenge	-10.1209
▁lives	-10.1214
stone	-10.1221
▁Recept	-10.1224
▁college	-10.123
board	-10.1232
▁Roll	-10.1233
▁silver	-10.1234
▁Heart	-10.1235
▁observation	-10.1236
▁Ital	-10.1245
▁zone	-10.1246
azy	-10.1247
▁dance	-10.1251
▁Lo	-10.1255
sses	-10.1258
▁fur	-10.1259
▁data	-10.126
ier	-10.1266
▁ring	-10.1267
▁Bri	-10.1268
W	-10.1288
▁dai	-10.1302
▁passe	-10.1304
onference	-10.1316
▁walk	-10.132
▁newly	-10.132
▁choice	-10.1323
▁nucleus	-10.1323
▁restaurant	-10.1323
▁arrangement	-10.1323
and	-10.1324
▁highlight	-10.1325
▁candidate	-10.1327
theles	-10.1328
▁Slam	-10.1334
▁Haven	-10.1334
▁repair	-10.1336
ari	-10.1347
▁simple	-10.135
ā	-10.1357
▁Original	-10.1361
hann	-10.1364
▁declin	-10.1366
▁Rome	-10.1369
▁bit	-10.1385
▁Sho	-10.1387
45	-10.1392
▁prepared	-10.1393
venue	-10.1393
▁USA	-10.1401
▁send	-10.1403
▁Ne	-10.1405
▁65	-10.1407
pa	-10.141
▁inscription	-10.1416
▁straight	-10.1416
▁victim	-10.1416
ches	-10.1416
▁Gulf	-10.1417
▁1981	-10.1419
▁Lewis	-10.1422
back	-10.1424
▁difference	-10.1425
▁sides	-10.1429
▁Mario	-10.1445
un	-10.1447
▁Ode	-10.145
▁du	-10.1453
sis	-10.146
▁NC	-10.1464
77	-10.1484
▁schedul	-10.15
▁sail	-10.1501
▁transfer	-10.1507
▁recommend	-10.1507
▁Cardinal	-10.1511
▁Temple	-10.1511
▁crime	-10.1511
▁Revolution	-10.1511
▁Production	-10.1511
▁Among	-10.1511
▁option	-10.1515
▁combination	-10.1516
▁setting	-10.1516
▁passage	-10.1523
▁formal	-10.1529
▁remark	-10.1536
▁Hu	-10.1537
▁64	-10.154
▁defin	-10.1551
▁desire	-10.1552
R	-10.1559
▁vote	-10.1567
▁southwest	-10.1581
▁Zho	-10.1586
▁incident	-10.1594
▁Entertainment	-10.1606
▁Oxford	-10.1606
▁People	-10.1606
▁article	-10.1606
▁unlike	-10.1608
▁Coast	-10.1609
▁Girl	-10.1609
▁1939	-10.1609
▁Turner	-10.161
▁frame	-10.1613
▁Russian	-10.1617
▁bottom	-10.1621
▁replace	-10.1627
ership	-10.1628
▁53	-10.1633
▁supply	-10.1636
▁Review	-10.1644
▁paint	-10.1657
▁favor	-10.166
▁spac	-10.1666
mi	-10.1669
ization	-10.1681
worth	-10.1688
burn	-10.1696
▁Bishop	-10.1702
▁skill	-10.1702
▁fit	-10.1703
▁hotel	-10.1703
▁intersection	-10.1706
▁objective	-10.1707
▁Fox	-10.1708
▁digital	-10.171
▁1942	-10.1714
▁aim	-10.172
▁outer	-10.1731
▁here	-10.174
▁con	-10.1741
▁Q	-10.1741
▁torpedo	-10.176
▁Commission	-10.1771
▁dominat	-10.1781
▁drop	-10.1798
▁Juan	-10.1798
▁Governor	-10.1799
▁ritual	-10.1799
▁Bois	-10.1799
▁Fantas	-10.1799
U	-10.18
▁Director	-10.1801
▁green	-10.1802
▁Daniel	-10.1805
▁1918	-10.1805
▁committee	-10.1806
24	-10.1809
▁Joe	-10.181
▁skin	-10.1811
▁drawing	-10.1846
▁Bosto	-10.1847
▁dress	-10.1848
▁Studios	-10.1863
▁Out	-10.1867
▁Dot	-10.1878
▁dismiss	-10.1881
▁verse	-10.1892
▁accompani	-10.1893
▁appli	-10.1894
▁Muslim	-10.1897
▁antimony	-10.1897
▁egg	-10.1897
▁Life	-10.1897
▁genre	-10.1897
▁penalt	-10.1897
▁wait	-10.1897
▁message	-10.1898
▁expedition	-10.1898
V	-10.19
▁Brook	-10.1901
▁cave	-10.1901
▁1968	-10.1902
▁Chain	-10.1903
▁page	-10.1905
▁batsm	-10.1907
▁Area	-10.1907
ung	-10.1916
▁hunt	-10.195
▁starr	-10.1955
▁tall	-10.1965
▁700	-10.1968
▁branch	-10.197
iro	-10.1975
▁centur	-10.1994
▁Evita	-10.1996
▁Magazine	-10.1996
▁System	-10.1996
▁What	-10.1996
▁temporar	-10.1996
▁spore	-10.1997
▁Single	-10.2001
▁naval	-10.2004
▁Crown	-10.2004
▁Pri	-10.2004
▁1975	-10.2007
▁camera	-10.2008
▁warm	-10.2009
▁Kang	-10.2011
▁survey	-10.2014
▁beach	-10.2022
▁Player	-10.203
▁Yan	-10.2036
▁tie	-10.2037
ov	-10.2043
▁Bart	-10.2045
▁rescue	-10.205
▁Per	-10.2055
59	-10.2057
▁acquir	-10.206
▁notable	-10.2073
▁stations	-10.2074
hose	-10.2089
▁rain	-10.2091
▁weak	-10.2092
▁drama	-10.2093
▁rich	-10.2093
▁technical	-10.2096
▁drain	-10.2096
▁interaction	-10.2099
▁Pi	-10.2103
▁generation	-10.2103
▁billion	-10.2109
▁56	-10.2113
▁Da	-10.2113
▁layer	-10.2115
ap	-10.2145
▁hir	-10.2145
bury	-10.2146
▁policy	-10.2151
▁GA	-10.2156
▁deriv	-10.2161
▁independen	-10.2173
▁broad	-10.219
istrict	-10.2196
▁mushroom	-10.2197
▁retreat	-10.2197
▁principal	-10.2197
▁unusual	-10.2198
▁sector	-10.2198
▁motion	-10.2199
▁concret	-10.2203
▁Liu	-10.2205
▁airline	-10.2205
▁reform	-10.2207
▁Howe	-10.2211
▁Commander	-10.222
berg	-10.2235
▁Williams	-10.2241
▁Toda	-10.2241
fer	-10.2258
▁secur	-10.2272
▁800	-10.2273
▁inform	-10.2285
▁trad	-10.2288
▁hope	-10.2296
▁senior	-10.2299
▁Jurchen	-10.2299
▁Power	-10.2299
▁Project	-10.2299
▁43	-10.23
▁cool	-10.2302
▁emperor	-10.2302
▁purchas	-10.2302
▁flag	-10.2305
▁creator	-10.2312
▁tend	-10.2325
▁easi	-10.2326
▁54	-10.2343
▁Ben	-10.2347
▁boundar	-10.2365
▁ex	-10.2369
▁entr	-10.237
▁Jos	-10.2377
▁Mega	-10.2389
ean	-10.2396
▁Charl	-10.2397
wa	-10.24
▁protagonist	-10.2402
▁chorus	-10.2402
▁pull	-10.2402
▁Development	-10.2403
▁Board	-10.2403
▁communication	-10.2403
▁Summer	-10.2403
▁Theatr	-10.2409
▁nothing	-10.2418
▁Recording	-10.2421
▁folk	-10.244
▁FA	-10.244
ex	-10.2443
▁arrival	-10.2447
▁nor	-10.245
▁moral	-10.2451
▁Band	-10.2451
▁fresh	-10.246
▁address	-10.2462
▁arrive	-10.2473
▁invit	-10.2485
▁strike	-10.2492
onica	-10.2492
ado	-10.2495
▁Ni	-10.2501
▁graph	-10.2503
▁accus	-10.2503
▁guard	-10.2505
▁essential	-10.2506
▁vision	-10.2507
▁platform	-10.2507
▁Team	-10.2507
▁sole	-10.251
▁medica	-10.2511
▁Track	-10.2513
▁soil	-10.2515
▁Radio	-10.2515
▁sand	-10.2517
em	-10.2528
TC	-10.2529
▁Baby	-10.2531
▁MD	-10.2534
tage	-10.2544
growth	-10.2547
eath	-10.2558
▁Book	-10.2561
▁Do	-10.2563
▁Te	-10.2575
▁secure	-10.2604
▁Egypt	-10.261
▁regime	-10.2611
#	-10.2612
▁MacLeod	-10.2612
▁administration	-10.2612
▁priest	-10.2612
▁fuel	-10.2612
▁representative	-10.2613
▁classifi	-10.2613
▁1936	-10.2615
▁reduce	-10.2615
spread	-10.2618
▁cruiser	-10.2622
▁1919	-10.2623
▁row	-10.2629
▁Lee	-10.2632
▁41	-10.2635
ett	-10.2637
▁card	-10.2639
yson	-10.2657
ook	-10.2664
cross	-10.2666
▁Fe	-10.2669
▁deni	-10.2673
▁Asia	-10.2692
▁biograph	-10.2696
▁shoot	-10.2697
▁holding	-10.271
▁charter	-10.2716
▁Admiral	-10.2718
▁Athletic	-10.2718
▁Iguanodon	-10.2718
▁passenger	-10.2718
▁violence	-10.2718
▁Anthon	-10.2718
▁parallel	-10.2731
▁equal	-10.2731
▁Constantin	-10.2733
▁Nin	-10.2737
▁Real	-10.2759
▁heard	-10.2803
ci	-10.2804
▁Rio	-10.2807
▁remix	-10.2813
▁57	-10.2815
▁atmosphere	-10.2826
▁fashion	-10.2826
▁Douglas	-10.2826
▁province	-10.2826
▁roof	-10.2826
▁remnant	-10.2826
▁earthquake	-10.2826
▁gas	-10.2827
▁renam	-10.2827
▁exclusive	-10.2828
▁Walter	-10.2829
▁massive	-10.2831
▁possession	-10.2831
▁Hindu	-10.2832
▁fan	-10.2833
▁grand	-10.284
▁Marl	-10.2856
▁die	-10.2859
▁proposal	-10.286
▁en	-10.286
▁emerg	-10.2885
▁settler	-10.2887
▁96	-10.2889
▁Atlant	-10.2889
▁Bond	-10.289
▁guide	-10.2902
▁Christ	-10.2907
▁trail	-10.2908
▁rebel	-10.2913
▁rail	-10.2923
▁surround	-10.2925
▁spoke	-10.2928
▁basic	-10.2928
▁judge	-10.293
▁column	-10.2933
▁Committee	-10.2934
▁unsuccessful	-10.2934
▁submarine	-10.2934
▁Hornung	-10.2934
▁Anonymous	-10.2935
▁chapel	-10.2935
▁fellow	-10.2935
▁basket	-10.2935
▁160	-10.2938
▁impress	-10.2942
▁perhap	-10.2943
▁Golden	-10.2943
▁protection	-10.2952
off	-10.2969
▁lap	-10.2973
▁Wy	-10.2993
▁Somali	-10.2998
▁southeast	-10.3006
▁basin	-10.3023
▁Ed	-10.3025
slo	-10.3027
istic	-10.3027
O	-10.3032
▁govern	-10.3036
▁Caribbean	-10.3044
▁Democrat	-10.3044
▁Lieutenant	-10.3044
▁Alli	-10.3044
▁Milit	-10.3045
▁wedding	-10.3045
▁Sunday	-10.3047
▁AML	-10.305
▁Men	-10.305
▁truth	-10.3053
ology	-10.3055
ette	-10.3058
▁Prime	-10.3061
▁table	-10.3064
▁distinguish	-10.3066
ek	-10.3076
▁bank	-10.3076
▁1914	-10.3085
P	-10.3091
▁medi	-10.3098
▁Han	-10.3101
▁Down	-10.3103
▁46	-10.3116
von	-10.3119
▁rose	-10.3123
▁arrang	-10.3136
ru	-10.3144
▁resign	-10.3152
▁measur	-10.3153
▁Chelsea	-10.3155
▁eleven	-10.3155
▁sufficient	-10.3155
▁attach	-10.3155
▁household	-10.3156
▁estate	-10.3156
▁panel	-10.3157
ruli	-10.3158
▁Columbia	-10.3159
▁Santa	-10.316
▁supposed	-10.316
▁Roger	-10.3161
▁interior	-10.3163
gé	-10.3163
▁successor	-10.3167
▁leaders	-10.3168
▁Georgian	-10.3172
bi	-10.3174
lay	-10.3176
▁finds	-10.3177
19	-10.3181
▁emotional	-10.3185
▁ti	-10.3188
▁decide	-10.3191
▁bound	-10.3204
uri	-10.3206
ERA	-10.3207
▁attribut	-10.3214
G	-10.3219
▁composer	-10.3221
▁Wil	-10.3228
▁survive	-10.3241
ide	-10.3242
▁plane	-10.3251
▁adventure	-10.3258
glades	-10.3259
▁econom	-10.3261
res	-10.3262
▁Public	-10.3264
▁deploy	-10.3264
▁Di	-10.3266
▁tunnel	-10.3268
▁Hibari	-10.3268
▁Spring	-10.3268
▁Gwen	-10.3268
▁attain	-10.3268
▁Carl	-10.3269
▁bear	-10.327
▁About	-10.327
▁archaeologist	-10.327
▁journalist	-10.3272
▁IG	-10.3279
▁shooting	-10.3281
▁Sap	-10.3283
ana	-10.3286
▁Bull	-10.3289
▁establishment	-10.329
▁homes	-10.3292
▁Holly	-10.3297
▁Jeff	-10.3306
kin	-10.3316
▁250	-10.3333
▁importan	-10.3344
▁Miss	-10.3353
▁correct	-10.3369
▁Industr	-10.338
uck	-10.3381
▁component	-10.3381
▁convoy	-10.3381
▁1982	-10.3381
▁theatre	-10.3382
▁Perr	-10.3382
▁Venus	-10.3383
▁Romani	-10.3387
ji	-10.3391
▁heat	-10.3403
▁ice	-10.3406
▁visitor	-10.3409
▁110	-10.3411
▁load	-10.3419
▁split	-10.3421
cal	-10.3422
▁CD	-10.3431
▁graphic	-10.3433
ri	-10.3438
▁Clark	-10.3443
▁rival	-10.3445
▁Jo	-10.3459
▁55	-10.3464
▁politic	-10.3467
▁76	-10.3473
▁Play	-10.3476
▁Haiti	-10.3491
▁dispute	-10.3496
▁exact	-10.3496
▁speech	-10.3496
▁offense	-10.3496
▁rural	-10.3496
▁Destin	-10.3496
▁exit	-10.3497
▁academic	-10.3498
▁governor	-10.35
▁wish	-10.3501
▁94	-10.3501
▁1913	-10.3501
▁Howard	-10.3501
▁repeated	-10.3502
▁1916	-10.3503
▁glass	-10.352
▁dog	-10.3521
pe	-10.3533
▁shore	-10.3533
▁twin	-10.3536
▁driver	-10.355
▁struggle	-10.3558
▁Pa	-10.3575
í	-10.3575
▁Holy	-10.3584
▁85	-10.359
▁soft	-10.3598
▁controvers	-10.3611
▁Similar	-10.3613
▁doubt	-10.3613
▁march	-10.3614
▁predator	-10.3615
▁Jones	-10.3615
▁plain	-10.3616
▁Secretary	-10.3617
▁1943	-10.362
▁note	-10.3625
▁alter	-10.3629
ors	-10.3633
▁Will	-10.3633
▁urban	-10.3639
▁Famil	-10.3642
tadium	-10.3646
▁designation	-10.3653
▁Dublin	-10.366
ather	-10.3673
▁vot	-10.3702
▁fun	-10.3705
ou	-10.3718
▁sports	-10.372
▁Office	-10.3721
▁improve	-10.3722
▁exhibit	-10.3722
▁certifi	-10.373
▁constant	-10.373
▁rifle	-10.373
▁variation	-10.373
▁Stephen	-10.373
▁benefit	-10.373
▁pregnan	-10.373
▁opposition	-10.373
▁Montana	-10.3731
▁download	-10.3731
▁Snow	-10.3731
▁Native	-10.3734
▁replacement	-10.3735
▁capacit	-10.3737
▁contest	-10.3738
▁inspiration	-10.3738
▁61	-10.3739
▁introduction	-10.374
▁fix	-10.3745
body	-10.3751
ong	-10.3763
▁Homer	-10.3773
▁Nor	-10.3773
iston	-10.3787
▁Roxa	-10.3804
▁owner	-10.3814
▁nois	-10.3822
▁lay	-10.3831
▁parliament	-10.3833
25	-10.3842
ible	-10.3843
▁distinct	-10.3843
▁Night	-10.3846
don	-10.3847
▁symbol	-10.3849
▁recruit	-10.3849
▁Activis	-10.3849
▁Alexander	-10.3849
▁Mississippi	-10.3849
▁Samuel	-10.3849
▁Trujill	-10.3849
▁reputation	-10.3849
▁sequel	-10.3849
▁journey	-10.3849
▁substantial	-10.3849
▁Ridge	-10.385
▁surrender	-10.3852
ig	-10.3857
▁Rangers	-10.3858
30	-10.3859
▁assistance	-10.386
▁sample	-10.3862
▁Critical	-10.3864
▁exception	-10.3866
▁Mari	-10.3872
▁dry	-10.3873
▁Sam	-10.3873
▁venue	-10.3874
▁Croatian	-10.3878
J	-10.388
▁Dann	-10.3886
▁Col	-10.3889
▁Arthur	-10.3899
▁95	-10.3899
▁62	-10.39
▁roll	-10.3902
over	-10.3904
bo	-10.3908
▁encourag	-10.3912
▁Br	-10.3917
▁praise	-10.392
▁NH	-10.3921
▁Friends	-10.3933
CE	-10.3936
▁prey	-10.3941
lu	-10.3943
▁72	-10.3949
▁defender	-10.3958
▁Bar	-10.396
▁map	-10.3962
per	-10.3963
▁Ash	-10.3964
▁fictional	-10.3967
▁honour	-10.397
▁romantic	-10.397
▁valley	-10.397
▁expansion	-10.397
▁instance	-10.3971
▁Inter	-10.3976
▁distribution	-10.3977
▁1953	-10.3977
▁Hart	-10.3977
▁cake	-10.3979
ep	-10.398
▁manner	-10.3981
ious	-10.3983
▁baby	-10.3984
▁drug	-10.3987
▁thin	-10.3989
▁Ja	-10.3991
▁promote	-10.3996
▁Stevens	-10.4002
00	-10.4011
▁Lis	-10.4014
▁catch	-10.4022
▁Pe	-10.4022
▁tomb	-10.4027
older	-10.4035
▁earth	-10.4036
quite	-10.4038
▁Alan	-10.4041
▁shipp	-10.4048
▁hill	-10.4053
X	-10.4054
▁Rose	-10.4055
▁raise	-10.4067
telligence	-10.4069
▁Bana	-10.4076
▁existen	-10.408
▁detect	-10.4083
▁Com	-10.4085
▁purchase	-10.4088
▁cult	-10.4091
▁responsibilit	-10.4092
▁Frederick	-10.4092
▁monarch	-10.4092
▁application	-10.4092
▁alternative	-10.4092
▁reserve	-10.4094
▁department	-10.4094
▁charit	-10.4101
▁Pen	-10.4106
▁belong	-10.4112
mont	-10.4115
▁shar	-10.4124
po	-10.4133
▁confus	-10.4144
▁inner	-10.4145
▁door	-10.4149
tra	-10.4157
▁ridge	-10.416
ac	-10.4166
▁incorporat	-10.417
qui	-10.417
▁Tu	-10.4174
▁pitcher	-10.4176
▁lose	-10.4179
▁proper	-10.4186
▁bell	-10.419
ood	-10.4199
▁gate	-10.4203
▁isolat	-10.4208
jev	-10.4212
▁thirt	-10.4215
▁steam	-10.4215
▁Calvert	-10.4215
▁Construct	-10.4215
▁interchange	-10.4215
▁portrait	-10.4215
▁Stefan	-10.4215
▁expert	-10.4215
▁Tower	-10.4216
▁favorite	-10.4216
▁NBC	-10.4218
▁battleship	-10.422
▁railway	-10.422
▁Bell	-10.422
▁Order	-10.4221
▁Press	-10.4235
▁afterward	-10.4236
73	-10.4242
▁signal	-10.4248
▁Val	-10.4251
▁nin	-10.4261
▁aware	-10.4268
▁Dream	-10.4274
ware	-10.4281
tial	-10.4289
▁craft	-10.4289
▁reading	-10.4302
▁historic	-10.4304
▁Count	-10.4306
▁pound	-10.4311
▁eat	-10.4311
▁signing	-10.4331
▁Bro	-10.4336
▁farm	-10.4336
▁Pr	-10.4336
▁77	-10.4337
▁Plunkett	-10.434
▁puzzle	-10.434
▁resource	-10.434
▁chemical	-10.434
▁surprise	-10.434
▁entertain	-10.434
▁crown	-10.434
▁Isabella	-10.434
▁squadron	-10.4341
▁Hugh	-10.4341
▁bright	-10.4341
he	-10.4346
▁franchise	-10.4349
▁edit	-10.435
50	-10.435
▁Lu	-10.4356
▁neck	-10.4358
▁convecti	-10.4359
▁dis	-10.436
▁DNA	-10.4361
▁canal	-10.4368
▁Top	-10.4374
ía	-10.4375
amy	-10.4379
▁hat	-10.4383
▁handl	-10.4385
▁alien	-10.4385
74	-10.439
▁suit	-10.4406
▁step	-10.4409
▁knots	-10.4416
▁identit	-10.4416
▁settl	-10.4416
▁81	-10.4426
▁cycle	-10.4427
▁Ro	-10.4448
▁moderate	-10.4456
▁touch	-10.4456
▁argue	-10.4462
▁flat	-10.4463
▁Arts	-10.4465
▁tribes	-10.4467
▁convince	-10.4467
▁festival	-10.4467
▁predecessor	-10.4467
▁ocean	-10.4467
▁Jersey	-10.4467
▁recognition	-10.4467
▁trie	-10.4467
▁Colonel	-10.4467
▁Chronicle	-10.4468
▁Strand	-10.4468
▁assistant	-10.4468
▁consistent	-10.4469
▁conference	-10.4469
▁preparation	-10.4469
▁colonial	-10.4469
▁joint	-10.447
▁Duke	-10.447
▁1890	-10.447
▁preferr	-10.4471
▁proceed	-10.4473
▁1917	-10.4477
▁characteristics	-10.4478
▁1948	-10.4478
▁Ho	-10.4498
▁Tree	-10.4499
▁187	-10.4503
AA	-10.4517
▁vary	-10.4517
▁worth	-10.4519
▁authors	-10.452
▁scholar	-10.4522
▁Argentin	-10.4535
▁scholars	-10.4539
▁shap	-10.4542
▁Pine	-10.456
▁Victoria	-10.456
ew	-10.4562
▁Bank	-10.4564
▁environment	-10.4564
Brien	-10.4573
▁corn	-10.4573
iness	-10.4576
▁strateg	-10.4577
▁tee	-10.459
▁let	-10.4591
jo	-10.4592
elevision	-10.4592
▁faith	-10.4595
▁diameter	-10.4595
▁pupil	-10.4595
▁jazz	-10.4595
▁regiment	-10.4595
▁wicket	-10.4595
▁bond	-10.4596
▁europ	-10.4596
▁eliminat	-10.4596
▁tale	-10.4597
▁dramatic	-10.4597
▁desert	-10.4598
▁eyes	-10.4599
▁mechanic	-10.4599
▁Ar	-10.46
▁adaptation	-10.46
▁indig	-10.4605
▁relegat	-10.461
▁Fair	-10.4611
▁Castle	-10.4613
▁organ	-10.462
▁Row	-10.4623
▁exchange	-10.4627
▁Sol	-10.4631
▁mere	-10.4633
▁distribut	-10.4639
thus	-10.4639
▁Mag	-10.4643
▁categor	-10.465
▁minister	-10.4653
▁accident	-10.4667
▁moves	-10.4671
zong	-10.4674
▁tactic	-10.4676
▁churche	-10.468
▁notice	-10.4681
▁context	-10.4683
▁electric	-10.4689
▁roads	-10.4691
▁Sta	-10.4708
▁Carol	-10.4713
▁worship	-10.4713
▁Fame	-10.4717
▁sudden	-10.4725
▁Transport	-10.4725
▁Jifn	-10.4726
▁publisher	-10.4727
▁Plot	-10.4728
▁1954	-10.4731
▁belt	-10.4731
og	-10.4733
▁soul	-10.4734
▁tourist	-10.4734
iana	-10.4736
▁prompt	-10.4738
▁Far	-10.4739
▁Independent	-10.4741
▁Aston	-10.4741
▁completion	-10.4757
▁pool	-10.476
▁assum	-10.476
▁Norman	-10.4769
▁arc	-10.4771
▁evening	-10.4773
▁Your	-10.4779
ib	-10.4781
▁Gull	-10.4793
▁mine	-10.4804
▁mark	-10.4811
oba	-10.4814
▁cold	-10.4821
▁Pre	-10.483
▁Rob	-10.485
▁sort	-10.4851
▁Archaeolog	-10.4855
▁squad	-10.4856
▁spirit	-10.4856
▁monitor	-10.4856
▁Jerusalem	-10.4856
▁Netherland	-10.4856
▁turret	-10.4856
▁Modern	-10.4856
▁varie	-10.4857
▁supporter	-10.4857
▁Hamil	-10.486
▁1937	-10.4864
▁theater	-10.4865
▁Just	-10.4872
▁Wilde	-10.4876
▁Ré	-10.4877
▁programme	-10.4878
▁Eu	-10.4892
▁stretch	-10.4892
▁regional	-10.4894
efore	-10.49
▁camps	-10.4909
▁Matt	-10.4915
wealth	-10.4916
▁Ch	-10.4917
▁hous	-10.4923
▁preserv	-10.4926
▁lands	-10.493
▁champion	-10.493
▁Adam	-10.4933
ot	-10.4943
▁Run	-10.4945
▁Isle	-10.4946
▁experienc	-10.495
▁engage	-10.4963
ag	-10.4964
▁favour	-10.4967
▁coup	-10.4969
▁happ	-10.4974
ini	-10.4976
×	-10.499
▁criminal	-10.499
▁segment	-10.499
▁wrong	-10.499
▁Kilmer	-10.4992
▁organisation	-10.4993
▁contribution	-10.5002
▁profit	-10.5002
▁Carter	-10.5002
▁strip	-10.5002
▁achieve	-10.5002
▁1955	-10.5003
▁initiative	-10.5003
▁Fish	-10.5004
40	-10.5006
T	-10.5022
▁wine	-10.5024
▁Writing	-10.5031
ud	-10.5037
▁Dis	-10.5038
fare	-10.504
ori	-10.5042
▁Hav	-10.5043
sey	-10.5047
rian	-10.5053
vo	-10.5054
▁winner	-10.5074
▁travell	-10.5074
FA	-10.5075
▁Cast	-10.5079
▁founder	-10.508
tion	-10.5087
▁Cory	-10.5088
▁generat	-10.5101
▁prove	-10.5113
▁Swed	-10.5119
▁ill	-10.5119
epression	-10.5124
▁fragment	-10.5125
▁register	-10.5125
▁Point	-10.5125
▁Rifle	-10.5125
▁knock	-10.5125
▁Chief	-10.5127
▁Color	-10.5128
▁Min	-10.5131
▁Beach	-10.5131
▁committ	-10.5135
▁1900	-10.5138
▁Thir	-10.514
▁patron	-10.5144
▁stem	-10.515
▁intention	-10.5152
ai	-10.5158
▁Station	-10.5158
ica	-10.5161
▁Guy	-10.5179
▁researcher	-10.5181
▁grey	-10.5195
▁Hor	-10.5195
▁stream	-10.52
▁driv	-10.5202
ane	-10.5208
▁warning	-10.5222
▁firing	-10.5225
▁Base	-10.5239
bert	-10.5245
▁youth	-10.5247
▁none	-10.5251
isation	-10.5251
▁scientist	-10.5262
▁dialogue	-10.5262
▁Type	-10.5262
▁erect	-10.5262
▁Ryan	-10.5263
▁lbw	-10.5263
▁classic	-10.5263
viation	-10.5264
▁shark	-10.5264
▁restrict	-10.5264
▁anniversar	-10.5265
▁Bas	-10.5269
olí	-10.527
▁industrial	-10.5271
▁Jean	-10.5271
▁internal	-10.5272
▁1949	-10.5274
MO	-10.5278
▁Iron	-10.5287
▁offering	-10.5295
▁Cape	-10.5296
ight	-10.531
▁admitted	-10.5313
▁towns	-10.5317
▁Mc	-10.5318
▁Burn	-10.5318
▁Adams	-10.5321
▁trouble	-10.5321
▁approv	-10.5321
▁Johnston	-10.5341
▁ag	-10.5347
▁Francisc	-10.5351
▁Ph	-10.5353
ormula	-10.5373
pi	-10.5378
07	-10.5389
mbled	-10.5395
▁wherea	-10.5396
▁Test	-10.5396
▁Sound	-10.5398
▁Square	-10.5401
▁adjacen	-10.5401
▁Cambridge	-10.5401
▁watershed	-10.5401
▁guilt	-10.5401
▁opposite	-10.5402
▁originat	-10.5402
▁Wolf	-10.5403
▁Head	-10.5405
▁Jesu	-10.5407
▁Fras	-10.5407
▁Design	-10.5412
▁Korean	-10.5415
▁Serb	-10.5416
▁discussion	-10.5418
▁Hotel	-10.5419
▁Congo	-10.542
▁Gate	-10.5422
▁criticis	-10.5429
▁Kar	-10.5429
▁determine	-10.5429
ita	-10.5432
▁Dan	-10.5435
▁hip	-10.5437
▁promis	-10.5438
▁eighth	-10.5443
▁Queens	-10.5443
▁UN	-10.5445
abilit	-10.5451
▁Wom	-10.5454
OK	-10.5461
ich	-10.5462
▁fair	-10.5464
▁Fi	-10.5469
what	-10.5477
▁coal	-10.5478
▁Research	-10.548
▁Tel	-10.5494
▁possess	-10.5496
▁experiment	-10.5501
▁classe	-10.5505
ise	-10.5514
top	-10.5516
▁Georgia	-10.5521
▁ensure	-10.5522
▁listen	-10.5528
▁install	-10.5533
▁apart	-10.5538
▁photograph	-10.5541
▁emphasis	-10.5542
▁kitsune	-10.5542
▁molecule	-10.5542
▁superior	-10.5542
▁Initial	-10.5542
▁Gerard	-10.5542
▁ruin	-10.5542
▁controversial	-10.5543
▁Persian	-10.5543
▁advertis	-10.5543
▁employee	-10.5544
▁evil	-10.5544
▁crest	-10.5548
▁Guide	-10.5549
▁Human	-10.555
▁agricultural	-10.5552
▁1910	-10.5552
▁Burns	-10.5553
▁stadium	-10.5554
▁Prior	-10.5556
▁electronic	-10.5556
▁Leonard	-10.5559
IFA	-10.5572
20	-10.5578
nel	-10.5578
▁Fei	-10.5578
▁magic	-10.5584
52	-10.5598
▁Somalia	-10.5601
AS	-10.5601
ensi	-10.5603
▁deck	-10.5606
ola	-10.561
▁Goff	-10.5615
▁Rod	-10.562
▁hall	-10.5623
▁kne	-10.5623
lock	-10.563
▁grass	-10.5631
▁hear	-10.565
▁71	-10.5657
▁Story	-10.566
▁predict	-10.5677
▁cloth	-10.5678
▁sponsor	-10.5683
▁streak	-10.5684
▁Attorney	-10.5684
▁cloud	-10.5684
▁Mortal	-10.5684
▁conclusion	-10.5685
▁talent	-10.5685
▁dock	-10.5688
▁medium	-10.5691
▁Aeri	-10.5691
pp	-10.5692
▁solid	-10.5693
▁legend	-10.5698
▁See	-10.5699
▁divers	-10.57
▁Stock	-10.5702
▁gather	-10.571
▁corner	-10.5719
▁bigge	-10.5728
▁Jay	-10.5731
▁characteriz	-10.5734
▁Late	-10.5739
▁disc	-10.574
au	-10.5751
▁rhythm	-10.5755
▁engineering	-10.5755
heim	-10.5766
▁termin	-10.5769
documentary	-10.5769
▁estimate	-10.5781
ize	-10.5786
▁Mill	-10.5794
▁fir	-10.581
tropic	-10.5813
▁deposit	-10.5822
▁dynast	-10.5827
▁Hospital	-10.5829
ʻ	-10.5829
▁Peninsula	-10.5829
▁crash	-10.5829
▁steel	-10.5829
▁chamber	-10.5829
▁feather	-10.5829
▁Eric	-10.583
▁remember	-10.583
▁lb	-10.583
▁equivalent	-10.583
▁demonstrat	-10.583
▁narrative	-10.5831
▁1909	-10.5831
▁scientific	-10.5831
▁price	-10.5832
▁equipp	-10.5832
▁Er	-10.5833
▁1880	-10.5833
ze	-10.5834
▁Llo	-10.5834
▁66	-10.5834
▁Palace	-10.5838
▁Owen	-10.5838
▁Ya	-10.5843
▁Dark	-10.5844
ombat	-10.5846
▁Gun	-10.585
rence	-10.585
▁selection	-10.5853
▁Ken	-10.5861
ification	-10.5863
▁visibl	-10.5868
▁Garc	-10.5873
▁Muld	-10.5891
▁wealth	-10.59
▁compete	-10.5902
▁marks	-10.5903
ili	-10.5918
▁intense	-10.5919
eng	-10.5924
▁Bru	-10.5926
▁IV	-10.593
▁Kat	-10.5943
▁compris	-10.5944
shi	-10.595
▁Mar	-10.5953
ub	-10.5955
▁picture	-10.596
▁tone	-10.5961
▁el	-10.5965
nlike	-10.597
ile	-10.5976
▁exhaust	-10.5976
munition	-10.5976
▁Elizabeth	-10.5976
▁global	-10.5976
▁siege	-10.5976
▁affair	-10.5976
▁perspective	-10.5976
▁twelve	-10.5977
▁buy	-10.5977
we	-10.5978
▁circle	-10.5978
▁income	-10.5978
▁Space	-10.5979
▁Lancas	-10.5979
▁FIA	-10.5979
▁gross	-10.5981
▁celebrat	-10.5982
▁designer	-10.5982
ire	-10.5982
▁Flight	-10.5983
▁improvement	-10.5983
▁1935	-10.5984
▁Poland	-10.5987
▁Rug	-10.5993
ev	-10.5994
▁Key	-10.6002
▁Media	-10.6003
17	-10.6005
▁expens	-10.6005
▁runner	-10.6008
▁Islam	-10.6016
▁Kod	-10.6018
▁classical	-10.6021
tendo	-10.6022
ani	-10.6034
▁Bi	-10.6038
▁Every	-10.6043
▁suburb	-10.6043
▁Back	-10.6048
rie	-10.6048
lan	-10.6052
▁intensifi	-10.6056
cruz	-10.6061
▁canon	-10.607
▁gr	-10.6093
▁Shao	-10.6097
▁Critic	-10.6106
▁Marc	-10.6109
▁Camp	-10.6113
▁59	-10.6115
▁interpret	-10.6122
▁organis	-10.6123
iv	-10.6124
▁Enterprise	-10.6126
▁Shakespeare	-10.6126
▁escort	-10.6126
▁amateur	-10.6126
▁Release	-10.6126
▁gift	-10.6126
▁1932	-10.6126
▁false	-10.6126
▁extension	-10.6126
▁Phoeni	-10.6126
▁Giant	-10.6129
▁Now	-10.6134
▁Allah	-10.6135
▁Special	-10.6141
▁schedule	-10.6142
▁union	-10.6143
▁Sp	-10.6147
math	-10.6151
▁transition	-10.6151
ō	-10.6153
seas	-10.6154
▁Tri	-10.6154
ada	-10.6158
▁Stor	-10.6165
aiss	-10.6175
▁cent	-10.6177
▁bone	-10.6178
ker	-10.6181
▁Ga	-10.6186
▁Che	-10.6196
▁rat	-10.6198
che	-10.6198
▁Maria	-10.6199
▁agenc	-10.6203
▁suffering	-10.6203
▁starts	-10.6209
▁pursue	-10.622
▁patrol	-10.6223
▁Pu	-10.6227
▁Jew	-10.6229
union	-10.6233
oc	-10.624
vāda	-10.6247
▁Cold	-10.6259
mp	-10.6263
▁meter	-10.6274
▁bishop	-10.6277
▁behaviour	-10.6277
▁holiday	-10.6277
▁absence	-10.6277
▁prerogative	-10.6277
▁Channel	-10.6277
▁fifteen	-10.6277
▁answer	-10.6277
▁Geoff	-10.6277
▁circumstance	-10.6278
▁Communist	-10.6278
▁professor	-10.6278
▁helmet	-10.6278
▁renew	-10.6278
▁Guardian	-10.6278
▁Sweet	-10.6278
▁Pitman	-10.6279
▁clock	-10.6279
▁reconstruction	-10.628
▁98	-10.6282
▁climate	-10.6283
▁1929	-10.6283
▁1921	-10.6283
▁Link	-10.6284
DH	-10.6285
▁views	-10.6286
▁argument	-10.6289
▁Lenno	-10.6293
▁gone	-10.6297
▁cook	-10.6297
▁rug	-10.6303
▁format	-10.6305
▁Mal	-10.631
▁Mad	-10.6318
▁prisoner	-10.6328
▁trick	-10.6329
▁stands	-10.633
▁AD	-10.6335
▁Ron	-10.6341
▁ranking	-10.6345
▁Lega	-10.6347
ip	-10.636
▁expos	-10.6364
AT	-10.6381
▁muscari	-10.6383
▁Our	-10.6387
▁crossing	-10.6387
▁resemble	-10.6398
▁flower	-10.6401
▁rang	-10.6402
▁DC	-10.6405
▁sit	-10.6407
▁Cambodia	-10.641
▁ray	-10.6412
▁execut	-10.6421
mperor	-10.6428
graf	-10.643
▁Education	-10.6431
▁acclaim	-10.6431
▁goddess	-10.6431
▁Imperial	-10.6431
▁scatter	-10.6431
▁Protestant	-10.6431
▁drink	-10.6431
▁beautiful	-10.6431
▁fountain	-10.6431
▁spiritual	-10.6432
▁amino	-10.6432
diterran	-10.6432
▁brick	-10.6433
▁Phillie	-10.6434
▁tight	-10.6434
▁wins	-10.6434
▁Moore	-10.6437
▁investigation	-10.6437
▁deem	-10.644
▁1938	-10.6441
▁pure	-10.6443
▁Republican	-10.6445
▁1962	-10.6453
▁van	-10.6454
▁Israeli	-10.6455
▁influen	-10.6467
▁Ancient	-10.647
▁rid	-10.6471
▁Lords	-10.6478
▁bus	-10.6482
▁Yo	-10.6484
▁hot	-10.6497
▁bay	-10.6499
▁compet	-10.651
▁Ta	-10.651
▁grade	-10.6516
ata	-10.652
olar	-10.6527
▁bass	-10.6532
ack	-10.6534
▁prison	-10.6535
▁diet	-10.654
▁sun	-10.654
▁restor	-10.6541
▁plum	-10.6548
olf	-10.6549
life	-10.6556
▁sw	-10.6563
fall	-10.6566
▁listing	-10.6567
▁blow	-10.6576
▁assert	-10.6577
▁na	-10.658
▁albums	-10.6581
▁occasions	-10.6584
▁Palestin	-10.6586
rque	-10.6586
▁simultaneous	-10.6587
▁shirt	-10.6587
▁chain	-10.6587
▁disaster	-10.6588
▁comparison	-10.6588
▁conversation	-10.6588
▁departure	-10.6588
▁exposure	-10.6588
▁accompany	-10.6588
▁Raff	-10.659
▁Thai	-10.659
▁legislation	-10.6591
▁175	-10.6591
▁residence	-10.6591
▁Grammy	-10.6593
▁Show	-10.6593
▁parish	-10.6594
▁stable	-10.6594
▁Nick	-10.6595
▁Furta	-10.6598
71	-10.6598
10	-10.6601
▁reconn	-10.6607
▁Má	-10.6609
▁Massac	-10.661
▁nurse	-10.6612
CA	-10.6627
▁lie	-10.6638
▁sky	-10.6646
▁Bal	-10.6652
ix	-10.6652
▁fold	-10.6659
▁graduat	-10.666
▁realit	-10.6666
ureau	-10.6677
bel	-10.668
▁63	-10.6681
▁survivors	-10.6684
nterbur	-10.6692
work	-10.6693
mar	-10.6697
ative	-10.6697
bar	-10.6697
▁witness	-10.67
con	-10.6703
▁Vice	-10.6707
ox	-10.671
▁closer	-10.6711
▁Anti	-10.6714
▁Sha	-10.6723
▁dream	-10.6726
let	-10.6728
▁Jon	-10.6731
▁hel	-10.6733
▁Gray	-10.6736
▁decorat	-10.6738
▁tip	-10.6741
▁developer	-10.6741
▁colleague	-10.6746
▁scheme	-10.6746
▁suspect	-10.6746
▁switch	-10.6746
▁choir	-10.6746
▁Krak	-10.6747
▁loan	-10.6748
▁mixture	-10.6749
▁tributar	-10.6751
▁concentration	-10.6751
▁resistan	-10.6752
▁blame	-10.6754
▁rhyme	-10.6756
athedral	-10.6756
▁Along	-10.6761
94	-10.6761
▁entitl	-10.6762
▁tube	-10.6763
▁crake	-10.6765
▁shoulder	-10.6769
rick	-10.6771
▁depiction	-10.6772
▁Pan	-10.6773
▁showing	-10.6775
lair	-10.6776
▁plate	-10.6778
▁understand	-10.6779
▁statistic	-10.6786
▁bearing	-10.6787
▁undergo	-10.6793
Dominican	-10.6809
96	-10.6814
▁trace	-10.6825
▁Cub	-10.6832
▁premiere	-10.685
boy	-10.6852
air	-10.6853
ef	-10.6865
▁understanding	-10.6866
▁musicians	-10.6869
▁i	-10.687
inches	-10.6871
zac	-10.6876
▁r	-10.6878
▁solution	-10.6883
▁separat	-10.6884
▁shop	-10.6887
▁minim	-10.6894
▁waters	-10.6896
▁implement	-10.6903
▁Journal	-10.6906
▁inhabit	-10.6906
▁Eagle	-10.6907
▁Mexican	-10.6907
▁Saturday	-10.6907
▁Ustaš	-10.6907
▁behavior	-10.6907
▁manuscript	-10.6907
▁skull	-10.6907
▁giant	-10.6907
▁huge	-10.6907
▁DAG	-10.6908
▁Maggi	-10.6908
▁elevation	-10.6911
▁Who	-10.6912
▁heads	-10.6912
▁aggressive	-10.6913
▁infrastructur	-10.6914
▁northward	-10.6914
▁Grad	-10.6915
▁impression	-10.6919
▁Bass	-10.6928
ago	-10.6929
▁biographer	-10.695
▁spell	-10.695
▁insist	-10.6953
▁musician	-10.6965
▁Sports	-10.6967
▁79	-10.6974
ets	-10.6975
DS	-10.6985
▁blocks	-10.7003
▁exten	-10.7009
oit	-10.7011
▁speaker	-10.7017
▁par	-10.7018
▁carv	-10.7019
cha	-10.702
stock	-10.702
▁Kell	-10.7021
BC	-10.7022
▁Ko	-10.7023
▁collapse	-10.7027
▁Fire	-10.7042
▁Chi	-10.7046
▁pine	-10.705
▁Ti	-10.7052
▁bann	-10.7058
▁modifi	-10.7071
▁dinosaur	-10.7071
▁librar	-10.7071
▁embark	-10.7071
▁tribute	-10.7071
▁Blood	-10.7071
▁Parvat	-10.7071
▁Richmond	-10.7071
▁creek	-10.7071
▁initiat	-10.7072
▁Tiger	-10.7072
▁brand	-10.7072
▁Barker	-10.7073
▁slave	-10.7075
▁reinforcement	-10.7076
▁annually	-10.7077
aven	-10.7078
huset	-10.708
▁88	-10.7081
▁useful	-10.7086
▁Place	-10.7088
▁continuous	-10.7088
▁commandment	-10.7091
val	-10.7096
▁mode	-10.7097
▁USD	-10.7102
▁Patric	-10.7102
▁Ray	-10.7104
▁willing	-10.7105
▁dad	-10.7107
▁recognis	-10.7107
ken	-10.7121
▁br	-10.713
▁pit	-10.7136
▁Bat	-10.7139
▁premier	-10.7141
▁Less	-10.7147
▁sunk	-10.7149
▁pen	-10.715
▁Tale	-10.7166
ario	-10.7168
▁Ge	-10.7168
▁XI	-10.7173
▁Face	-10.7177
▁Abb	-10.7181
▁remove	-10.7182
▁tax	-10.7185
ug	-10.7186
▁earning	-10.7187
ock	-10.7193
▁lake	-10.7209
like	-10.723
▁disappear	-10.7237
▁architect	-10.7237
▁differ	-10.7237
▁Portugal	-10.7238
▁absorb	-10.7238
▁helicopter	-10.7238
▁jackrabbit	-10.7238
▁Federal	-10.7238
▁Ministr	-10.7238
▁shelter	-10.7238
▁Kannad	-10.7238
▁accurate	-10.7238
▁absolute	-10.7239
▁Silver	-10.7239
▁Hokie	-10.7239
▁definition	-10.724
▁slope	-10.724
▁kingdom	-10.724
▁Township	-10.724
▁Nazi	-10.7242
▁Norway	-10.7242
▁CBS	-10.7244
▁1928	-10.7246
▁cancer	-10.725
▁Territor	-10.725
▁requirement	-10.7251
▁sacr	-10.7253
▁substitute	-10.7257
ni	-10.7258
▁artificial	-10.7262
▁expression	-10.7265
▁destructi	-10.727
▁emergenc	-10.7275
▁challeng	-10.7277
Hg	-10.7287
▁sale	-10.7292
ttle	-10.7292
▁altar	-10.7292
cr	-10.7297
erial	-10.73
▁drums	-10.7301
▁140	-10.7314
▁farmer	-10.7315
▁struggl	-10.7317
▁Sil	-10.732
▁Historic	-10.7321
end	-10.7325
▁Sb	-10.733
ulu	-10.7336
aware	-10.7337
▁merg	-10.7357
▁74	-10.7361
▁philosoph	-10.7363
▁Swi	-10.7366
▁convention	-10.7368
▁weigh	-10.7381
▁covering	-10.7382
win	-10.7391
▁impossibl	-10.7394
▁melod	-10.7395
▁82	-10.7402
▁ethnic	-10.7407
▁phrase	-10.7407
▁principle	-10.7407
▁device	-10.7407
▁substance	-10.7407
▁Cecil	-10.7407
▁Stewart	-10.7407
▁Nebr	-10.7407
▁Baker	-10.7408
▁shrine	-10.7408
▁prize	-10.7408
▁retirement	-10.7409
▁Wright	-10.7409
▁ticket	-10.7409
▁Senator	-10.741
▁Eaton	-10.741
▁Minor	-10.741
▁collaboration	-10.7412
▁Police	-10.7413
▁Death	-10.7414
▁08	-10.7414
▁vice	-10.7415
▁slide	-10.7416
▁dense	-10.7417
▁poly	-10.7418
▁1927	-10.7418
▁Charm	-10.7418
▁coordinat	-10.7423
ja	-10.7428
▁Commando	-10.7435
▁preced	-10.7436
▁Detr	-10.7441
▁Pat	-10.7442
▁Khand	-10.7443
▁vertical	-10.7444
▁Patty	-10.7446
▁Angl	-10.7447
▁memorial	-10.7451
▁Kir	-10.7453
▁elaborate	-10.7457
▁Allen	-10.7466
▁excavation	-10.7467
▁lift	-10.7467
▁partner	-10.7478
ansas	-10.7482
▁span	-10.7483
▁Dean	-10.7484
ona	-10.7486
▁moon	-10.7492
non	-10.7499
AF	-10.7502
▁urg	-10.7513
rt	-10.7517
▁Philip	-10.7523
CC	-10.7524
tor	-10.7528
▁warn	-10.7545
attle	-10.7547
mouth	-10.7547
ction	-10.7555
mann	-10.756
▁spin	-10.7561
▁Stan	-10.7562
▁turns	-10.7569
▁Secret	-10.7572
▁follower	-10.7572
▁accomplish	-10.7573
BN	-10.7574
▁transform	-10.7576
▁Guard	-10.7579
▁buoy	-10.758
▁empire	-10.758
▁occupation	-10.758
▁nickname	-10.758
RELI	-10.758
▁Hudson	-10.758
▁Yankee	-10.758
▁1933	-10.758
▁garrison	-10.758
▁Express	-10.758
▁Gilbert	-10.758
▁Celtic	-10.758
▁Perfect	-10.758
lia	-10.7581
▁Midge	-10.7581
▁Room	-10.7581
▁dangerous	-10.7581
▁prime	-10.7582
▁restoration	-10.7584
▁westward	-10.7585
▁inhabitant	-10.7585
▁Hawaiian	-10.7585
▁1860	-10.7585
▁Weir	-10.7586
▁Haitian	-10.7588
▁translation	-10.7588
▁authoriz	-10.7588
▁Justic	-10.7589
anagement	-10.759
▁burning	-10.7592
▁Season	-10.7595
▁manage	-10.7598
▁marry	-10.7598
▁mental	-10.7599
▁code	-10.76
▁Miller	-10.7602
▁manufactur	-10.7609
▁Nad	-10.7615
▁stoo	-10.7617
▁Soon	-10.7621
▁introduce	-10.7622
▁Tim	-10.7625
▁Victorian	-10.7629
▁ago	-10.7632
▁ruler	-10.7632
▁lover	-10.7637
ronto	-10.7642
ography	-10.7651
▁controller	-10.7656
▁ride	-10.766
06	-10.7661
▁Last	-10.7662
▁Dail	-10.7668
▁dy	-10.767
▁Sand	-10.7676
▁Race	-10.7684
han	-10.7684
▁statue	-10.7686
ugu	-10.7697
▁07	-10.7697
▁crosse	-10.7723
▁complain	-10.7731
▁notabl	-10.7734
▁Mer	-10.7739
ric	-10.7746
▁situat	-10.7747
▁intersect	-10.7748
▁revis	-10.7748
▁Treat	-10.7752
▁Mozambi	-10.7755
▁suspend	-10.7755
▁conservation	-10.7755
▁virtual	-10.7755
▁Wiśniowiecki	-10.7755
▁Davis	-10.7755
▁vast	-10.7756
▁Chapel	-10.7757
▁artwork	-10.7757
▁politician	-10.7757
▁IS	-10.7759
▁cabin	-10.7759
▁1957	-10.7759
▁doctrine	-10.776
▁elder	-10.776
▁achievement	-10.7762
▁attitude	-10.7763
▁sharp	-10.7767
sky	-10.7769
▁05	-10.7769
▁advisor	-10.7777
▁choose	-10.7777
▁check	-10.7779
▁Class	-10.7783
▁Bow	-10.7785
▁Canal	-10.7789
▁Thu	-10.7796
▁93	-10.7799
▁circulat	-10.7812
rey	-10.7812
mbar	-10.7816
▁powers	-10.7816
▁Sub	-10.782
▁Gi	-10.783
▁relation	-10.7834
▁fin	-10.7841
▁Jr	-10.7846
nie	-10.7854
ow	-10.7858
▁topp	-10.7861
▁Fin	-10.787
▁89	-10.788
▁fate	-10.7885
chess	-10.7886
Pa	-10.7896
▁Bath	-10.7899
▁resum	-10.7901
▁900	-10.7906
▁orchestra	-10.7908
gi	-10.7908
▁Russia	-10.7913
ntil	-10.7918
ategor	-10.7932
▁danger	-10.7932
▁Front	-10.7933
▁Dar	-10.7933
▁Confession	-10.7934
▁Valkyria	-10.7934
▁frigate	-10.7934
▁mammal	-10.7934
▁tissue	-10.7934
▁striking	-10.7934
▁ruling	-10.7934
▁Network	-10.7934
▁Christoph	-10.7934
▁Organization	-10.7934
▁Oscar	-10.7934
▁Scul	-10.7934
▁Chaga	-10.7934
▁halt	-10.7934
▁explore	-10.7934
▁Memorial	-10.7934
▁Railway	-10.7935
▁export	-10.7935
Malle	-10.7935
▁anekānta	-10.7935
throne	-10.7938
ole	-10.7938
▁infection	-10.794
▁saint	-10.794
▁1850	-10.7944
▁Kev	-10.7951
▁measurement	-10.7951
▁Hind	-10.796
▁burial	-10.7969
▁Dave	-10.7969
▁punt	-10.7973
▁Warren	-10.7978
▁Much	-10.7979
▁Barry	-10.7981
▁stock	-10.7981
ene	-10.7983
ourney	-10.7987
▁guid	-10.7988
▁Ru	-10.7993
ield	-10.7998
▁Carr	-10.8
▁sight	-10.8007
▁Jonath	-10.8013
rine	-10.8013
▁horn	-10.8017
ut	-10.8024
▁Au	-10.8025
▁radi	-10.8036
▁trapp	-10.8053
ick	-10.8054
▁pale	-10.8054
ino	-10.8057
▁Jun	-10.8069
▁Marian	-10.8074
▁realiz	-10.8089
▁Wall	-10.8091
DOT	-10.8113
▁motor	-10.8114
▁Arsenal	-10.8116
▁Mathew	-10.8116
▁dwarf	-10.8116
▁imprison	-10.8116
▁pistol	-10.8116
▁reservoir	-10.8116
▁Magdalen	-10.8116
▁error	-10.8116
▁magnitude	-10.8116
▁depart	-10.8116
▁railroad	-10.8116
adheer	-10.8116
▁Witch	-10.8117
▁classification	-10.8118
▁Garden	-10.8118
▁Trek	-10.8118
▁garden	-10.8118
▁exercise	-10.8119
▁insect	-10.8121
night	-10.8121
▁1926	-10.8125
ceratops	-10.8125
▁playoff	-10.8128
▁dynamic	-10.8129
▁Well	-10.813
▁ballad	-10.8136
▁representation	-10.8141
▁readers	-10.8143
▁Hope	-10.8144
▁genetic	-10.8145
▁appropriate	-10.8154
▁phone	-10.8157
ck	-10.8159
▁imp	-10.8165
▁Such	-10.8166
▁Son	-10.8168
▁Kong	-10.8176
di	-10.8177
▁tool	-10.8183
▁sung	-10.8184
nam	-10.8188
ough	-10.819
▁lock	-10.8195
▁municipal	-10.8206
▁Clarks	-10.8206
▁crops	-10.8219
▁courts	-10.822
roy	-10.8222
▁ideal	-10.8224
▁Galle	-10.8232
49	-10.8234
▁Tru	-10.8247
▁emotion	-10.8253
▁190	-10.8258
▁Imagin	-10.8269
chi	-10.8277
▁su	-10.8279
▁wings	-10.8283
ingham	-10.8289
▁Christin	-10.8291
owa	-10.8294
▁devote	-10.8297
▁Brazil	-10.8299
▁puppet	-10.8301
▁doctor	-10.8301
▁Wagner	-10.8301
▁profile	-10.8301
▁smooth	-10.8301
▁identify	-10.8301
▁Niels	-10.8301
▁anthem	-10.8301
▁easy	-10.8301
▁Dakota	-10.8301
▁shock	-10.8301
▁Corporation	-10.8301
▁architecture	-10.8302
▁Stud	-10.8303
▁teammate	-10.8303
▁1905	-10.8303
▁gap	-10.8303
▁reduction	-10.8303
▁cargo	-10.8305
▁sink	-10.8305
▁Eight	-10.8307
▁sp	-10.8309
▁cup	-10.8309
▁Priest	-10.831
▁polic	-10.8311
▁Nex	-10.8312
▁cancell	-10.8314
▁sad	-10.8315
▁Wild	-10.8317
ore	-10.8327
▁Bible	-10.8328
▁creative	-10.8328
18	-10.8329
▁μ	-10.833
▁cr	-10.8333
▁pace	-10.8335
▁Oh	-10.8336
clusion	-10.8337
▁Rich	-10.8338
▁Pry	-10.8339
▁RAA	-10.834
▁alleged	-10.834
▁Jan	-10.8342
pur	-10.8347
▁Pra	-10.8347
ssex	-10.8349
▁ha	-10.8351
kh	-10.8353
▁poll	-10.8355
sler	-10.8357
03	-10.8361
38	-10.8363
nell	-10.8363
▁Mid	-10.8365
▁186	-10.8365
▁Roy	-10.8365
▁manga	-10.8365
▁thereafter	-10.8366
▁Ann	-10.8367
SA	-10.8371
uk	-10.8374
▁translat	-10.8374
our	-10.8378
▁Pole	-10.8385
▁stick	-10.8386
▁Ber	-10.8399
▁Wing	-10.8413
OC	-10.8416
▁cu	-10.8418
▁bomb	-10.842
▁pack	-10.8427
wo	-10.8434
aska	-10.8438
▁Lesl	-10.8439
▁promise	-10.8439
dale	-10.8446
▁cris	-10.845
▁constitution	-10.8454
▁Greg	-10.8465
▁Christi	-10.8466
▁Mi	-10.8467
gram	-10.8469
▁marking	-10.8474
▁Madi	-10.8474
▁onward	-10.8474
▁Branc	-10.8476
63	-10.8477
▁Nel	-10.8477
▁ensu	-10.8478
PA	-10.8478
▁Ten	-10.8479
inster	-10.8483
ã	-10.8489
“	-10.8489
▁Catechism	-10.8489
▁Chevalier	-10.8489
▁Herzegovin	-10.8489
▁Paralympic	-10.8489
▁martial	-10.8489
▁transmission	-10.8489
▁afternoon	-10.8489
▁Emmy	-10.849
▁concession	-10.849
▁exploit	-10.849
▁illegal	-10.849
▁Iraq	-10.849
▁decay	-10.849
▁Qedarite	-10.849
mtav	-10.849
▁Beeton	-10.8491
▁Viet	-10.8491
▁outbreak	-10.8492
▁joke	-10.8493
▁distinctive	-10.8493
utstanding	-10.8493
▁Djo	-10.8496
enjam	-10.8496
ea	-10.8498
▁structural	-10.85
▁upset	-10.8504
▁bind	-10.8505
tanley	-10.8508
▁appointment	-10.8509
▁Lower	-10.8509
▁approval	-10.8512
▁triple	-10.8512
16	-10.8523
▁Romanian	-10.8523
▁68	-10.8526
▁Kurt	-10.853
▁presentation	-10.853
▁Bang	-10.8538
ennesse	-10.8543
27	-10.8553
▁inde	-10.8555
▁Lover	-10.8559
saw	-10.8559
▁09	-10.8561
▁Ham	-10.8563
▁Xeno	-10.8566
▁Thing	-10.8573
amount	-10.8587
▁drum	-10.8605
ASA	-10.8616
ibi	-10.862
60	-10.8623
▁bow	-10.8624
▁Chas	-10.8626
sch	-10.8641
▁Cook	-10.8642
cute	-10.865
▁Dun	-10.8652
▁Here	-10.8662
▁58	-10.8663
▁Speci	-10.8666
bound	-10.8667
cake	-10.8673
▁prohibit	-10.8674
▁disrupt	-10.8674
▁Virgin	-10.8674
▁Cong	-10.8677
▁mate	-10.8678
▁cinema	-10.8681
▁descend	-10.8681
▁attribute	-10.8681
▁athletic	-10.8682
▁consequence	-10.8682
▁uncertain	-10.8682
▁violent	-10.8682
▁Murray	-10.8682
▁intellectual	-10.8682
▁platoon	-10.8682
▁tackle	-10.8682
▁persist	-10.8682
▁Houston	-10.8682
▁Madrid	-10.8682
▁Alfred	-10.8682
▁Section	-10.8682
▁costume	-10.8684
▁animation	-10.8688
▁Bush	-10.869
▁Building	-10.8692
box	-10.8693
▁Look	-10.8693
▁Kirk	-10.8696
▁prepare	-10.8699
▁Tracy	-10.8699
▁73	-10.87
▁1925	-10.8701
▁Carre	-10.8704
▁import	-10.8715
▁Tho	-10.8715
venge	-10.8717
▁VII	-10.8728
omura	-10.8731
▁Palm	-10.8735
▁toll	-10.8739
▁plus	-10.874
▁Work	-10.8744
▁NS	-10.8745
▁mayor	-10.8745
▁Bre	-10.8759
esi	-10.877
▁Case	-10.877
▁fl	-10.8775
▁Ush	-10.8777
▁tru	-10.8793
oid	-10.8796
37	-10.8796
uff	-10.8801
▁photo	-10.8826
▁Artist	-10.8826
▁Sheff	-10.8829
▁considerabl	-10.8834
▁observe	-10.884
▁tin	-10.8841
▁CE	-10.8842
▁Chen	-10.8848
▁Independen	-10.8854
cut	-10.8862
▁fift	-10.8865
▁Fall	-10.8868
▁da	-10.8869
power	-10.887
▁Cro	-10.8874
▁custom	-10.8876
▁Adel	-10.8877
▁Eshmun	-10.8878
▁demolish	-10.8878
▁satellite	-10.8878
▁Ghost	-10.8878
▁Natural	-10.8878
▁suicide	-10.8878
▁Adventure	-10.8878
▁disband	-10.8878
▁theatrical	-10.8878
▁Phil	-10.8878
▁barrier	-10.8878
▁leukemia	-10.8879
▁dozen	-10.8879
▁Hawaii	-10.8879
▁quarterback	-10.888
▁Conservation	-10.888
▁Village	-10.8881
▁Peach	-10.8881
▁gust	-10.8882
▁interpretation	-10.8883
▁engagement	-10.8884
▁1934	-10.8885
▁assassination	-10.8889
▁Walker	-10.889
▁complicat	-10.889
▁submitt	-10.8891
▁ear	-10.8897
02	-10.8903
48	-10.8907
▁Pula	-10.8913
▁Berlin	-10.8914
▁asteroid	-10.8918
har	-10.8923
▁pounder	-10.8924
▁67	-10.8925
▁bones	-10.893
▁artistic	-10.8932
▁sure	-10.8934
▁pointed	-10.8935
▁prepar	-10.8938
▁pain	-10.8938
ue	-10.894
▁Cap	-10.8948
rald	-10.8949
▁164	-10.8957
light	-10.8963
▁Are	-10.8973
55	-10.8975
▁Jacob	-10.8984
▁Intern	-10.8985
▁myth	-10.8988
▁Evans	-10.899
▁anger	-10.8991
▁Brand	-10.9001
▁min	-10.9007
▁Hard	-10.9009
▁proportion	-10.9013
▁tenth	-10.9014
▁Main	-10.902
▁rebuil	-10.9034
usiness	-10.9034
wich	-10.9042
▁spur	-10.9055
▁Wicca	-10.9056
▁fitt	-10.9057
q	-10.9059
▁Albert	-10.9064
ayne	-10.9067
ić	-10.9069
▁journal	-10.9069
▁Rhy	-10.907
▁convict	-10.907
▁Ze	-10.9075
▁Sorraia	-10.9078
▁Supreme	-10.9078
▁drove	-10.9078
▁junior	-10.9078
▁uniform	-10.9078
▁culminat	-10.9078
▁Caesar	-10.9078
▁Vulcan	-10.9078
▁valid	-10.9078
▁Labour	-10.9078
▁cousin	-10.9078
▁battlecruiser	-10.9078
▁biological	-10.9078
▁loose	-10.9078
▁Leigh	-10.9078
▁Again	-10.9078
▁pleasure	-10.9079
▁destination	-10.908
▁1908	-10.908
▁lawyer	-10.908
▁armour	-10.908
▁Eventual	-10.908
▁salt	-10.9081
▁1870	-10.9083
▁revenue	-10.9084
ax	-10.9084
▁qualifi	-10.9084
▁Omar	-10.9085
▁1000	-10.9088
▁diagnos	-10.9089
▁Penn	-10.9091
▁realize	-10.9094
▁Flower	-10.9096
cu	-10.9097
RV	-10.9098
gar	-10.9098
▁vi	-10.91
▁Bus	-10.9101
UE	-10.9101
▁Cress	-10.9102
▁personality	-10.9104
utum	-10.9106
tter	-10.9107
▁gre	-10.9109
dominant	-10.911
▁Carmel	-10.9114
▁Kim	-10.9115
▁Trail	-10.9115
regon	-10.9116
▁Edge	-10.9116
▁182	-10.9116
▁withdrawal	-10.9119
▁Lane	-10.9119
▁Den	-10.9128
▁revolution	-10.9129
▁Kei	-10.9129
▁Bel	-10.9129
▁collaps	-10.9132
▁manufacturer	-10.9132
▁log	-10.9137
▁Ace	-10.9138
bai	-10.9139
▁restore	-10.9148
▁carrie	-10.9152
▁Asian	-10.9155
▁Anne	-10.9156
▁Westm	-10.9172
▁02	-10.918
▁Abbe	-10.9182
▁Va	-10.9186
▁donat	-10.919
▁Farm	-10.9201
▁cat	-10.9202
tta	-10.9204
▁Defens	-10.9209
▁excavations	-10.9214
anyon	-10.9215
▁invad	-10.9215
▁associate	-10.9216
▁Gal	-10.9223
some	-10.9228
raid	-10.9233
▁recognize	-10.9234
▁87	-10.9243
▁Fo	-10.9243
active	-10.9249
▁03	-10.9255
▁illustrat	-10.9256
▁knee	-10.9257
▁arch	-10.9259
▁owners	-10.9259
▁Korea	-10.9261
▁snow	-10.9261
▁Ros	-10.9266
ept	-10.9266
▁06	-10.9268
▁91	-10.9275
▁condemn	-10.9278
▁Belgi	-10.9279
▁Char	-10.9281
▁Lincoln	-10.9282
▁cluster	-10.9282
▁devotion	-10.9282
▁fossil	-10.9282
▁kilometer	-10.9282
▁strict	-10.9282
▁supplement	-10.9282
▁Survey	-10.9282
▁obvious	-10.9282
▁armament	-10.9282
▁float	-10.9282
▁compliment	-10.9283
▁hull	-10.9283
▁trend	-10.9283
▁essay	-10.9283
▁Shel	-10.9283
▁Ernest	-10.9284
▁closure	-10.9284
▁yield	-10.9284
NC	-10.9285
▁Near	-10.9285
of	-10.9285
▁violation	-10.9285
▁negotiation	-10.9286
▁Hobb	-10.9286
▁evolv	-10.9286
▁rotation	-10.9287
▁Honor	-10.9289
▁Clint	-10.9289
▁1923	-10.9289
▁Harrison	-10.929
▁Hi	-10.929
▁fame	-10.9292
▁Rick	-10.9292
ois	-10.9293
▁mole	-10.9293
▁trust	-10.9295
justice	-10.9296
▁noble	-10.9297
▁Regist	-10.9299
▁Actor	-10.93
▁updat	-10.9302
▁sang	-10.9307
▁strategic	-10.931
▁Lamb	-10.932
▁Kati	-10.9323
▁beam	-10.9325
ign	-10.9327
▁Mon	-10.9332
▁Sal	-10.9333
▁prospect	-10.9339
ersonnel	-10.934
▁nave	-10.9343
▁tape	-10.9348
hua	-10.9352
▁Poh	-10.9353
▁99	-10.9358
▁incorporate	-10.9361
▁Vera	-10.9362
▁Hell	-10.9363
▁Ki	-10.9365
ott	-10.9368
▁pin	-10.9375
wick	-10.9376
▁Argentine	-10.9378
▁pole	-10.9379
▁encourage	-10.9381
▁investigat	-10.9382
▁Countr	-10.9383
▁Bald	-10.9386
▁bore	-10.9393
▁Mrs	-10.9397
zed	-10.9398
▁Plan	-10.9405
▁Ida	-10.941
anna	-10.9417
mu	-10.9423
▁Fur	-10.9425
▁Ok	-10.9435
ncy	-10.9438
hr	-10.9439
donna	-10.9444
▁Cre	-10.9446
▁citizens	-10.9447
cher	-10.945
orne	-10.945
▁taste	-10.9451
att	-10.946
rose	-10.946
▁tooth	-10.9462
▁environmental	-10.9463
▁roots	-10.9468
▁celebrate	-10.9472
uda	-10.9481
ments	-10.9483
▁chick	-10.9485
▁Gra	-10.9486
▁Brigg	-10.949
▁Singapore	-10.949
▁competitor	-10.949
▁deliberate	-10.949
▁parody	-10.949
▁stump	-10.949
▁universal	-10.949
▁Sanskrit	-10.949
▁merchant	-10.949
▁copy	-10.949
▁Chrono	-10.949
▁steal	-10.949
▁thirteen	-10.949
▁Ingre	-10.9491
▁Nettle	-10.9491
▁Machine	-10.9491
▁strain	-10.9491
▁Jardin	-10.9491
▁eighteen	-10.9491
▁Where	-10.9491
▁punishment	-10.9492
▁resolution	-10.9493
▁tension	-10.9493
▁regulation	-10.9493
▁carbon	-10.9493
▁clay	-10.9493
▁birthday	-10.9494
▁laborator	-10.9496
▁communist	-10.9496
nt	-10.9498
▁Prest	-10.9498
▁percentage	-10.9498
▁Campbell	-10.9499
▁execution	-10.9501
▁1830	-10.9502
▁766	-10.9503
▁Cater	-10.9503
▁exhibition	-10.9504
▁Classic	-10.9508
▁WASP	-10.951
▁Cor	-10.9511
▁assess	-10.9515
tz	-10.9515
▁seiz	-10.9518
▁NL	-10.952
▁Hans	-10.9524
▁Bennet	-10.9525
ake	-10.9527
▁divorce	-10.9529
90	-10.9529
lazer	-10.9531
▁surger	-10.9533
▁Pass	-10.9537
▁putt	-10.9539
▁Stop	-10.954
▁Raja	-10.954
▁rising	-10.9543
▁Toge	-10.955
av	-10.9569
idae	-10.9571
ella	-10.9578
▁angle	-10.9585
▁preserve	-10.9586
▁cur	-10.959
▁underst	-10.9601
▁Lost	-10.9606
bee	-10.9609
mobile	-10.9609
▁participate	-10.9612
▁Sony	-10.9612
mer	-10.9613
▁Form	-10.9622
▁Marshal	-10.9623
je	-10.9626
▁seal	-10.9642
sumption	-10.965
▁fil	-10.9656
▁advi	-10.966
live	-10.966
▁184	-10.9667
▁volunteer	-10.967
fort	-10.9674
▁Sio	-10.9677
▁Roberts	-10.9681
▁Digital	-10.9703
▁Matthew	-10.9703
▁archbishop	-10.9703
▁audition	-10.9703
▁qualify	-10.9703
▁suppress	-10.9703
▁umpire	-10.9703
▁shaft	-10.9703
▁architectural	-10.9703
▁Credit	-10.9703
▁Nevesinj	-10.9703
▁fault	-10.9703
▁console	-10.9703
▁semifinal	-10.9703
▁programming	-10.9703
▁Metro	-10.9704
▁fourteen	-10.9705
▁compilation	-10.9706
▁membrane	-10.9706
▁prett	-10.9707
▁Deep	-10.9708
▁Belgian	-10.9708
▁101	-10.9709
▁Observer	-10.9709
manita	-10.971
▁hook	-10.971
natural	-10.9713
▁celebration	-10.9714
▁ibis	-10.9714
▁medal	-10.9716
fa	-10.9716
▁Syria	-10.9717
▁debt	-10.9724
▁examin	-10.9725
▁reader	-10.9726
oli	-10.9728
▁upgrad	-10.9729
▁jur	-10.9731
▁Dw	-10.9731
▁USS	-10.9735
▁Zoo	-10.9736
▁Magic	-10.9739
▁margin	-10.9759
unt	-10.976
▁curve	-10.9764
▁runway	-10.9766
▁enabl	-10.9768
▁Jas	-10.9768
▁balance	-10.9772
▁boom	-10.9776
▁string	-10.9778
▁Berti	-10.9784
▁Rain	-10.9788
▁Ball	-10.9795
NL	-10.9798
▁fusion	-10.9798
▁86	-10.981
▁File	-10.9825
▁relations	-10.9827
rich	-10.983
▁ML	-10.9841
▁wishe	-10.9845
▁genera	-10.987
lar	-10.9873
▁DD	-10.9877
▁Antoni	-10.9884
Tu	-10.9884
▁logic	-10.9886
▁hearing	-10.9887
▁Kenne	-10.9888
35	-10.9888
▁Culle	-10.9893
▁Chan	-10.9893
26	-10.9894
▁Alex	-10.9894
▁Unit	-10.9901
▁twentie	-10.991
▁characteristic	-10.9911
aide	-10.9912
hu	-10.9918
▁neighbor	-10.992
▁Charlotte	-10.992
▁Dynast	-10.992
▁Headquarter	-10.992
▁Province	-10.992
▁Switzer	-10.992
▁evident	-10.992
▁harbour	-10.992
▁Dudley	-10.992
▁Wanderer	-10.992
▁dispatch	-10.992
▁explosive	-10.9921
▁Hampshire	-10.9921
▁venture	-10.9921
▁Stavan	-10.9921
▁Freak	-10.9921
▁Columbus	-10.9922
▁Upper	-10.9922
▁dubb	-10.9922
▁dispers	-10.9922
howitz	-10.9922
▁Palestinian	-10.9922
▁Seven	-10.9922
▁skeleton	-10.9923
▁weekend	-10.9924
▁impos	-10.9927
▁Tony	-10.9928
▁collective	-10.9929
▁Wu	-10.9931
▁1922	-10.9931
rat	-10.9935
▁Syd	-10.9939
▁recurr	-10.9939
▁investment	-10.9941
▁permitt	-10.9942
▁topic	-10.9943
▁Mother	-10.9946
ives	-10.9951
▁84	-10.9953
▁str	-10.9958
▁sleep	-10.9965
▁comprise	-10.9969
▁ignor	-10.9985
▁Francis	-10.9991
▁nav	-10.9995
▁Av	-10.9996
▁Bur	-11.0004
car	-11.0008
▁Im	-11.0016
▁Canning	-11.0026
▁Mars	-11.0028
▁Harr	-11.0028
▁Corp	-11.0042
▁mature	-11.0044
▁Chu	-11.0048
▁bombing	-11.0061
▁Ship	-11.0061
iya	-11.0064
▁grave	-11.0066
aster	-11.0073
ris	-11.0074
ran	-11.0077
▁scar	-11.0078
▁bare	-11.0084
▁admir	-11.0087
▁Champions	-11.0088
▁170	-11.0093
▁Carlo	-11.0093
▁minorit	-11.0096
▁Euro	-11.01
▁whil	-11.0106
▁97	-11.0106
▁der	-11.0106
▁hole	-11.0109
▁Off	-11.011
▁ode	-11.0114
▁para	-11.0117
▁Ian	-11.0118
▁Shell	-11.0122
eus	-11.0123
▁confront	-11.0139
▁fundamental	-11.0141
₹	-11.0143
▁administrative	-11.0143
▁devastat	-11.0143
▁pioneer	-11.0143
▁regain	-11.0143
▁Interchang	-11.0143
▁advertisement	-11.0143
▁Librar	-11.0143
▁McCart	-11.0143
▁jaw	-11.0143
▁Indonesia	-11.0143
▁Mitchell	-11.0143
▁Antimon	-11.0143
▁enlist	-11.0143
▁Stuar	-11.0143
▁queen	-11.0143
▁consent	-11.0143
▁neighborhood	-11.0143
▁Hungarian	-11.0143
▁Tonin	-11.0144
▁circuit	-11.0144
▁predominant	-11.0144
▁disturbance	-11.0144
mm	-11.0144
▁conversion	-11.0144
▁Collection	-11.0145
▁Compani	-11.0146
▁reactor	-11.0147
▁1861	-11.0147
▁densit	-11.0148
▁displac	-11.0148
▁Number	-11.0149
▁Liao	-11.0149
▁Hanna	-11.0149
▁Come	-11.015
▁360	-11.0151
▁Helen	-11.0151
Grom	-11.0151
▁stress	-11.0151
▁Sora	-11.0154
▁acyclic	-11.0155
racing	-11.0155
▁restriction	-11.0155
▁Sina	-11.0156
tenance	-11.0161
soft	-11.0163
▁successive	-11.0164
▁Alberta	-11.0164
▁stella	-11.017
▁Site	-11.017
▁wheel	-11.0174
▁funn	-11.0175
▁jet	-11.0178
▁magnetic	-11.0186
▁fo	-11.0188
▁synonym	-11.0189
▁Movie	-11.0193
▁starter	-11.0199
▁Jer	-11.0202
▁reli	-11.0214
och	-11.0222
▁finger	-11.0225
▁Blu	-11.0226
▁permissi	-11.0228
tri	-11.023
ps	-11.0231
▁le	-11.0244
▁Cart	-11.0246
▁69	-11.0247
▁disappoint	-11.0247
▁vegetati	-11.0252
▁Bird	-11.026
▁bowler	-11.0267
mus	-11.028
▁ordering	-11.0283
▁steps	-11.0287
▁realis	-11.0288
▁Kenn	-11.0291
▁sq	-11.0303
22	-11.0322
▁decrease	-11.0328
ological	-11.0345
▁significan	-11.0346
▁Sul	-11.0348
▁animat	-11.0357
▁demo	-11.0359
▁Las	-11.0367
▁Description	-11.037
▁inherit	-11.037
▁occupy	-11.037
▁terrain	-11.037
▁gravit	-11.037
▁Arkansas	-11.037
▁Yellow	-11.037
▁hydrogen	-11.037
▁loop	-11.037
▁chord	-11.037
▁Hoover	-11.037
▁Gaelic	-11.0371
▁Twenty	-11.0371
▁pursuit	-11.0371
▁apply	-11.0371
▁Health	-11.0372
▁Vander	-11.0372
▁overlook	-11.0372
▁Dahl	-11.0373
▁350	-11.0373
▁Naza	-11.0373
▁illness	-11.0374
▁Scout	-11.0374
▁Personal	-11.0375
▁Corbet	-11.0375
▁opin	-11.0375
▁climb	-11.0376
▁tide	-11.0376
▁Everton	-11.0378
▁Monke	-11.0379
▁201	-11.038
▁lifetime	-11.0381
▁Data	-11.0381
thodon	-11.0381
▁Oak	-11.0382
▁revival	-11.0386
vil	-11.0386
▁Food	-11.0386
▁isotope	-11.0388
▁truck	-11.039
ven	-11.0391
ator	-11.0393
▁Rat	-11.0398
oz	-11.0407
▁astronomer	-11.0411
▁occasion	-11.0412
▁demon	-11.0416
CW	-11.042
mon	-11.0423
▁Heri	-11.0426
ello	-11.0426
layer	-11.0427
▁accommodate	-11.0432
▁shear	-11.0433
▁Wave	-11.0434
▁Nat	-11.0434
▁Berk	-11.0439
▁Khan	-11.044
▁laws	-11.0445
▁refuse	-11.0463
▁suggestion	-11.0463
▁155	-11.0464
▁favorabl	-11.0469
gate	-11.0477
▁render	-11.0482
oyle	-11.0483
▁Bad	-11.0485
▁mis	-11.0486
▁Qu	-11.0488
▁Vic	-11.05
▁Cyr	-11.0504
nton	-11.0523
▁Sc	-11.0526
▁Mil	-11.0545
die	-11.0546
▁concentrat	-11.0554
rah	-11.0556
▁spaces	-11.0568
▁Mader	-11.0569
▁Kid	-11.0571
▁Centre	-11.0572
▁mat	-11.0585
▁Joy	-11.0586
▁bio	-11.059
WF	-11.0592
▁Hawai	-11.0593
▁Gac	-11.0593
▁del	-11.0596
aceae	-11.0597
▁cotton	-11.0601
▁Norw	-11.0602
▁Derfflinger	-11.0602
▁Female	-11.0602
▁Monument	-11.0602
▁Palmyrene	-11.0602
▁delegate	-11.0602
▁dimension	-11.0602
▁oxygen	-11.0602
▁widow	-11.0602
▁flesh	-11.0602
▁Utah	-11.0603
▁grandfather	-11.0603
▁Cricket	-11.0603
▁competitive	-11.0603
▁Wellington	-11.0603
▁molecular	-11.0603
▁exclud	-11.0603
▁knight	-11.0603
▁unclear	-11.0603
▁evolution	-11.0604
▁dislike	-11.0604
▁Broadwa	-11.0604
▁announcement	-11.0604
▁Watson	-11.0604
▁partnership	-11.0604
▁examination	-11.0606
▁Crusader	-11.0607
▁interception	-11.0608
▁demonstration	-11.0615
▁1840	-11.0615
▁Tide	-11.0616
▁enzyme	-11.0618
▁Austrian	-11.0621
Z	-11.0628
ipp	-11.0631
dream	-11.0632
aya	-11.0636
▁interact	-11.0642
▁Dog	-11.0642
▁dual	-11.0644
▁abuse	-11.0647
▁mineral	-11.0647
bridge	-11.0648
▁Eve	-11.0648
▁sees	-11.0662
▁roadway	-11.0662
▁react	-11.0667
trell	-11.0667
▁continental	-11.0669
▁Steel	-11.0679
▁Gill	-11.068
ura	-11.0681
▁southeaster	-11.0684
▁enforce	-11.0687
▁painter	-11.0688
hor	-11.0697
▁sl	-11.0707
▁Wis	-11.0712
▁Ban	-11.0713
▁failing	-11.0714
▁Communit	-11.0728
▁reviv	-11.0736
fast	-11.0746
▁Historical	-11.0761
▁Je	-11.077
▁net	-11.0772
▁Wind	-11.0783
rum	-11.0783
▁Galli	-11.0784
▁Ku	-11.079
▁dies	-11.0791
Xe	-11.0791
70	-11.0796
▁opt	-11.0802
▁92	-11.0804
▁rep	-11.0809
▁78	-11.0816
▁bat	-11.0822
▁Jerem	-11.0822
▁Commons	-11.0823
▁cancel	-11.0823
▁Yu	-11.0824
▁congregation	-11.083
anime	-11.0834
▁hang	-11.0837
▁shut	-11.0837
▁dri	-11.0837
▁pet	-11.0839
▁administer	-11.0841
▁irregular	-11.0841
▁Bradstreet	-11.0841
▁Eccleston	-11.0841
▁Tokyo	-11.0841
▁abroad	-11.0841
▁ambassador	-11.0841
▁peninsula	-11.0841
▁reopen	-11.0841
▁Federation	-11.0841
▁Vega	-11.0841
▁distant	-11.0841
▁Protein	-11.0841
▁Cleve	-11.0841
▁anchor	-11.0841
▁liquid	-11.0841
▁Coldrum	-11.0841
▁Return	-11.0841
▁garner	-11.0841
▁nineteen	-11.0841
reutz	-11.0841
▁galler	-11.0841
▁seventeen	-11.0841
▁Donald	-11.0841
▁landscape	-11.0842
▁synagogue	-11.0842
▁songwriter	-11.0842
▁symptom	-11.0842
▁Baseball	-11.0842
▁dependent	-11.0842
▁Batter	-11.0843
▁myster	-11.0844
ightingale	-11.0845
▁Shim	-11.0847
▁creature	-11.0848
▁Bernard	-11.0849
▁Grace	-11.085
▁instruction	-11.0851
▁Halo	-11.0851
▁Comic	-11.0851
▁Rhodesian	-11.0852
▁Mix	-11.0853
▁beaut	-11.0855
▁sack	-11.0856
▁patient	-11.0857
alsa	-11.0858
▁Ett	-11.0859
book	-11.0861
▁clothes	-11.0861
▁timber	-11.0861
▁woodland	-11.0864
▁batt	-11.0865
▁steadi	-11.0867
▁complaint	-11.0873
▁verte	-11.0875
aterfall	-11.0876
▁observator	-11.0877
cock	-11.0877
▁guy	-11.0878
▁decreas	-11.0885
▁Ground	-11.0893
▁golden	-11.0904
▁Male	-11.091
▁bomber	-11.0914
▁Moon	-11.0914
hill	-11.0916
▁root	-11.0919
▁Rand	-11.0921
▁au	-11.0924
Ch	-11.0925
▁Gil	-11.0931
ute	-11.0934
▁beating	-11.0935
▁Mum	-11.0936
▁pose	-11.0937
ace	-11.0948
▁Tar	-11.0955
solution	-11.0957
▁platin	-11.0963
▁Lad	-11.0965
▁Dai	-11.0969
▁Nova	-11.0976
▁bull	-11.0977
ä	-11.0982
▁Angelo	-11.0984
▁alternate	-11.0992
oming	-11.1
▁reinforc	-11.1001
iri	-11.1008
▁Born	-11.1018
▁177	-11.1018
▁Maya	-11.1023
▁acknowledg	-11.1025
▁finale	-11.1027
▁explor	-11.1037
place	-11.1038
ec	-11.104
▁probab	-11.1041
▁bi	-11.1043
▁spott	-11.1044
▁Sk	-11.1053
▁curv	-11.1053
enous	-11.1054
▁Nine	-11.1061
▁Neil	-11.1062
▁Met	-11.1062
nick	-11.1063
▁steep	-11.1068
▁sentiment	-11.1068
▁Care	-11.1079
▁belonging	-11.1079
▁duet	-11.1081
▁Baptist	-11.1084
▁Margaret	-11.1084
▁Rothschild	-11.1084
▁Warrior	-11.1084
▁diamond	-11.1084
▁inflict	-11.1084
▁obstacle	-11.1084
▁propagand	-11.1084
▁redesign	-11.1084
▁snake	-11.1084
▁hamlet	-11.1084
▁Pakistan	-11.1084
▁Heavy	-11.1085
▁vault	-11.1085
▁Interstate	-11.1085
▁loud	-11.1085
bracelet	-11.1085
▁variable	-11.1085
▁sugar	-11.1085
▁mortar	-11.1085
▁Trond	-11.1085
▁Technolog	-11.1085
▁Local	-11.1085
▁sitting	-11.1086
▁Kyle	-11.1086
▁epic	-11.1086
▁monk	-11.1087
▁commitment	-11.1088
▁stabili	-11.1089
▁grain	-11.1089
▁probe	-11.109
▁Kyra	-11.1093
▁sword	-11.1097
▁mortal	-11.1098
▁Win	-11.1099
▁rubber	-11.1104
▁Quin	-11.1105
▁kings	-11.1106
▁Dress	-11.1108
ara	-11.1117
▁Cambodian	-11.1118
▁Romania	-11.112
▁icon	-11.112
▁advis	-11.1128
down	-11.1132
ón	-11.1132
▁List	-11.1136
42	-11.1139
▁True	-11.1141
▁decid	-11.1144
season	-11.1146
87	-11.1147
▁sounds	-11.1148
mb	-11.1153
NO	-11.1156
▁reinforce	-11.1162
▁slate	-11.1164
berry	-11.1165
▁scorer	-11.1166
▁ho	-11.1179
▁Falls	-11.118
▁listener	-11.1184
▁Lin	-11.1185
▁sin	-11.1187
▁SS	-11.119
▁Bra	-11.1193
▁Denni	-11.1194
til	-11.1199
▁Terr	-11.1208
▁sh	-11.1214
▁graduate	-11.1219
found	-11.122
▁shipment	-11.1234
▁Lud	-11.1236
scope	-11.1238
dding	-11.1261
▁noise	-11.1271
▁Horn	-11.1277
▁liner	-11.1278
▁PC	-11.128
▁relocat	-11.128
▁Comed	-11.1282
▁coat	-11.1286
▁therap	-11.1288
▁Lion	-11.1289
▁Chap	-11.1289
▁240	-11.1293
▁amid	-11.1295
ero	-11.1301
▁dams	-11.1301
▁provision	-11.1302
▁Name	-11.1302
ju	-11.1306
rant	-11.1307
▁Report	-11.1312
▁230	-11.1312
▁northeaster	-11.1314
▁sixteen	-11.1321
▁Opera	-11.1326
▁assume	-11.1329
▁scrap	-11.133
anya	-11.1331
yard	-11.1331
▁Full	-11.1332
▁neighbour	-11.1334
kön	-11.1334
▁Campaign	-11.1334
▁Professor	-11.1334
▁Wrapp	-11.1334
▁explicit	-11.1334
▁homosexual	-11.1334
▁immigrant	-11.1334
▁pyramid	-11.1334
▁universe	-11.1334
▁warrior	-11.1334
▁sweet	-11.1334
▁Foreign	-11.1334
▁hamper	-11.1334
▁Ultimate	-11.1335
▁Brenda	-11.1335
▁Tommy	-11.1335
▁lumber	-11.1335
▁flaw	-11.1335
▁Pirate	-11.1335
▁mutual	-11.1335
▁Quiney	-11.1335
▁Manuel	-11.1335
▁Morning	-11.1335
▁reprint	-11.1335
▁descendant	-11.1336
▁commentator	-11.1336
▁charm	-11.1336
ìn	-11.1336
▁bombardment	-11.1336
▁spark	-11.1337
▁deput	-11.1337
▁gill	-11.1337
▁vocalist	-11.1339
▁Rä	-11.1339
CO	-11.1342
▁vicin	-11.1342
▁Bright	-11.1342
hurst	-11.1344
▁illustration	-11.1344
▁Swede	-11.1348
▁altarpiece	-11.1348
▁Bruce	-11.1349
▁Litera	-11.135
▁Trust	-11.1351
▁112	-11.1356
▁secretary	-11.1359
▁suitabl	-11.1359
▁donation	-11.136
▁mon	-11.1369
▁roller	-11.1372
cus	-11.1372
▁dust	-11.1372
▁dealing	-11.1378
▁Var	-11.1379
▁Was	-11.138
▁legac	-11.1383
half	-11.1384
brush	-11.1385
▁Ari	-11.1397
▁ward	-11.1399
▁Hit	-11.1404
▁Hair	-11.1404
vin	-11.1408
▁walking	-11.141
ition	-11.1411
▁tune	-11.1414
▁beside	-11.142
▁Lead	-11.1424
▁conventional	-11.1435
▁integrat	-11.1441
ria	-11.1443
CU	-11.1447
▁perceiv	-11.1448
▁Mantell	-11.1454
▁quantit	-11.1459
itive	-11.1461
▁Gregor	-11.147
▁Mass	-11.147
▁AA	-11.1471
▁Vi	-11.1472
hio	-11.1474
▁operational	-11.1488
▁Europa	-11.1492
▁fighter	-11.1493
▁handle	-11.1499
emic	-11.1505
▁neutral	-11.1506
▁Whit	-11.1508
▁Hellb	-11.1515
▁Reag	-11.1516
ristan	-11.1519
▁collaborat	-11.1528
▁Indie	-11.1532
▁Ab	-11.1534
▁revers	-11.1536
hold	-11.1545
▁113	-11.155
▁conclude	-11.1552
jan	-11.1565
mond	-11.1571
▁Zanzibar	-11.1574
▁instruct	-11.1577
▁repeat	-11.1578
▁allocat	-11.1583
▁176	-11.1584
▁disagree	-11.1586
▁Social	-11.1589
▁mathematic	-11.1589
MS	-11.159
egian	-11.159
▁Rhode	-11.1591
▁Subsequent	-11.1591
▁complement	-11.1591
▁shrub	-11.1591
▁Lüt	-11.1591
▁Wrestling	-11.1591
▁Zagreb	-11.1591
▁aerodrome	-11.1591
▁alphabet	-11.1591
▁explosion	-11.1591
▁frequenc	-11.1591
▁neutron	-11.1591
▁participant	-11.1591
▁variant	-11.1591
▁zombie	-11.1591
▁eagle	-11.1591
▁conjuncti	-11.1591
▁vital	-11.1591
▁Performance	-11.1591
▁provincial	-11.1591
▁odd	-11.1591
▁Wins	-11.1591
▁monster	-11.1591
▁kickoff	-11.1592
▁Popular	-11.1592
▁Urani	-11.1593
ockey	-11.1593
▁leak	-11.1594
▁Troph	-11.1594
▁exploration	-11.1595
▁cutting	-11.1595
▁stain	-11.1595
▁brutal	-11.1596
▁territorial	-11.1597
▁speculation	-11.1598
▁apartment	-11.1598
▁eastward	-11.1599
▁Fernande	-11.1599
▁discipline	-11.1599
▁electron	-11.16
▁mock	-11.16
▁Train	-11.16
fire	-11.1603
▁reward	-11.1603
▁disturb	-11.1603
SU	-11.1606
▁supervis	-11.1609
LB	-11.1609
▁Father	-11.161
▁convey	-11.1617
▁Medal	-11.162
▁flie	-11.1624
hire	-11.1628
▁Baron	-11.1635
pr	-11.1637
▁escap	-11.164
▁faction	-11.164
▁ensur	-11.1643
feld	-11.1649
▁Champion	-11.1657
ect	-11.1659
▁experimental	-11.1666
▁repli	-11.1667
▁Aust	-11.1668
▁Platt	-11.1668
75	-11.1669
gna	-11.167
▁105	-11.1671
ender	-11.1672
▁Shin	-11.1692
▁teach	-11.1695
cent	-11.1696
ky	-11.17
▁Gu	-11.1706
▁investigate	-11.1707
▁Give	-11.1711
▁Mat	-11.1722
ava	-11.1727
▁Ariz	-11.1727
▁electro	-11.1727
zer	-11.1732
▁Lar	-11.1736
▁rivers	-11.1748
▁j	-11.1749
lov	-11.1751
▁ap	-11.1752
oll	-11.1763
▁Dance	-11.1769
▁combine	-11.177
erto	-11.1784
▁revolutionar	-11.1788
▁literal	-11.1793
▁hostil	-11.1798
▁expense	-11.1803
▁mill	-11.1813
astra	-11.1818
▁Kan	-11.182
rus	-11.1824
▁Fami	-11.1824
29	-11.1833
▁agricultur	-11.1834
▁PA	-11.1841
itt	-11.1841
▁Cuba	-11.1842
▁extinct	-11.1846
▁ba	-11.1847
▁220	-11.185
▁grounds	-11.1853
▁reverse	-11.1854
▁audio	-11.1854
▁Humphrey	-11.1854
▁Shadow	-11.1854
▁ancestor	-11.1854
▁brilliant	-11.1854
▁intelligent	-11.1854
▁juvenile	-11.1854
▁reagent	-11.1854
▁turbine	-11.1854
▁valuable	-11.1854
▁Voice	-11.1854
▁Carpent	-11.1854
▁junction	-11.1854
▁pump	-11.1854
▁ceratopsian	-11.1854
▁Joint	-11.1854
▁Holocaust	-11.1854
▁cemeter	-11.1854
▁trough	-11.1854
▁horror	-11.1854
▁sibling	-11.1854
▁perception	-11.1855
▁Brack	-11.1855
▁Navarr	-11.1855
▁Emma	-11.1855
▁Rapid	-11.1855
▁Thak	-11.1855
▁conquer	-11.1855
▁shallow	-11.1855
▁definite	-11.1855
▁exile	-11.1856
▁cash	-11.1857
▁mask	-11.1857
▁Singh	-11.1858
▁1897	-11.1859
ifi	-11.1859
▁1901	-11.186
▁induct	-11.186
▁Hong	-11.186
▁funeral	-11.1861
▁Ruler	-11.1861
▁Dick	-11.1861
▁moist	-11.1862
léti	-11.1865
EA	-11.1866
▁Pagan	-11.1866
▁decoration	-11.1867
noot	-11.1867
▁Stoke	-11.1868
▁acoustic	-11.1868
poli	-11.187
▁Victor	-11.187
▁lyrical	-11.1872
▁Attack	-11.1874
▁Marge	-11.1874
▁Emil	-11.1878
▁Reine	-11.1878
▁sailor	-11.1879
▁Pam	-11.188
▁Tong	-11.1881
▁minimal	-11.1881
▁Arn	-11.1884
brew	-11.1885
▁villain	-11.1886
▁Justin	-11.1886
▁Clock	-11.1893
▁familiar	-11.1897
28	-11.1898
▁Inc	-11.1905
atic	-11.1906
▁Larr	-11.1908
▁Skin	-11.1909
saurus	-11.1909
▁Dead	-11.191
▁Medi	-11.1914
▁Got	-11.1917
▁banks	-11.1917
▁survival	-11.1921
▁CO	-11.1922
▁Gut	-11.1937
▁pest	-11.1941
▁quot	-11.1943
▁heir	-11.1944
▁Books	-11.1954
▁smoke	-11.1957
▁mac	-11.1958
▁Edi	-11.1968
ii	-11.1971
tt	-11.1974
▁champions	-11.1974
▁Eg	-11.1976
▁Villar	-11.1979
▁Reform	-11.1986
oo	-11.199
▁Princess	-11.1992
fish	-11.1993
itz	-11.1994
▁Michel	-11.1998
▁Hay	-11.2004
▁Abd	-11.2004
face	-11.2005
▁Alfa	-11.2014
▁Tor	-11.202
▁Ag	-11.202
ière	-11.2028
▁fatal	-11.2031
0	-11.2035
▁carrier	-11.2035
▁admit	-11.2035
ating	-11.2041
▁261	-11.2046
▁Low	-11.2054
udo	-11.2055
▁Ly	-11.2057
▁vs	-11.2058
▁Fred	-11.206
▁propose	-11.2062
▁Fif	-11.2063
▁enable	-11.2064
▁gathering	-11.2078
tress	-11.2084
▁centimet	-11.2087
edell	-11.2088
▁Set	-11.2088
21	-11.2098
▁coincide	-11.2101
▁Jai	-11.2103
▁ratio	-11.2104
▁Af	-11.2109
▁wrestl	-11.211
▁DS	-11.2112
oundation	-11.2114
▁prefer	-11.2117
ontemporary	-11.2123
▁bulk	-11.2124
▁conceiv	-11.2124
▁consolidat	-11.2124
▁spawn	-11.2124
▁Cloud	-11.2124
▁Leicester	-11.2124
▁Rockefeller	-11.2124
▁autobiograph	-11.2124
▁enormous	-11.2124
▁zinc	-11.2124
▁Crash	-11.2124
▁celebrit	-11.2124
▁conscious	-11.2124
▁placing	-11.2124
▁rectang	-11.2124
▁Legend	-11.2124
▁imperial	-11.2125
▁Guinea	-11.2125
▁mechanism	-11.2125
▁font	-11.2125
▁Lucas	-11.2125
▁Bloom	-11.2125
▁Sag	-11.2125
▁gender	-11.2125
▁borrow	-11.2125
▁afford	-11.2125
▁Sword	-11.2126
▁Graham	-11.2126
▁welcome	-11.2126
▁decommission	-11.2126
▁rebellion	-11.2126
▁motif	-11.2126
▁Bristo	-11.2127
▁01	-11.2127
▁crush	-11.2127
▁Computer	-11.2128
▁serial	-11.2128
▁diplomatic	-11.2128
▁kid	-11.2129
▁Montre	-11.213
▁Shu	-11.2131
▁hide	-11.2132
▁Yorkshire	-11.2133
▁neutrino	-11.2133
▁commenc	-11.2134
ensus	-11.2134
▁mood	-11.2135
▁solv	-11.2136
▁reporter	-11.2136
▁Kaif	-11.2139
▁pursu	-11.214
▁practical	-11.214
▁trap	-11.2141
▁inaugura	-11.2142
▁Mission	-11.2143
▁Glas	-11.2149
▁nice	-11.2149
▁Box	-11.2149
▁Berh	-11.2162
▁enlarge	-11.2174
▁Trans	-11.2175
▁Cu	-11.2177
▁hills	-11.2179
▁wire	-11.2183
▁Sch	-11.2184
▁Call	-11.2184
▁calculat	-11.2185
▁parasite	-11.2189
▁trio	-11.2194
▁denomination	-11.22
▁troop	-11.2201
▁passion	-11.2203
▁Sher	-11.2205
▁125	-11.2207
ome	-11.2209
twal	-11.2214
▁Glob	-11.2215
▁Sh	-11.2216
▁Gie	-11.222
▁Poet	-11.2222
▁Studio	-11.2222
▁rays	-11.2227
▁thank	-11.2237
zi	-11.2239
▁Hills	-11.2242
▁infect	-11.2247
▁hunter	-11.2256
▁Vol	-11.2256
inus	-11.2257
▁danc	-11.2264
▁lesson	-11.2266
sville	-11.2268
▁averag	-11.2271
▁overwhelm	-11.2281
▁rubb	-11.2283
▁compare	-11.229
▁Ur	-11.2297
room	-11.23
▁hol	-11.2302
▁rape	-11.2307
▁hitt	-11.2307
▁stag	-11.2313
oni	-11.2322
fu	-11.2328
course	-11.2328
aki	-11.233
▁performer	-11.2332
▁Cal	-11.234
eteorological	-11.2346
▁Ran	-11.2349
▁Ex	-11.2352
▁Russel	-11.2352
▁advocat	-11.2357
war	-11.236
▁Crow	-11.2366
dolen	-11.2377
▁Mauri	-11.2378
▁Fu	-11.2379
▁mistake	-11.2381
▁fantas	-11.2398
lateau	-11.2398
▁Gardner	-11.2401
tact	-11.2401
▁Glanville	-11.2402
▁disorder	-11.2402
▁guarantee	-11.2402
▁veteran	-11.2402
▁Railroad	-11.2402
▁millimeter	-11.2402
▁prototype	-11.2402
▁Official	-11.2402
▁exterior	-11.2402
▁compromise	-11.2402
▁Adult	-11.2402
▁Nevada	-11.2402
▁Remix	-11.2402
▁quiet	-11.2402
▁Banksia	-11.2402
art	-11.2402
▁staple	-11.2402
▁activist	-11.2402
▁radical	-11.2403
▁Rafa	-11.2403
▁Composition	-11.2403
▁Barbarian	-11.2403
▁Rama	-11.2404
▁trunk	-11.2404
aff	-11.2404
▁toxic	-11.2404
▁narrator	-11.2404
▁Hockey	-11.2405
▁ATP	-11.2406
▁scrapp	-11.2407
▁Plain	-11.2408
star	-11.2409
▁Yeo	-11.241
▁Sri	-11.241
▁Liberal	-11.2411
▁circulati	-11.2413
▁dodo	-11.2415
▁1800	-11.2416
▁122	-11.2417
▁interrupt	-11.2417
owski	-11.2419
era	-11.242
▁Ruth	-11.2423
▁doll	-11.2427
▁payment	-11.2429
▁attraction	-11.243
▁Fly	-11.2434
▁shield	-11.2435
▁witch	-11.2438
▁04	-11.2439
▁parliamentar	-11.244
pan	-11.2441
▁protester	-11.2445
fi	-11.2447
▁Guild	-11.2448
▁Gange	-11.245
▁Az	-11.2457
39	-11.2459
AV	-11.2459
▁Hur	-11.2463
mund	-11.2464
▁customer	-11.2469
▁spectr	-11.2469
ase	-11.247
▁Beau	-11.2474
▁electrical	-11.2481
space	-11.2483
▁83	-11.2485
▁credits	-11.2485
▁cable	-11.2486
▁Fried	-11.2488
elve	-11.249
▁commemorat	-11.249
▁sick	-11.2494
▁None	-11.2496
▁genes	-11.2502
▁Johnn	-11.2503
khed	-11.2506
hren	-11.2509
logy	-11.2511
88	-11.2513
▁waste	-11.2519
▁ext	-11.2523
▁sat	-11.253
▁rescu	-11.2534
▁invitation	-11.2537
echo	-11.2538
▁Bor	-11.2543
▁oxide	-11.2544
▁Bret	-11.2545
▁mad	-11.2546
▁mini	-11.2549
13	-11.255
▁salar	-11.2553
▁165	-11.256
lster	-11.2561
tar	-11.2563
▁Happ	-11.257
▁rains	-11.2575
▁users	-11.258
▁Lang	-11.2584
▁maxim	-11.2584
▁sacrifice	-11.2585
▁Liz	-11.2589
▁ma	-11.2591
▁Trinit	-11.2591
▁lad	-11.2596
▁speculat	-11.2602
lies	-11.2605
è	-11.2608
▁Th	-11.2611
rize	-11.2613
scrib	-11.2616
▁surge	-11.2619
▁vertic	-11.2626
▁Ful	-11.2628
▁physic	-11.263
ée	-11.2633
▁Note	-11.264
▁chase	-11.2643
▁coaster	-11.2647
▁outfit	-11.265
▁Caval	-11.2655
▁atom	-11.2657
▁Rena	-11.2658
▁Living	-11.2663
▁Elli	-11.2664
arious	-11.2668
▁Austria	-11.2669
▁habit	-11.2677
▁Ech	-11.2679
▁Know	-11.268
▁Kor	-11.268
▁Die	-11.2681
▁reliev	-11.2684
uku	-11.2685
▁brain	-11.2685
▁excess	-11.2686
▁Qedar	-11.2687
▁Faulkn	-11.2688
â	-11.2688
▁MVP	-11.2688
▁McEl	-11.2688
▁Symphon	-11.2688
▁attorney	-11.2688
▁boyfriend	-11.2688
▁caliber	-11.2688
▁clergy	-11.2688
▁surpass	-11.2688
▁Bhairava	-11.2688
▁Telegraph	-11.2688
▁sanctuar	-11.2688
▁milk	-11.2688
▁Small	-11.2688
▁labour	-11.2688
▁McCarthy	-11.2688
▁deteriorat	-11.2688
▁puma	-11.2688
▁Actress	-11.2688
▁Program	-11.2688
▁petition	-11.2688
▁Neolithic	-11.2688
▁bonus	-11.2688
▁caval	-11.2688
▁plague	-11.2688
▁Defence	-11.2688
▁mysterious	-11.2688
▁brood	-11.2688
▁nightingale	-11.2688
▁riot	-11.2688
▁ensemble	-11.2689
▁Ronald	-11.2689
▁Beginn	-11.2689
▁Langu	-11.2689
▁117	-11.2689
▁peer	-11.2689
▁fortification	-11.2689
▁fixture	-11.2689
▁clip	-11.2689
▁drill	-11.269
▁Mile	-11.269
▁CPS	-11.269
▁Millenni	-11.2691
▁1904	-11.2692
▁Meyer	-11.2694
▁saving	-11.2694
▁Formation	-11.2695
▁Still	-11.2696
▁battlefield	-11.2697
▁Right	-11.2697
▁Merri	-11.2698
▁bias	-11.2699
▁incomplete	-11.2699
ela	-11.2699
▁Yugoslavia	-11.2702
▁airfield	-11.2702
▁Vista	-11.2703
▁Combat	-11.2704
▁Cultural	-11.2705
▁Jimm	-11.2705
▁declaration	-11.2707
▁Boat	-11.2708
▁Want	-11.2709
▁warship	-11.2713
▁striker	-11.2714
▁Devin	-11.2714
▁Guin	-11.2717
▁pictures	-11.2721
oster	-11.2722
lgu	-11.2722
▁stepp	-11.2723
▁Hump	-11.2725
▁Paran	-11.2727
▁Trade	-11.2728
▁flash	-11.2729
bow	-11.2731
▁mytholog	-11.2734
▁fortune	-11.2734
▁tempo	-11.2735
▁advocate	-11.2737
▁pav	-11.2743
▁realistic	-11.2748
▁portrayal	-11.2754
▁Loos	-11.2754
ential	-11.2754
▁linear	-11.2759
▁fled	-11.2764
▁populat	-11.2766
▁quit	-11.2767
▁contribute	-11.2769
▁Ker	-11.2775
sberg	-11.2782
▁1857	-11.2784
▁bath	-11.2796
▁activat	-11.2796
▁relate	-11.2801
uous	-11.2804
▁chemist	-11.2808
ư	-11.2809
▁rebuild	-11.2811
▁crop	-11.2814
▁Europ	-11.2815
argas	-11.2817
eck	-11.2819
wall	-11.2821
▁matur	-11.2821
▁114	-11.2831
▁rap	-11.2844
▁Works	-11.2845
▁Jenn	-11.2846
min	-11.2852
▁handed	-11.286
awa	-11.2861
long	-11.2861
gon	-11.2864
▁Reviewer	-11.2865
▁mines	-11.2869
▁quote	-11.2883
lli	-11.2884
▁VI	-11.289
▁Dum	-11.2893
OM	-11.2894
▁Merc	-11.2894
ogue	-11.2895
trapping	-11.2899
▁Pf	-11.29
▁Colon	-11.2901
▁labor	-11.2905
▁radiati	-11.2906
▁Micro	-11.2911
itis	-11.2913
▁disabl	-11.2914
erland	-11.2916
▁Web	-11.2917
▁settle	-11.2927
wi	-11.2931
▁123	-11.2947
▁examine	-11.2949
▁Que	-11.2954
▁op	-11.2957
▁flee	-11.2958
▁ju	-11.2961
▁Peters	-11.2961
▁Berg	-11.2965
uc	-11.2973
▁frustrat	-11.2974
▁Beth	-11.2977
▁eliminate	-11.2979
▁micro	-11.298
mack	-11.2981
▁Sultan	-11.2981
▁Memor	-11.2982
▁compil	-11.2982
▁prevail	-11.2982
→	-11.2982
▁Gabriel	-11.2982
▁Kōsaku	-11.2982
▁Reserve	-11.2982
▁Retriev	-11.2982
▁Support	-11.2982
▁rendition	-11.2982
▁sensitive	-11.2982
▁sweep	-11.2982
▁Mahesh	-11.2982
▁sediment	-11.2982
▁stanza	-11.2982
▁rejoin	-11.2982
▁McLa	-11.2982
▁Present	-11.2982
▁scenario	-11.2982
▁limestone	-11.2982
▁naked	-11.2982
▁ordinar	-11.2982
▁Doctor	-11.2982
▁Gladstone	-11.2982
▁Nichola	-11.2982
▁chest	-11.2983
livan	-11.2983
▁judo	-11.2983
▁landmark	-11.2983
gomer	-11.2983
▁lord	-11.2984
▁census	-11.2984
▁Leban	-11.2984
▁rent	-11.2984
▁alarm	-11.2985
▁careful	-11.2985
▁summon	-11.2986
wal	-11.2986
▁crack	-11.2987
▁Bergen	-11.2988
▁genuine	-11.2988
▁supreme	-11.2989
▁guitarist	-11.299
▁Andrea	-11.299
▁friendship	-11.2991
▁Día	-11.2992
smith	-11.2993
▁1848	-11.2993
▁Yang	-11.2993
▁parade	-11.2994
▁precise	-11.2994
▁Wa	-11.2995
▁Rover	-11.2995
▁mild	-11.2996
mouli	-11.3
▁metric	-11.3001
▁gal	-11.3001
uskh	-11.3008
▁Indu	-11.3013
▁poetic	-11.3013
▁limb	-11.3013
▁taw	-11.3019
▁Roch	-11.302
▁Have	-11.302
▁approache	-11.302
ơn	-11.302
▁Kit	-11.3024
▁hatch	-11.3024
▁Cher	-11.3027
▁lit	-11.3028
▁narrat	-11.3033
burgh	-11.3035
▁Belt	-11.3036
▁insert	-11.3036
▁companion	-11.3037
▁explorer	-11.3044
▁Jose	-11.3045
▁Imb	-11.3058
nic	-11.3061
▁Anna	-11.3062
▁Musical	-11.3062
game	-11.3064
are	-11.3065
▁cooperati	-11.3068
▁adequate	-11.3068
ergy	-11.3075
▁Shaw	-11.3079
▁Terroris	-11.3082
▁Cooper	-11.3085
arrow	-11.3086
▁dropping	-11.309
▁Mov	-11.3092
NES	-11.3093
▁Julian	-11.3095
▁Goth	-11.3101
▁cruise	-11.3102
▁elevat	-11.3103
▁aisle	-11.3113
▁moor	-11.3115
ei	-11.3118
ghan	-11.3122
ique	-11.3131
85	-11.3132
▁Karl	-11.3136
▁und	-11.314
▁Kai	-11.314
▁accidental	-11.314
▁relat	-11.3144
▁Grant	-11.3145
▁Elg	-11.3148
▁Barne	-11.3149
icken	-11.3151
▁Bran	-11.3153
▁Aircraft	-11.3155
▁poison	-11.3163
▁transmitt	-11.3167
▁directors	-11.3169
▁formula	-11.3174
▁Moro	-11.3188
edoc	-11.3191
lain	-11.3195
▁Austr	-11.3197
erman	-11.3199
▁transcription	-11.3209
▁tombs	-11.3214
▁Sin	-11.3218
nia	-11.3218
jin	-11.3232
▁seeming	-11.3245
▁chronic	-11.3252
▁characteris	-11.3256
▁remind	-11.3256
▁Glass	-11.3258
▁Gib	-11.3258
▁define	-11.326
▁EP	-11.3261
▁Character	-11.3263
▁McG	-11.3265
▁demonstrate	-11.3267
ami	-11.3275
▁Harris	-11.328
arnest	-11.3281
▁humor	-11.3283
▁Yama	-11.3284
▁neglect	-11.3285
▁wreck	-11.3285
▁Uyghur	-11.3285
▁Wikipedia	-11.3285
▁conservative	-11.3285
▁ghost	-11.3285
▁hygrometricu	-11.3285
▁nephew	-11.3285
▁romance	-11.3285
▁velocit	-11.3285
▁Íma	-11.3285
▁Colombia	-11.3285
▁ceiling	-11.3285
▁Napoleon	-11.3285
▁Saxon	-11.3285
▁vulnerab	-11.3285
▁Constitution	-11.3285
▁ambush	-11.3285
▁domain	-11.3285
▁Raymond	-11.3285
▁descent	-11.3285
▁rumor	-11.3285
▁Darwin	-11.3285
▁Taxonom	-11.3285
▁hint	-11.3285
▁blend	-11.3285
▁drift	-11.3285
▁Philippine	-11.3286
▁metallic	-11.3286
▁Total	-11.3286
▁excit	-11.3286
▁favourite	-11.3286
▁bypass	-11.3286
▁presum	-11.3286
▁stingray	-11.3287
▁flock	-11.3287
▁Assyrian	-11.3287
▁Malaysia	-11.3287
▁Brazilian	-11.3287
▁counterpart	-11.3288
▁Todd	-11.3288
▁Biograph	-11.3289
▁scholarship	-11.3289
▁Brother	-11.3289
sund	-11.329
▁wake	-11.3291
▁unrest	-11.3292
▁fulfill	-11.3293
▁tent	-11.3293
▁Say	-11.3293
adi	-11.3293
▁FIT	-11.3293
▁Damage	-11.3295
▁disguise	-11.3295
▁deployment	-11.3296
consi	-11.3297
▁strikeout	-11.3299
take	-11.33
▁recreational	-11.33
▁Pete	-11.3302
▁barrel	-11.3302
▁Leon	-11.3305
▁backward	-11.3305
▁Officer	-11.331
▁uncle	-11.3313
▁Level	-11.3314
▁pp	-11.3314
▁Gross	-11.3316
▁lion	-11.3319
weight	-11.3324
▁gray	-11.3325
▁Nichols	-11.3333
▁migration	-11.3334
▁im	-11.3335
tsu	-11.3335
ges	-11.3335
med	-11.3335
▁Month	-11.3338
▁Shan	-11.3347
▁functional	-11.3354
ME	-11.3357
▁Mh	-11.3359
▁indirect	-11.3362
ae	-11.3362
▁bands	-11.3363
hem	-11.3365
▁button	-11.3365
▁Let	-11.3368
81	-11.3368
▁Chop	-11.3371
ó	-11.3371
▁Hop	-11.3372
▁Tr	-11.3373
lic	-11.3376
▁Gabba	-11.3377
▁sic	-11.3377
▁Mur	-11.3382
▁gay	-11.3382
tis	-11.3386
▁Fran	-11.3393
▁kit	-11.3395
lor	-11.3408
▁Josh	-11.3413
▁Mel	-11.3415
▁evacuat	-11.3427
▁Kathe	-11.3441
ff	-11.3442
aj	-11.3444
▁specializ	-11.3446
▁Senat	-11.3448
▁Marsh	-11.3454
44	-11.3456
▁seed	-11.3459
▁Pok	-11.3459
dium	-11.346
▁desir	-11.3463
▁Dela	-11.3466
bbie	-11.3471
tina	-11.349
ardo	-11.349
eri	-11.3495
▁subtr	-11.3498
▁Mah	-11.3503
erry	-11.3509
▁fuse	-11.3509
▁Choi	-11.3512
▁Tan	-11.3515
holm	-11.3516
▁Mack	-11.3521
scher	-11.3521
ula	-11.3522
ike	-11.3531
▁pla	-11.3531
fri	-11.3532
▁astronom	-11.3541
pty	-11.3542
right	-11.3542
▁Keys	-11.3549
▁finance	-11.355
ram	-11.3551
▁ascend	-11.3551
olence	-11.3552
▁Tai	-11.3555
nk	-11.3556
▁update	-11.3572
pack	-11.3573
▁Univers	-11.3575
▁Highland	-11.3577
ode	-11.3583
▁Qi	-11.3588
▁anticipat	-11.3589
▁slip	-11.3594
▁Blo	-11.3594
▁sheet	-11.3597
▁Vishnu	-11.3597
▁proclaim	-11.3597
▁Electronic	-11.3597
▁Ganganelli	-11.3597
▁guerrilla	-11.3597
▁mirror	-11.3597
▁pulp	-11.3597
▁dawn	-11.3597
▁harsh	-11.3597
▁Concert	-11.3597
▁Northwest	-11.3597
▁antiquit	-11.3597
▁gospel	-11.3597
▁comprehensive	-11.3598
▁secular	-11.3598
▁palace	-11.3598
▁prestig	-11.3598
▁radar	-11.3598
▁outcome	-11.3598
▁particle	-11.3598
▁relevan	-11.3598
▁outstanding	-11.3598
▁terrorist	-11.3598
▁Secur	-11.3599
▁casemate	-11.3599
▁amaz	-11.3599
▁trench	-11.3599
▁rivals	-11.36
▁Medical	-11.36
▁consult	-11.36
▁Apart	-11.3601
ual	-11.3603
▁papa	-11.3603
▁Outside	-11.3603
▁Cadm	-11.3604
▁hung	-11.3605
▁Sister	-11.3605
▁737	-11.3605
▁Cadet	-11.3607
full	-11.3607
▁DE	-11.3609
▁conviction	-11.361
▁revision	-11.3611
▁beds	-11.3613
▁muscle	-11.3614
▁Mariah	-11.3614
sboro	-11.3615
▁organic	-11.3616
▁boiler	-11.3617
▁bread	-11.3617
AC	-11.3619
how	-11.3619
▁bold	-11.3621
▁Style	-11.3622
▁Kur	-11.3622
▁operator	-11.3623
▁illustrate	-11.3625
▁collector	-11.3625
▁participation	-11.3626
▁gang	-11.3627
▁Hawk	-11.363
unch	-11.363
▁chas	-11.3633
▁circular	-11.3635
▁Control	-11.3635
▁Fez	-11.3636
▁Feeling	-11.3642
kan	-11.3645
▁Ford	-11.365
▁179	-11.365
▁shortage	-11.3652
▁Arika	-11.3652
▁sum	-11.3653
▁Sang	-11.3663
▁ramp	-11.367
34	-11.3671
▁Ola	-11.3671
▁Sidon	-11.3673
Y	-11.3674
▁Wallac	-11.3674
▁Annal	-11.368
▁mo	-11.368
▁corresponding	-11.3681
▁corpse	-11.3683
▁sketch	-11.3696
▁aggregate	-11.3697
ote	-11.3705
▁Albi	-11.3711
flow	-11.3712
▁gene	-11.3712
opical	-11.3715
▁witnesse	-11.3715
ometric	-11.3719
etace	-11.3721
▁pleas	-11.3728
▁Colonie	-11.3732
▁overwhelming	-11.3736
▁li	-11.3737
▁bombs	-11.3737
▁Crim	-11.3739
▁Lui	-11.3739
▁163	-11.3749
omb	-11.3754
TA	-11.3755
▁consum	-11.3756
born	-11.3758
▁Stak	-11.3775
▁Nik	-11.3777
hen	-11.3779
▁Large	-11.3785
▁beak	-11.3805
▁jam	-11.3807
▁commissioner	-11.3808
illo	-11.381
cat	-11.3815
▁Robin	-11.3817
▁cycl	-11.3817
▁Aki	-11.3837
▁summar	-11.3837
▁Joan	-11.3837
lav	-11.3842
▁ceas	-11.3844
erra	-11.3845
▁qua	-11.3847
▁Hil	-11.3851
rn	-11.3854
▁grasse	-11.3858
▁Publish	-11.3859
esque	-11.386
▁trader	-11.3861
▁ca	-11.3866
▁Barbar	-11.3867
Nichol	-11.3868
zow	-11.387
▁angr	-11.3871
agg	-11.3872
IT	-11.3878
ras	-11.3879
▁Members	-11.3882
burg	-11.3883
nburg	-11.3885
▁Dove	-11.3888
arian	-11.3889
23	-11.389
bodies	-11.3895
▁differentiat	-11.3898
▁Oliv	-11.3899
▁feud	-11.3903
▁declare	-11.3908
▁backing	-11.3908
▁Alger	-11.391
▁contradict	-11.3912
▁trait	-11.3916
▁121	-11.3916
▁Pitts	-11.3918
ult	-11.3919
▁commerc	-11.3919
▁1200	-11.392
ū	-11.392
▁Jenkins	-11.392
▁coffee	-11.392
▁collision	-11.392
▁counterattack	-11.392
▁demographic	-11.392
▁disciple	-11.392
▁elephant	-11.392
▁incursion	-11.392
▁remake	-11.392
▁unexpected	-11.392
▁virtue	-11.392
▁uneven	-11.392
▁Dawn	-11.392
▁Parachut	-11.392
▁debri	-11.392
▁stalk	-11.392
▁abundance	-11.392
▁ornament	-11.392
croft	-11.392
▁analyz	-11.392
▁Urban	-11.392
▁Lorenz	-11.392
▁Tribble	-11.392
▁alliance	-11.392
▁divert	-11.392
▁overcome	-11.392
▁Panzer	-11.392
▁telephone	-11.392
▁Regard	-11.392
▁hate	-11.3921
▁framework	-11.3921
▁Edition	-11.3921
▁Buddhist	-11.3921
ovac	-11.3921
▁elite	-11.3921
▁civilization	-11.3922
▁desperate	-11.3922
▁Winter	-11.3924
▁synthesis	-11.3925
▁plumage	-11.3925
nan	-11.3925
▁confrontation	-11.3925
▁Stew	-11.3927
▁Archer	-11.3927
▁stole	-11.3927
▁weakness	-11.3927
▁relay	-11.3928
▁Kick	-11.3929
▁calm	-11.3929
▁attendance	-11.393
▁Mail	-11.3932
▁intervention	-11.3933
▁reminiscen	-11.3933
▁stern	-11.3934
▁Talk	-11.3935
▁coastline	-11.3936
▁breast	-11.3938
▁arise	-11.3938
▁tear	-11.3938
▁Glad	-11.3941
pin	-11.3943
ico	-11.3945
▁Aldea	-11.3945
▁Boom	-11.3946
▁Jeremi	-11.3946
▁licens	-11.3948
lew	-11.395
▁mail	-11.395
desh	-11.3951
▁Nam	-11.3951
mate	-11.3952
▁Trial	-11.3957
▁emphasiz	-11.3958
▁Tur	-11.3958
▁kn	-11.3968
▁Flow	-11.3969
abad	-11.3972
▁Motor	-11.3972
▁tonne	-11.3975
▁cosm	-11.3978
illan	-11.3984
▁ambition	-11.3986
▁Gene	-11.3993
▁Tak	-11.3996
tail	-11.3997
▁Map	-11.4002
▁Arr	-11.4004
ku	-11.4006
▁Mora	-11.4008
▁slot	-11.4014
▁RA	-11.4015
▁Gao	-11.4022
▁lamp	-11.4026
▁Mint	-11.4027
mpson	-11.4027
▁matri	-11.4028
▁cannon	-11.4031
▁tough	-11.4031
▁harmon	-11.4032
▁printing	-11.4033
▁Tang	-11.4035
▁fat	-11.4036
erb	-11.4039
lix	-11.4046
▁Davies	-11.4056
▁tier	-11.4059
organ	-11.406
▁Fr	-11.4065
▁Start	-11.4068
▁Za	-11.4071
▁Schu	-11.4075
000	-11.4076
▁arena	-11.4076
▁identi	-11.408
ila	-11.4081
vana	-11.4081
▁fatalit	-11.4096
rtillery	-11.4102
appen	-11.4104
▁shoe	-11.4107
OT	-11.4108
▁mono	-11.4121
odon	-11.4125
▁exceed	-11.4132
▁captiv	-11.4137
▁fitting	-11.4142
andra	-11.4149
▁cameo	-11.4152
▁enhance	-11.4153
▁IA	-11.4153
lando	-11.4158
▁Sport	-11.4159
▁wet	-11.4162
mach	-11.4164
▁spelling	-11.4165
▁po	-11.4166
▁remarkabl	-11.4167
▁Mode	-11.417
▁phenomen	-11.4173
▁Breed	-11.4175
AR	-11.4175
mine	-11.4178
dining	-11.4186
▁Inside	-11.419
▁immigrati	-11.4192
lam	-11.4195
▁binar	-11.4196
▁merge	-11.4197
▁Sche	-11.4202
▁taxi	-11.4206
▁Sep	-11.4206
▁Tra	-11.4212
▁Mau	-11.4212
▁131	-11.4215
▁Northumb	-11.4218
▁prince	-11.422
▁Mann	-11.4225
▁inaugurat	-11.4232
▁Janet	-11.4237
▁Campbel	-11.4239
▁strange	-11.4244
RIA	-11.4244
▁Voyage	-11.4244
▁Forb	-11.4246
xecutive	-11.425
▁mast	-11.425
▁McCa	-11.4252
▁Amylostere	-11.4253
▁abolish	-11.4253
▁Archbishop	-11.4253
▁Commodore	-11.4253
▁Expedition	-11.4253
▁Ferdinand	-11.4253
▁Kaimanawa	-11.4253
▁abundant	-11.4253
▁memoir	-11.4253
▁proxim	-11.4253
▁remote	-11.4253
▁solitaire	-11.4253
▁censor	-11.4253
▁relax	-11.4253
▁throat	-11.4253
▁marble	-11.4253
▁Representative	-11.4253
▁besieg	-11.4253
▁intensify	-11.4254
▁harvest	-11.4254
▁contend	-11.4254
▁conifer	-11.4254
▁Flag	-11.4254
▁pipe	-11.4254
▁Clement	-11.4254
▁external	-11.4254
▁Tzu	-11.4254
▁PopMa	-11.4254
▁legislature	-11.4254
▁Student	-11.4254
▁Clear	-11.4254
▁Curtis	-11.4255
▁Yoko	-11.4255
▁Cam	-11.4255
▁lifestyle	-11.4255
▁Leinster	-11.4255
▁RNA	-11.4256
▁navigation	-11.4257
▁alert	-11.4257
▁cream	-11.4258
▁Pesh	-11.4258
▁premise	-11.4258
▁orange	-11.4259
▁anonymous	-11.4259
▁boss	-11.426
▁Mitsu	-11.426
▁meat	-11.4261
▁gunner	-11.4262
▁texture	-11.4262
▁Sean	-11.4264
▁Cemet	-11.4264
▁accusation	-11.4265
▁recommendation	-11.4267
▁readi	-11.427
▁Chance	-11.427
▁efficient	-11.4272
eur	-11.4272
▁Chang	-11.4274
▁manual	-11.4276
nar	-11.4277
▁Cris	-11.4278
▁Christians	-11.4278
▁antagonist	-11.4278
▁Xe	-11.4279
▁Market	-11.428
▁Kon	-11.4281
▁specialist	-11.4281
▁Clair	-11.4282
▁Finn	-11.4282
▁Hang	-11.4285
hand	-11.4285
▁Former	-11.4288
ito	-11.4291
▁Liberty	-11.4291
▁limitation	-11.4293
▁antholog	-11.4294
▁tract	-11.4296
▁Fear	-11.4299
▁volunteers	-11.4306
aid	-11.4308
LC	-11.4311
▁unna	-11.4312
unes	-11.4313
▁nose	-11.4314
▁unstab	-11.4322
hrie	-11.4322
▁inventor	-11.4325
ased	-11.4328
▁voic	-11.433
▁cons	-11.4331
▁cease	-11.4341
▁wage	-11.4343
PR	-11.4346
▁Exe	-11.4351
ín	-11.4351
▁cats	-11.4355
▁toleran	-11.4364
36	-11.4365
▁Domna	-11.437
▁acquire	-11.4375
uit	-11.4375
leans	-11.438
point	-11.4384
AU	-11.4387
▁106	-11.4388
front	-11.4392
▁Maid	-11.4396
▁102	-11.44
▁Vin	-11.4402
▁ease	-11.4405
phy	-11.4407
eau	-11.4408
▁Mayor	-11.4408
▁1.	-11.4413
▁Airb	-11.4413
atus	-11.4417
▁riff	-11.4423
▁Meta	-11.4423
▁evacuate	-11.443
▁provok	-11.4438
posed	-11.4443
▁jewel	-11.4443
▁MP	-11.4443
music	-11.4447
▁Origin	-11.4456
▁Crab	-11.4457
▁Hol	-11.4461
97	-11.4468
▁Cha	-11.4468
▁FI	-11.447
▁Ger	-11.4487
▁confiden	-11.449
▁resolv	-11.4493
player	-11.4495
▁rout	-11.4496
▁Gall	-11.4497
▁Chamber	-11.4498
lik	-11.4502
▁blockade	-11.4512
▁swing	-11.4514
uchi	-11.4514
▁Kin	-11.453
▁Wor	-11.4536
▁pun	-11.4537
▁hid	-11.4538
ama	-11.454
nik	-11.4543
▁empt	-11.4558
ngle	-11.4559
▁Mole	-11.456
▁envelope	-11.4562
▁prompting	-11.4571
nmark	-11.4572
▁Importan	-11.4574
▁Cob	-11.4581
▁utiliz	-11.4581
▁solve	-11.4583
▁charg	-11.4585
▁hydro	-11.4587
obra	-11.459
rid	-11.4595
▁129	-11.4596
▁tutor	-11.4597
▁prefect	-11.4597
à	-11.4598
▁bronze	-11.4598
▁corridor	-11.4598
▁extraordinar	-11.4598
▁maneuver	-11.4598
▁militia	-11.4598
▁parrot	-11.4598
▁Generation	-11.4598
▁fierce	-11.4598
▁recount	-11.4598
▁cheap	-11.4598
▁flame	-11.4598
dolph	-11.4598
▁decisive	-11.4598
▁incredibl	-11.4598
▁recipe	-11.4598
▁blind	-11.4598
▁repertoire	-11.4598
▁Diamond	-11.4598
▁retaliat	-11.4598
▁Ferrari	-11.4598
▁harbor	-11.4598
▁lawsuit	-11.4598
▁Draft	-11.4598
▁gorilla	-11.4598
▁correspondence	-11.4598
▁hurt	-11.4599
▁fluid	-11.4599
▁conquest	-11.4599
▁Moritz	-11.4599
alph	-11.4599
▁coalition	-11.4599
▁Tape	-11.4599
▁routine	-11.4599
▁signature	-11.46
▁Judith	-11.46
▁Condom	-11.46
▁Theater	-11.4601
▁Industrial	-11.4601
▁1893	-11.4601
▁thread	-11.4601
▁SEC	-11.4602
▁uncover	-11.4602
▁Turkey	-11.4602
▁Slea	-11.4602
▁Metropolitan	-11.4602
▁spike	-11.4603
▁crusader	-11.4603
▁slipp	-11.4603
▁Destroyer	-11.4603
▁dull	-11.4603
▁manipulat	-11.4604
▁crucial	-11.4604
▁Southeast	-11.4604
stroke	-11.4606
▁barrack	-11.4606
▁Capital	-11.4607
▁excellent	-11.4608
▁cultivat	-11.461
▁hence	-11.461
▁stake	-11.4611
roll	-11.4614
▁automatic	-11.4614
akim	-11.4614
▁outlet	-11.4615
duction	-11.4615
▁Les	-11.4618
▁Lithuanian	-11.4619
▁boost	-11.4619
aries	-11.462
hall	-11.4621
▁plantation	-11.4623
▁expectation	-11.4624
▁mistaken	-11.4627
▁Rook	-11.4628
▁Bolt	-11.4628
▁Adrian	-11.4631
lash	-11.4631
▁eligib	-11.4632
▁princess	-11.4632
zo	-11.4634
wright	-11.4635
▁Tal	-11.4635
OS	-11.4639
▁symbolic	-11.4652
grid	-11.4658
▁affection	-11.4659
▁ITV	-11.4661
▁Intelligence	-11.4664
▁Clay	-11.4671
▁resembl	-11.4673
hai	-11.4674
▁dressing	-11.4679
▁aside	-11.4682
▁align	-11.4686
▁acknowledge	-11.4691
▁108	-11.4697
▁Delan	-11.4699
▁Hast	-11.4704
▁Inde	-11.4705
tro	-11.4708
▁Leo	-11.4709
▁goat	-11.472
rit	-11.4722
▁Timb	-11.4728
cor	-11.4729
▁ˈ	-11.473
▁Blues	-11.4731
▁tactical	-11.4731
▁resolve	-11.4739
ML	-11.474
▁torpedoe	-11.474
haw	-11.4744
▁Div	-11.4749
▁persuad	-11.475
rous	-11.475
▁terrace	-11.4752
color	-11.4764
▁appreciat	-11.4764
▁Ak	-11.477
inner	-11.4772
▁loyalt	-11.4775
▁Twins	-11.4779
isle	-11.4779
aire	-11.4781
FL	-11.4781
ora	-11.4786
rate	-11.4789
▁reache	-11.4796
▁ministers	-11.4796
▁accumulat	-11.48
▁Mona	-11.4802
▁matern	-11.4803
▁dubi	-11.4808
▁Bobb	-11.4808
gge	-11.481
DT	-11.4817
▁informal	-11.4823
▁fami	-11.4827
▁Mand	-11.483
iest	-11.4835
▁Anton	-11.4836
inea	-11.4838
▁Hal	-11.484
▁partners	-11.4843
af	-11.4859
uve	-11.4861
▁Grec	-11.4863
▁balls	-11.487
▁Jess	-11.4872
▁Thi	-11.4878
▁bite	-11.488
▁hurdle	-11.4886
▁retail	-11.4889
taker	-11.4897
▁tim	-11.4899
▁web	-11.4899
▁depress	-11.491
hoo	-11.4916
IF	-11.4921
▁commit	-11.4922
ave	-11.4924
▁Meri	-11.4932
▁mod	-11.4933
▁Lithuania	-11.4934
▁Half	-11.4934
▁legislat	-11.4939
ountain	-11.4939
▁978	-11.4941
▁exceptional	-11.4942
ala	-11.4942
▁Cruise	-11.4945
▁intercept	-11.4948
▁invest	-11.4951
▁accent	-11.4955
▁discontinu	-11.4955
▁ANZAC	-11.4955
▁Advance	-11.4955
▁Chemical	-11.4955
▁Horizon	-11.4955
▁Ojibw	-11.4955
▁Religio	-11.4955
▁Susquehann	-11.4955
▁burrow	-11.4955
▁confluence	-11.4955
▁corrupt	-11.4955
▁gendarme	-11.4955
▁mRNA	-11.4955
▁nuclei	-11.4955
▁swallow	-11.4955
☉	-11.4955
▁Anselm	-11.4955
▁hiatus	-11.4955
▁output	-11.4955
▁terribl	-11.4955
▁Period	-11.4955
▁horizontal	-11.4955
▁Current	-11.4955
▁estuar	-11.4956
▁confin	-11.4956
▁presbyterian	-11.4956
▁satire	-11.4956
▁stunt	-11.4956
▁humanitarian	-11.4956
▁Gerald	-11.4956
▁breach	-11.4956
▁breath	-11.4956
▁trademark	-11.4956
▁telescope	-11.4956
▁Manager	-11.4956
▁Kahn	-11.4956
▁pagoda	-11.4956
▁discard	-11.4957
▁trigger	-11.4957
▁breakdown	-11.4957
▁Analys	-11.4957
▁clash	-11.4957
▁missile	-11.4957
▁Element	-11.4957
▁Protect	-11.4958
▁Round	-11.4959
▁uprising	-11.4959
▁screenplay	-11.496
ennis	-11.496
▁bug	-11.496
▁Feld	-11.4961
▁Make	-11.4962
▁shout	-11.4963
▁insult	-11.4963
▁Boca	-11.4963
▁Levin	-11.4963
▁arsenal	-11.4963
▁Suez	-11.4964
utical	-11.4964
▁Vette	-11.4964
zzo	-11.4965
▁Watch	-11.4965
mark	-11.4965
▁drummer	-11.4965
▁statute	-11.4966
▁Glen	-11.4966
▁progressive	-11.4969
▁dug	-11.4969
▁grassland	-11.4969
▁shall	-11.497
▁servant	-11.4971
▁EU	-11.4971
▁Shang	-11.4973
▁everyday	-11.4973
▁silk	-11.4973
▁bush	-11.4977
▁glider	-11.498
▁worri	-11.4982
▁Walk	-11.4982
▁sulfide	-11.4983
▁Kings	-11.4984
▁Crush	-11.4984
▁attractive	-11.4986
▁deny	-11.4986
▁Yet	-11.4987
▁135	-11.4987
▁screens	-11.4988
▁intentional	-11.4994
▁Dunn	-11.4995
▁remixes	-11.4996
▁reflection	-11.4998
▁Copi	-11.4998
▁imaginati	-11.5002
▁fi	-11.5002
▁prose	-11.5004
▁negotiat	-11.5015
ourne	-11.5015
▁melt	-11.5015
▁tap	-11.5019
▁identifie	-11.5023
▁Jami	-11.5024
▁Bil	-11.5024
▁Ferry	-11.5025
▁baron	-11.5026
▁Len	-11.5028
ati	-11.5034
illa	-11.5035
▁emerge	-11.5041
▁Boo	-11.5046
ologist	-11.5048
▁Gri	-11.5048
dick	-11.5052
▁Roth	-11.5053
plan	-11.5061
pological	-11.5065
▁vers	-11.5065
▁echo	-11.5065
▁albe	-11.5067
PF	-11.5068
▁af	-11.5075
▁marker	-11.5082
▁Coach	-11.5082
▁Juda	-11.5084
▁Jar	-11.5086
▁Harve	-11.5094
▁boot	-11.5096
▁Pear	-11.5097
▁twist	-11.5105
▁Theme	-11.5112
▁Fisher	-11.5117
world	-11.5118
▁Hand	-11.5126
tto	-11.5131
bul	-11.5131
▁Eps	-11.5132
psis	-11.5138
▁Fann	-11.5139
▁Belle	-11.5159
▁patch	-11.5161
▁manufacture	-11.5161
cover	-11.5171
▁Tell	-11.5178
timer	-11.5178
▁pad	-11.5183
WA	-11.5185
atory	-11.5209
▁Kho	-11.5209
▁Normand	-11.5211
▁carving	-11.5226
qua	-11.5236
▁Sen	-11.5236
▁invent	-11.5241
aw	-11.5244
IAA	-11.5244
▁dig	-11.5246
▁subordinate	-11.5259
▁Isla	-11.526
oven	-11.5262
▁spine	-11.527
und	-11.5279
▁litter	-11.5285
matic	-11.5287
medu	-11.5295
lich	-11.5296
ridge	-11.5308
▁harm	-11.531
▁innovat	-11.5313
▁Non	-11.5314
▁overlap	-11.5319
▁academ	-11.5319
ob	-11.532
▁stall	-11.532
▁sil	-11.5321
▁Bla	-11.5322
▁adjust	-11.5322
uenos	-11.5322
▁pink	-11.5323
inaw	-11.5324
clamation	-11.5325
▁Broad	-11.5325
▁subsid	-11.5326
▁Consequent	-11.5326
▁Loyalsock	-11.5326
▁Phillip	-11.5326
▁Recreation	-11.5326
▁Scandinavia	-11.5326
▁algorithm	-11.5326
▁critique	-11.5326
▁explanation	-11.5326
▁hemmema	-11.5326
▁junta	-11.5326
▁voyage	-11.5326
▁jealous	-11.5326
▁Pioneer	-11.5326
▁drown	-11.5326
▁jail	-11.5326
▁salmon	-11.5326
▁swamp	-11.5326
▁venom	-11.5326
▁racial	-11.5326
▁kitchen	-11.5326
▁Jewel	-11.5326
▁prevalen	-11.5326
▁conceal	-11.5326
▁Fruit	-11.5326
▁Felicia	-11.5326
▁affirm	-11.5326
▁annex	-11.5326
▁Nashville	-11.5326
▁burst	-11.5326
▁silent	-11.5326
▁prolong	-11.5326
▁profound	-11.5326
▁Zhang	-11.5327
▁Bronco	-11.5327
▁facult	-11.5327
▁leather	-11.5327
▁Broadcast	-11.5327
▁leap	-11.5327
▁fumble	-11.5327
▁foul	-11.5327
▁viewpoint	-11.5327
▁Hospitaller	-11.5327
▁sanction	-11.5327
▁sitcom	-11.5327
▁capabilit	-11.5328
rphy	-11.5328
▁outlaw	-11.5329
▁peaceful	-11.5329
▁Staff	-11.5329
▁pour	-11.533
▁victorious	-11.533
▁Franz	-11.533
▁Bould	-11.5332
▁mansion	-11.5332
▁Combin	-11.5333
▁kiss	-11.5333
▁dirt	-11.5333
▁Deal	-11.5333
▁invention	-11.5333
tire	-11.5335
▁Hond	-11.5336
▁luminosit	-11.5336
phore	-11.5336
▁alteration	-11.5338
▁resignation	-11.5338
▁Fund	-11.5339
▁inclin	-11.534
▁separation	-11.5342
▁funk	-11.5342
▁Chile	-11.5342
▁1863	-11.5343
▁replay	-11.5344
nder	-11.5345
▁ow	-11.5345
▁Harsha	-11.5347
▁sect	-11.5347
▁Orton	-11.5348
▁Distribut	-11.5352
▁archipelago	-11.5352
▁Wang	-11.5352
▁proof	-11.5355
▁Melb	-11.5356
▁chronicle	-11.5356
zan	-11.5357
bone	-11.5358
▁Laud	-11.5365
▁intimate	-11.5366
▁Valentin	-11.5375
▁spann	-11.5375
▁151	-11.5376
▁Jerr	-11.5379
▁heaven	-11.5379
emble	-11.5381
▁Manor	-11.5382
▁rocket	-11.5386
▁fade	-11.5393
▁plat	-11.5394
▁Gaz	-11.5394
▁instrumental	-11.5395
▁concentrate	-11.5396
▁alcohol	-11.5406
ping	-11.5416
▁migrat	-11.5416
uzzi	-11.5417
▁spokes	-11.5417
▁philosopher	-11.542
▁mold	-11.542
Shara	-11.5426
ule	-11.543
▁Gree	-11.543
▁pore	-11.5432
▁generate	-11.5432
▁utter	-11.5434
hiro	-11.5435
▁imagin	-11.544
▁Tag	-11.5444
▁confident	-11.5445
ij	-11.5446
▁152	-11.545
▁dancer	-11.5451
▁commentar	-11.5456
▁Hadd	-11.5462
▁Cave	-11.5463
▁Concept	-11.5469
▁Robins	-11.5471
anus	-11.5476
▁Spe	-11.5477
▁Get	-11.548
surance	-11.5482
▁Author	-11.5485
▁winners	-11.5485
▁asset	-11.5486
can	-11.5488
pen	-11.5488
▁rivalr	-11.5491
▁Pit	-11.5493
▁Charit	-11.5495
▁fus	-11.55
limit	-11.5503
fth	-11.5505
itsu	-11.5508
▁dan	-11.5516
▁resist	-11.5523
▁Harbo	-11.5523
▁AP	-11.5527
▁Jenni	-11.5533
▁Writ	-11.5537
aux	-11.5538
▁Cove	-11.5539
▁Cot	-11.5542
HA	-11.5542
acre	-11.5543
par	-11.5546
▁Corn	-11.5553
cation	-11.5553
aku	-11.5554
▁notion	-11.5555
▁fr	-11.5558
CN	-11.5567
▁AL	-11.5575
▁Hip	-11.5578
uke	-11.5581
▁fer	-11.5587
▁Loch	-11.5588
ambu	-11.559
▁accord	-11.5591
▁builder	-11.5594
▁corps	-11.5606
▁Pay	-11.5607
▁societ	-11.5607
olo	-11.5612
▁frontal	-11.5614
▁Royst	-11.5623
IV	-11.5625
▁battles	-11.5631
▁heading	-11.5634
late	-11.5634
▁pac	-11.5638
quet	-11.564
▁Had	-11.5645
bur	-11.5647
▁Past	-11.5652
▁115	-11.5658
pri	-11.5658
▁Sema	-11.5659
▁Domo	-11.5662
▁Stars	-11.5662
ores	-11.5662
een	-11.5662
▁synthesiz	-11.5663
▁seize	-11.5664
▁axi	-11.5664
▁Cho	-11.5667
▁fe	-11.5673
toge	-11.5674
▁Adria	-11.5675
▁Rush	-11.5676
▁chancel	-11.5678
▁Pipe	-11.5678
▁permit	-11.5682
▁div	-11.5683
uarte	-11.5684
cz	-11.5684
▁Observa	-11.5687
▁Cultur	-11.5688
▁ambitio	-11.5689
▁nurser	-11.5692
▁refin	-11.5693
▁Direct	-11.5694
moto	-11.5695
bus	-11.5698
igon	-11.57
iff	-11.57
▁interne	-11.5706
▁compartment	-11.5709
▁triumph	-11.5709
▁Brunswick	-11.571
▁Confederate	-11.571
▁Crystal	-11.571
▁Doofenshmirt	-11.571
▁Hoysala	-11.571
▁Immortal	-11.571
▁Pegg	-11.571
▁Sovereign	-11.571
▁Veeru	-11.571
▁Volunteer	-11.571
▁prolific	-11.571
▁pseudonym	-11.571
▁reassign	-11.571
▁Visual	-11.571
▁judici	-11.571
▁Trouble	-11.571
▁Source	-11.571
▁bottle	-11.571
▁Jaganna	-11.571
▁ultra	-11.571
▁Volume	-11.571
▁prosper	-11.571
▁scout	-11.571
▁Viking	-11.571
▁Complete	-11.571
▁Tucker	-11.571
▁Abram	-11.5711
▁Ghat	-11.5711
▁steer	-11.5711
▁Wilfri	-11.5711
▁vague	-11.5711
▁stuff	-11.5711
▁Wonder	-11.5711
▁quake	-11.5711
▁Chauv	-11.5711
▁fortifi	-11.5711
▁allegation	-11.5711
▁torture	-11.5711
▁Nash	-11.5711
▁Strong	-11.5712
▁betray	-11.5712
▁ylide	-11.5712
▁roost	-11.5712
▁Arama	-11.5712
▁typhoon	-11.5712
▁endanger	-11.5713
▁Describ	-11.5713
▁facade	-11.5714
▁Sieg	-11.5714
▁Colonna	-11.5714
▁blast	-11.5715
▁gull	-11.5716
▁bitter	-11.5716
▁analyse	-11.5717
▁renovation	-11.5717
▁frontier	-11.5717
▁teenager	-11.5717
▁Lowland	-11.5718
▁grace	-11.5718
▁attendant	-11.5719
▁monaster	-11.5719
▁evacuation	-11.572
▁Rico	-11.572
▁comedian	-11.572
▁Hamar	-11.572
▁installation	-11.5721
▁drought	-11.5721
▁Boss	-11.5722
▁750	-11.5723
▁thickness	-11.5724
▁accomplishment	-11.5725
▁layout	-11.5727
▁Laboratory	-11.5729
rivate	-11.5729
▁township	-11.5732
aking	-11.5733
▁Ward	-11.5733
▁Moment	-11.5733
▁colonist	-11.5734
▁mann	-11.5735
col	-11.5736
▁distinction	-11.5736
▁Found	-11.5738
rane	-11.5746
▁sympathetic	-11.5748
▁Kubic	-11.5751
▁worse	-11.5753
▁Escap	-11.5755
▁auto	-11.576
▁virus	-11.576
▁gam	-11.5761
▁fisher	-11.5762
▁fever	-11.5763
▁Pal	-11.5764
MI	-11.5769
▁var	-11.5771
▁Denis	-11.5773
▁elde	-11.5773
▁hail	-11.5775
net	-11.5777
ima	-11.5778
▁Elliot	-11.5779
pad	-11.5781
▁et	-11.5785
▁Eno	-11.5789
▁Sim	-11.5789
bro	-11.5792
▁pal	-11.5801
bh	-11.5802
anyan	-11.5805
▁persona	-11.5824
▁Lev	-11.5826
mani	-11.5842
ano	-11.5843
rak	-11.5846
▁Gerr	-11.5851
▁Store	-11.5852
▁Side	-11.5858
ö	-11.5858
▁periodical	-11.5866
apa	-11.5866
▁Gen	-11.5878
▁Mall	-11.588
▁Dor	-11.5884
▁118	-11.5887
▁archer	-11.5895
critic	-11.5901
nuclea	-11.5902
imol	-11.5906
▁rely	-11.5907
pu	-11.5908
▁refugee	-11.5914
bank	-11.5916
▁Kus	-11.5918
▁summi	-11.592
▁Hunter	-11.5923
rk	-11.5928
▁Zo	-11.5932
eff	-11.5933
▁mega	-11.5934
▁chip	-11.5937
llor	-11.5943
▁Dev	-11.5947
▁mixing	-11.5947
▁Take	-11.5953
▁Dec	-11.5956
evel	-11.5957
▁Put	-11.5965
▁Strat	-11.5967
▁Orso	-11.5969
▁enact	-11.5976
RS	-11.5979
▁arrow	-11.5988
pover	-11.5991
▁Stans	-11.5993
▁synth	-11.5994
reth	-11.6001
izing	-11.6001
manda	-11.6002
▁photography	-11.6003
▁ban	-11.6005
ban	-11.6009
▁Knights	-11.601
▁Ow	-11.6013
▁Din	-11.6017
tical	-11.6018
lie	-11.6021
▁doors	-11.6021
▁recognise	-11.6021
80	-11.6021
▁hom	-11.6029
lf	-11.603
▁Stay	-11.6035
iac	-11.6042
▁Scots	-11.6044
lé	-11.6044
▁focuse	-11.6045
▁Card	-11.6052
aba	-11.6056
▁Astra	-11.6064
ask	-11.6067
▁Gre	-11.6069
▁swimm	-11.6071
éra	-11.6076
▁Laur	-11.6077
▁Winds	-11.6085
▁rocks	-11.6085
zen	-11.6089
▁musc	-11.609
▁proceeding	-11.609
▁phosphor	-11.6093
liot	-11.6099
▁Sid	-11.6099
▁Steven	-11.61
ə	-11.61
⁄	-11.6101
▁Pin	-11.6102
kar	-11.6102
▁motivat	-11.6102
▁reconstruct	-11.6103
▁exercis	-11.6103
▁amphibi	-11.6105
▁license	-11.6106
anagi	-11.6107
rigadier	-11.6108
leasure	-11.6109
▁detach	-11.6109
▁sew	-11.611
▁enclos	-11.611
▁Hungar	-11.611
▁Spirit	-11.611
α	-11.611
▁Gandhi	-11.611
▁Investigation	-11.611
▁Odysse	-11.611
▁Patriarch	-11.611
▁acquisition	-11.611
▁chemotherap	-11.611
▁diminish	-11.611
▁ecosystem	-11.611
▁hymn	-11.611
▁insurgent	-11.611
▁ironclad	-11.611
▁pocket	-11.611
▁sporadic	-11.611
▁unemploy	-11.611
sław	-11.611
▁constituenc	-11.611
▁parodie	-11.611
▁satisfy	-11.611
▁consort	-11.611
▁fission	-11.611
▁grammar	-11.611
▁illuminat	-11.611
▁obsole	-11.611
▁resort	-11.611
▁rumour	-11.611
▁theologian	-11.611
▁width	-11.611
▁concurrent	-11.611
▁dissent	-11.611
▁mound	-11.611
▁embryo	-11.611
▁Savanna	-11.611
▁pretend	-11.6111
▁steamboat	-11.6111
▁honest	-11.6111
▁Muhammad	-11.6111
▁hairstyle	-11.6111
▁Commercial	-11.6111
▁Jacque	-11.6111
▁stiff	-11.6111
▁modification	-11.6111
▁Galile	-11.6111
▁Airlines	-11.6111
▁Fiction	-11.6111
▁Traf	-11.6111
▁Discover	-11.6111
▁assured	-11.6111
▁Sugar	-11.6111
▁massacre	-11.6111
▁Drama	-11.6111
▁consultant	-11.6112
▁Pierre	-11.6112
▁plent	-11.6112
▁LED	-11.6112
▁Homar	-11.6112
▁Proto	-11.6112
▁lung	-11.6112
▁Fletcher	-11.6112
▁nasal	-11.6112
▁expir	-11.6112
▁Hereford	-11.6113
▁rice	-11.6113
▁Arena	-11.6113
▁excessive	-11.6114
▁Newark	-11.6114
▁warrant	-11.6115
▁random	-11.6115
▁sprint	-11.6115
▁Break	-11.6115
▁Nature	-11.6115
▁certification	-11.6115
▁dispos	-11.6116
▁golf	-11.6116
▁Holland	-11.6116
▁Kras	-11.6117
▁Bear	-11.6117
▁Blake	-11.6118
▁Sometime	-11.6118
▁Drive	-11.6118
▁stallion	-11.6119
▁unlock	-11.6121
tus	-11.6122
▁Publication	-11.6124
yat	-11.6125
▁Pict	-11.6125
▁Plen	-11.6126
▁myelo	-11.6127
▁barge	-11.6129
okan	-11.6129
▁260	-11.6133
▁crystal	-11.6134
▁endors	-11.6138
▁Erik	-11.6141
▁Beside	-11.6141
▁Buck	-11.6142
▁prayer	-11.6145
▁Transit	-11.6147
▁indoor	-11.6147
▁capp	-11.6147
▁Cather	-11.615
ison	-11.6153
▁worshipp	-11.6154
▁entit	-11.6156
rín	-11.6157
▁Def	-11.6158
▁RAR	-11.616
▁funnel	-11.6163
▁conception	-11.6164
▁liter	-11.6166
▁consumer	-11.6171
▁ports	-11.6173
▁swell	-11.6177
▁Nag	-11.618
ree	-11.6181
▁pm	-11.6187
▁Tham	-11.6188
avage	-11.6192
bu	-11.62
urrender	-11.6206
▁Kre	-11.6208
hon	-11.6211
▁branche	-11.6217
▁ecolog	-11.6217
▁Sur	-11.6218
▁Kerr	-11.6219
castle	-11.6219
▁leaf	-11.622
▁Fant	-11.6221
▁continent	-11.6221
▁Cass	-11.6222
structure	-11.6223
gett	-11.6225
ović	-11.6227
ider	-11.6228
▁villager	-11.6234
▁terminal	-11.6238
▁dominate	-11.6244
tte	-11.6246
▁oral	-11.6247
▁Zealander	-11.6259
bed	-11.6261
laine	-11.6264
wan	-11.6268
▁derive	-11.6272
▁ser	-11.6272
▁poisoning	-11.6274
▁traveler	-11.6277
eaten	-11.628
▁Mott	-11.6283
▁Ras	-11.6289
▁Administrati	-11.6292
▁Rud	-11.6296
ashi	-11.6296
▁dome	-11.6304
▁Aden	-11.6305
▁CA	-11.6307
▁refuge	-11.6311
▁beta	-11.6314
bonell	-11.6314
▁loyal	-11.6315
▁cure	-11.6318
oxide	-11.6319
▁fears	-11.6319
▁nationalist	-11.6323
nown	-11.6323
force	-11.6326
van	-11.633
eception	-11.6331
▁Core	-11.6342
▁analog	-11.6343
▁persuade	-11.6346
▁Conni	-11.6346
lm	-11.635
▁Authorit	-11.6355
ille	-11.6356
▁Clan	-11.6357
▁grid	-11.6359
owing	-11.6369
▁fed	-11.637
▁Gam	-11.6373
maker	-11.6375
greement	-11.6377
hn	-11.638
▁Stra	-11.6386
▁caps	-11.6389
enic	-11.6394
▁Munic	-11.64
▁modes	-11.6403
▁Cran	-11.6411
east	-11.6417
▁Massa	-11.642
pher	-11.6422
▁contemporar	-11.6424
▁Brave	-11.6424
▁widen	-11.6428
▁Fus	-11.6431
▁Tau	-11.6435
▁Lars	-11.6443
▁organize	-11.6444
▁educat	-11.645
PL	-11.645
sank	-11.6455
Eu	-11.6457
orough	-11.6464
▁footballer	-11.6465
▁Wat	-11.6468
tel	-11.6472
rio	-11.6478
▁emphasize	-11.6478
▁manag	-11.6479
▁carriages	-11.6485
▁trou	-11.649
▁Lauren	-11.6492
uka	-11.6499
tive	-11.6502
void	-11.6505
oceratops	-11.6505
▁Yugoslav	-11.6506
▁Ranger	-11.6506
▁Mes	-11.6507
▁Bute	-11.6514
▁Fernand	-11.6514
▁wis	-11.6515
oyful	-11.6517
▁zoo	-11.6521
▁geograph	-11.6523
▁poster	-11.6523
▁destin	-11.6524
abyrinth	-11.6527
の	-11.6527
▁Municipal	-11.6527
‘	-11.6527
▁Abraham	-11.6527
▁Ambassador	-11.6527
▁Chairman	-11.6527
▁Constantinople	-11.6527
▁Dinosaur	-11.6527
▁Elephant	-11.6527
▁Huguenot	-11.6527
▁Junior	-11.6527
▁Pitcairn	-11.6527
▁Viscount	-11.6527
▁enterprise	-11.6527
▁epithet	-11.6527
▁incorrect	-11.6527
▁irrigat	-11.6527
▁javelin	-11.6527
▁rearguard	-11.6527
▁rehabilitat	-11.6527
▁violacea	-11.6527
▁copper	-11.6527
ː	-11.6527
▁fascinat	-11.6527
▁thorough	-11.6527
▁climax	-11.6527
▁displacement	-11.6527
▁songwriting	-11.6527
▁jacket	-11.6527
▁gauge	-11.6527
▁pianist	-11.6527
▁Palmyra	-11.6527
▁groove	-11.6527
▁spider	-11.6527
▁Metallic	-11.6527
▁grape	-11.6527
▁decree	-11.6527
▁Susan	-11.6527
▁haunt	-11.6527
▁Loft	-11.6527
▁reproduction	-11.6528
iscus	-11.6528
▁distress	-11.6528
Connor	-11.6528
▁referee	-11.6528
▁percussion	-11.6528
▁keen	-11.6528
▁devis	-11.6529
▁oriented	-11.653
▁infant	-11.653
▁downgrad	-11.653
▁Rac	-11.6531
▁barrow	-11.6531
▁GameSp	-11.6531
▁Strange	-11.6531
▁hypha	-11.6532
▁Yeoman	-11.6533
▁Sign	-11.6534
▁tech	-11.6534
ending	-11.6534
▁intent	-11.6534
▁rework	-11.6534
▁mason	-11.6534
▁disagreement	-11.6535
▁innocent	-11.6536
marca	-11.6537
essa	-11.6537
▁partition	-11.6537
▁detective	-11.6537
▁gambl	-11.6537
▁investor	-11.6537
▁Believ	-11.6538
riff	-11.6539
▁deadline	-11.6539
▁consequent	-11.6541
▁hyper	-11.6541
▁DJ	-11.6542
▁brass	-11.6543
▁Iberia	-11.6544
WC	-11.6545
▁farmland	-11.6545
▁Campus	-11.6546
gow	-11.6546
▁Whole	-11.6547
▁organism	-11.6548
▁Rule	-11.6549
▁Roos	-11.6551
▁operative	-11.6553
dad	-11.6553
▁sortie	-11.6555
inz	-11.6557
▁Huai	-11.6557
▁Geograph	-11.6559
▁clinical	-11.6563
▁Bu	-11.6563
▁Parks	-11.6563
▁bibl	-11.6564
▁treasure	-11.6566
enus	-11.6571
▁Fig	-11.6571
aur	-11.6573
▁Rear	-11.6574
▁Match	-11.6574
hk	-11.6575
▁gear	-11.6577
▁assessment	-11.6577
ht	-11.658
▁Ji	-11.6583
▁owl	-11.6586
▁craz	-11.6587
▁Kara	-11.6591
▁Hui	-11.6592
sburg	-11.66
▁Cai	-11.6601
▁Solid	-11.6601
▁Plato	-11.6608
▁oak	-11.6609
▁Eye	-11.6614
▁pecki	-11.6614
▁Aval	-11.6614
ige	-11.6623
▁Era	-11.6626
▁retire	-11.6627
▁Ir	-11.6629
▁ram	-11.6631
▁trailer	-11.6633
▁speculate	-11.6639
▁cliff	-11.6642
▁Grey	-11.6642
nyi	-11.6642
iaduct	-11.6646
▁kun	-11.6648
▁enhanc	-11.6654
▁rod	-11.6656
▁Harmoni	-11.6657
▁accelerat	-11.6658
▁Angle	-11.6663
kov	-11.6663
ennial	-11.6673
▁Riv	-11.6676
▁Hou	-11.6681
band	-11.6687
acy	-11.6693
▁Any	-11.6696
vann	-11.6698
▁Pink	-11.6705
▁Bern	-11.671
▁Indo	-11.6711
▁evaluat	-11.6718
city	-11.6719
▁container	-11.6721
▁Berm	-11.6729
▁Novel	-11.6733
▁Hod	-11.6739
▁Gan	-11.6739
▁Franco	-11.6741
▁hanging	-11.6745
▁Doc	-11.6749
asco	-11.6755
▁mobil	-11.6756
▁Raid	-11.676
▁111	-11.6763
SO	-11.6766
▁ignore	-11.6766
▁hu	-11.6768
▁torn	-11.6768
MW	-11.677
ude	-11.6776
▁Whe	-11.6777
▁integr	-11.6777
▁Too	-11.6778
Cl	-11.6785
ador	-11.6789
ayana	-11.6802
▁laugh	-11.6803
▁sur	-11.6805
▁Sabo	-11.6805
row	-11.681
▁Bree	-11.6812
▁sighting	-11.6812
▁Patter	-11.6819
▁Hib	-11.6819
▁Ye	-11.6822
chary	-11.6823
entine	-11.6829
ouche	-11.6834
▁meal	-11.6836
▁trans	-11.6843
▁seasonal	-11.6844
▁174	-11.6856
iki	-11.686
ignment	-11.6862
▁Nu	-11.6871
▁trauma	-11.6871
oire	-11.6874
awi	-11.6882
shine	-11.6888
▁Comp	-11.6888
▁Econom	-11.6906
▁upgrade	-11.6915
MA	-11.6921
aland	-11.6922
▁wel	-11.6924
▁Herman	-11.6925
▁reserves	-11.6928
rock	-11.6932
▁relieve	-11.6938
▁É	-11.694
▁Bulgaria	-11.694
▁Rhodesia	-11.6941
▁keyboard	-11.6942
▁Electric	-11.6945
▁Collin	-11.6948
harp	-11.6949
lane	-11.6951
▁Select	-11.6954
▁renovat	-11.6954
▁slaver	-11.6954
▁Locat	-11.6954
▁Range	-11.6955
onvention	-11.6957
*	-11.6962
nunciation	-11.6962
~	-11.6962
▁Assistant	-11.6962
▁Individual	-11.6962
▁McLuhan	-11.6962
▁Mobile	-11.6962
▁Senior	-11.6962
▁delicate	-11.6962
▁inferior	-11.6962
▁jurisdiction	-11.6962
▁pronounce	-11.6962
▁sovereign	-11.6962
▁substrate	-11.6962
▁unanimous	-11.6962
▁undergraduate	-11.6962
▁unveil	-11.6962
▁vassal	-11.6962
▁cytoplasm	-11.6962
▁licence	-11.6962
▁scream	-11.6962
Octa	-11.6962
▁Animal	-11.6962
▁odor	-11.6962
▁Ål	-11.6962
▁Affair	-11.6962
▁mosque	-11.6962
▁Wednes	-11.6962
▁surprising	-11.6962
▁demolition	-11.6962
▁lobster	-11.6962
▁Steam	-11.6962
▁stamp	-11.6962
▁spoil	-11.6962
▁agaric	-11.6962
▁chef	-11.6962
▁eager	-11.6962
▁pirate	-11.6962
▁galax	-11.6962
▁Tamil	-11.6962
▁psychological	-11.6962
▁identification	-11.6962
▁Idol	-11.6962
▁accommodation	-11.6962
▁bounc	-11.6962
▁faint	-11.6962
▁Plum	-11.6962
▁flashback	-11.6962
▁legitimate	-11.6962
▁Tempe	-11.6962
▁Reaction	-11.6963
▁pollut	-11.6963
▁Townsville	-11.6963
▁Siberia	-11.6963
▁Antille	-11.6963
▁redevelop	-11.6964
▁arcade	-11.6964
▁Lac	-11.6964
▁remaster	-11.6964
▁proud	-11.6964
▁comparative	-11.6964
▁humorous	-11.6964
▁Diane	-11.6965
▁medley	-11.6965
▁spectator	-11.6965
▁symmetrical	-11.6965
▁Why	-11.6965
▁fertil	-11.6965
▁Triple	-11.6965
▁sponsorship	-11.6966
▁mould	-11.6966
▁teache	-11.6966
▁Claw	-11.6966
▁punish	-11.6967
▁Borea	-11.6967
▁ditch	-11.6967
▁Peace	-11.6967
▁contemplat	-11.6968
▁Chester	-11.6968
▁Tribun	-11.6968
▁Herbi	-11.6968
▁sparse	-11.6968
▁Vocal	-11.6969
▁Kashi	-11.697
▁Personnel	-11.6971
▁graz	-11.6972
▁transformation	-11.6972
▁luck	-11.6974
▁naturalist	-11.6974
▁Voyager	-11.6974
▁Bullet	-11.6975
▁Midland	-11.6975
▁embodi	-11.6975
▁sto	-11.6975
▁satisfie	-11.6977
▁Toward	-11.6978
ussels	-11.698
▁Linds	-11.6981
▁lament	-11.6983
▁wonder	-11.6984
▁Parade	-11.6984
▁ideolog	-11.6985
▁Planet	-11.6986
▁Verme	-11.6987
▁Ragh	-11.6987
▁detonat	-11.6988
▁Iran	-11.6992
▁Isi	-11.6992
hard	-11.6995
▁forag	-11.7001
▁graves	-11.7003
▁irre	-11.7003
▁assignment	-11.7004
▁Beer	-11.7006
▁induc	-11.7006
▁AOC	-11.7006
▁donor	-11.7008
▁tongue	-11.701
▁plateau	-11.701
▁reside	-11.7016
ahl	-11.7017
▁243	-11.7018
▁Johann	-11.7019
kawa	-11.7019
▁mint	-11.7022
fax	-11.7024
▁Chess	-11.7026
▁Dry	-11.7029
▁Corr	-11.7031
prising	-11.7033
▁Highlander	-11.7034
▁Devon	-11.704
pus	-11.7043
bre	-11.7044
▁pressing	-11.7046
aga	-11.7049
mmer	-11.705
▁Rid	-11.7062
▁pan	-11.7068
ient	-11.707
▁facilitate	-11.7078
▁Frankl	-11.7084
▁quest	-11.7085
▁Ant	-11.7091
▁Luk	-11.7099
▁Wein	-11.7101
ope	-11.7105
▁Jill	-11.7106
▁comfort	-11.7106
vant	-11.7112
▁116	-11.7113
ple	-11.7114
▁placement	-11.7114
urgh	-11.7124
▁exceeding	-11.7124
vara	-11.7127
▁Fine	-11.713
▁JT	-11.7131
aig	-11.7133
▁Ule	-11.7133
▁Malaya	-11.7135
horn	-11.7139
▁Fac	-11.7141
▁Futur	-11.7142
▁Amun	-11.7147
▁hypothesis	-11.7153
▁Barr	-11.7157
▁bark	-11.7162
▁neur	-11.7165
mac	-11.7173
▁relian	-11.7174
▁suite	-11.7177
EO	-11.7182
atomic	-11.7182
▁Tin	-11.7183
▁waterway	-11.7185
▁Bron	-11.719
▁municipalit	-11.7191
alis	-11.7195
▁Hardy	-11.7197
▁Luc	-11.7197
asha	-11.7204
urti	-11.7207
Down	-11.7208
isto	-11.721
market	-11.7211
mel	-11.7214
▁rounded	-11.7214
▁gag	-11.7214
strong	-11.7216
mother	-11.7217
▁temper	-11.7219
woman	-11.7222
▁Puppet	-11.7222
witt	-11.7232
cio	-11.7233
rmal	-11.7235
▁Rum	-11.7253
▁Eugen	-11.7262
usa	-11.7266
▁Spy	-11.7268
▁Baye	-11.7271
▁commemorate	-11.7272
▁temperat	-11.7273
▁Lao	-11.7274
▁Mara	-11.7274
▁farms	-11.7275
▁cuts	-11.7276
▁Olivi	-11.7285
▁McMa	-11.7288
▁Safe	-11.7292
cFarlan	-11.7294
▁correspond	-11.7294
▁Fulb	-11.7298
lp	-11.7302
grad	-11.7312
▁Rough	-11.7314
▁ze	-11.7315
▁vin	-11.7321
▁Nanc	-11.7322
▁negotiate	-11.7332
▁Poe	-11.7332
▁127	-11.7335
arch	-11.7338
aving	-11.7339
una	-11.734
▁Dre	-11.7341
▁violat	-11.7345
hawk	-11.7347
stick	-11.7349
jing	-11.7352
scape	-11.7359
ague	-11.7363
ject	-11.7363
▁conc	-11.7366
▁Circu	-11.7367
▁forget	-11.7377
▁prop	-11.7382
▁Jak	-11.7385
ord	-11.7385
▁Merced	-11.7388
▁etc	-11.7389
▁hell	-11.7392
agh	-11.7394
▁propell	-11.7395
▁necessit	-11.7397
▁Therefor	-11.7408
mura	-11.7408
▁televis	-11.7409
▁excited	-11.7409
▁metaphor	-11.7414
▁feat	-11.7415
▁enroll	-11.7416
▁Picture	-11.7416
▁resurrect	-11.7416
▁Agricultur	-11.7416
▁Benedict	-11.7416
▁Environment	-11.7416
▁Portrait	-11.7416
▁Sebasti	-11.7416
▁Tunnel	-11.7416
▁Vaishnav	-11.7416
▁atmospheric	-11.7416
▁client	-11.7416
▁embarrass	-11.7416
▁immense	-11.7416
▁privilege	-11.7416
▁reincarnation	-11.7416
▁revolt	-11.7416
▁submerge	-11.7416
▁prehistor	-11.7416
а	-11.7416
▁Karamok	-11.7416
▁butterfl	-11.7416
▁Snake	-11.7416
▁dorsal	-11.7416
▁Doroth	-11.7416
▁absent	-11.7416
▁wheat	-11.7416
▁Prussia	-11.7416
▁liberal	-11.7416
▁Barbour	-11.7416
▁Continent	-11.7416
▁grasp	-11.7416
▁Flood	-11.7416
▁Zapat	-11.7416
▁postpone	-11.7416
▁WWE	-11.7416
▁bunker	-11.7416
▁invisibl	-11.7417
▁Proctor	-11.7417
▁polar	-11.7417
▁optimis	-11.7417
▁unpopular	-11.7417
▁niece	-11.7417
▁compell	-11.7417
▁input	-11.7417
▁patent	-11.7417
▁Survivor	-11.7417
▁triangle	-11.7417
▁superficial	-11.7417
▁pagan	-11.7417
▁treason	-11.7417
jiang	-11.7417
▁Strait	-11.7417
▁XeF	-11.7418
▁courage	-11.7418
▁persistent	-11.7418
▁loot	-11.7418
herzo	-11.7418
▁outdoor	-11.7418
▁glor	-11.7418
▁Clean	-11.7419
▁oval	-11.7419
▁Hydn	-11.7419
▁Robot	-11.7419
▁niche	-11.742
▁Ltd	-11.742
▁Allāh	-11.7422
RA	-11.7423
▁Gaga	-11.7423
▁enthusiastic	-11.7423
▁cement	-11.7424
▁Petit	-11.7425
▁Money	-11.7425
bot	-11.7426
▁Fashi	-11.7426
▁thriller	-11.7427
▁flatten	-11.7427
▁calculation	-11.7429
occer	-11.743
▁pray	-11.7432
▁370	-11.7432
▁flightless	-11.7434
▁primitiv	-11.7435
▁Rowland	-11.7436
▁Bryan	-11.7436
▁Mycena	-11.7438
extraterrestrial	-11.7438
▁rector	-11.7439
▁1820	-11.744
▁Thorn	-11.7441
▁determination	-11.7441
▁consecrat	-11.7441
▁prediction	-11.7441
▁epi	-11.7443
▁Moravia	-11.7444
▁nude	-11.7445
▁novelist	-11.7446
gu	-11.7448
▁supervisor	-11.7449
▁flu	-11.7451
▁stimulat	-11.7451
▁Beat	-11.7451
▁Thanh	-11.7453
reby	-11.7453
▁Norse	-11.7457
▁Amp	-11.7457
▁discusse	-11.746
▁bead	-11.7463
▁Luck	-11.7464
▁tribe	-11.7467
dian	-11.7469
▁suck	-11.7469
▁rotat	-11.7471
nte	-11.7471
▁inspect	-11.7472
▁Cent	-11.7473
▁Hat	-11.7478
▁Comet	-11.7479
▁dictator	-11.7481
▁Ven	-11.7482
▁Mason	-11.7483
▁cal	-11.7486
▁shame	-11.7488
▁Writer	-11.749
▁Imp	-11.7494
▁137	-11.7495
▁Standing	-11.7497
mal	-11.7503
IA	-11.7504
litz	-11.7509
rog	-11.751
▁explode	-11.7512
▁theoretical	-11.7515
▁Gua	-11.752
▁ironic	-11.7524
▁popula	-11.7528
apoli	-11.7529
▁Lowe	-11.753
▁Pitt	-11.753
▁constitute	-11.7538
▁Raj	-11.7543
▁Gle	-11.7548
bec	-11.755
▁Commissioner	-11.755
▁dar	-11.7554
▁labell	-11.7554
▁Draw	-11.7563
entral	-11.7568
une	-11.7569
▁Leg	-11.757
pple	-11.7571
DR	-11.7583
▁Kil	-11.7585
▁chi	-11.7587
▁Sham	-11.7589
▁Member	-11.759
▁Rad	-11.759
▁bag	-11.7591
▁shorten	-11.7591
▁Palen	-11.7591
digg	-11.7593
▁Aero	-11.7593
▁Gia	-11.7596
▁constitutional	-11.7596
VA	-11.7598
cc	-11.7605
llah	-11.7605
ricon	-11.7606
▁retro	-11.7608
▁Nek	-11.7612
▁commando	-11.7617
▁neo	-11.7628
▁lecture	-11.7631
num	-11.7635
▁smok	-11.7641
▁Lyn	-11.7646
meter	-11.7652
▁fragili	-11.7654
▁Net	-11.7659
igh	-11.7664
▁ye	-11.7667
parts	-11.767
▁Julie	-11.767
grass	-11.7684
tland	-11.7684
Music	-11.7685
org	-11.7686
rig	-11.7691
▁Ono	-11.7692
▁Tata	-11.7697
▁Beyon	-11.77
uez	-11.7702
▁Dra	-11.7717
anga	-11.7717
▁reunit	-11.772
list	-11.7722
▁Burt	-11.7723
▁missionar	-11.7723
▁Kumar	-11.7724
▁tow	-11.7725
ika	-11.7729
ista	-11.773
▁commend	-11.7731
▁RAF	-11.7734
form	-11.7734
pre	-11.7734
▁Cabr	-11.7736
▁Pont	-11.7736
moor	-11.7741
▁Xin	-11.7741
▁pope	-11.7742
cast	-11.7743
nati	-11.7746
▁Scha	-11.775
bove	-11.7752
mato	-11.7756
▁modell	-11.7761
hapur	-11.7765
▁Sali	-11.778
azi	-11.7783
ua	-11.7787
▁facilitat	-11.7798
▁Raw	-11.78
▁Flo	-11.7803
▁Vale	-11.7807
▁Masa	-11.7813
▁excavat	-11.7814
phi	-11.7815
uga	-11.7816
▁accessib	-11.7817
oil	-11.7817
▁Cann	-11.7827
▁gentle	-11.7829
▁screening	-11.783
ushing	-11.7833
▁regulate	-11.7835
▁ac	-11.7835
▁unre	-11.7836
▁sampl	-11.7842
▁glaci	-11.7845
▁sensation	-11.7848
blo	-11.7856
▁Est	-11.7857
▁iT	-11.786
haps	-11.7864
inae	-11.7866
▁Wey	-11.7868
▁prominen	-11.7869
▁recreation	-11.7872
rez	-11.7872
▁IR	-11.7874
onic	-11.7874
▁commence	-11.7875
▁distract	-11.7884
stan	-11.7885
▁Champ	-11.7885
▁Arabia	-11.7889
▁Fight	-11.789
yphoon	-11.789
▁bombard	-11.789
▁twel	-11.7891
▁Ukrain	-11.7891
▁killer	-11.7891
▁morpholog	-11.7891
▁Buddh	-11.7892
æ	-11.7892
▁Certain	-11.7892
▁Cossack	-11.7892
▁Disappear	-11.7892
▁Oswald	-11.7892
▁Statistic	-11.7892
▁artefact	-11.7892
▁beneficia	-11.7892
▁caravan	-11.7892
▁envision	-11.7892
▁hazard	-11.7892
▁hybrid	-11.7892
▁incumbent	-11.7892
▁insufficient	-11.7892
▁migrant	-11.7892
▁supernova	-11.7892
▁vigorous	-11.7892
▁Hubbard	-11.7892
▁etymolog	-11.7892
▁Appeal	-11.7893
▁Ælfr	-11.7893
▁Sleep	-11.7893
▁Klingon	-11.7893
▁outpost	-11.7893
▁choral	-11.7893
▁democra	-11.7893
▁Marvel	-11.7893
▁gravitational	-11.7893
▁unhapp	-11.7893
▁Nottingham	-11.7893
akapo	-11.7893
▁Buckingham	-11.7893
▁PSP	-11.7893
▁Pilot	-11.7893
▁Dangerous	-11.7893
▁Stead	-11.7893
▁larva	-11.7893
▁vicar	-11.7893
▁Sector	-11.7893
▁Standard	-11.7893
▁eucalypt	-11.7893
▁Hamlet	-11.7893
▁subsidiar	-11.7893
▁purpl	-11.7893
▁wonderful	-11.7893
▁plaster	-11.7893
▁compact	-11.7894
▁olive	-11.7894
▁timeslot	-11.7894
▁Kaiser	-11.7894
▁Peronist	-11.7894
▁imagine	-11.7894
▁Testament	-11.7894
▁Exit	-11.7894
▁textile	-11.7894
▁Quarter	-11.7895
▁Torch	-11.7895
▁faithful	-11.7896
▁distortion	-11.7896
▁pigment	-11.7896
▁Glam	-11.7896
▁obligation	-11.7896
▁dinner	-11.7896
▁Manual	-11.7897
▁smart	-11.7897
▁sociolog	-11.7897
▁Armour	-11.7897
▁fret	-11.7897
▁philosophical	-11.7897
▁fond	-11.7898
▁Nic	-11.7898
▁tyre	-11.7898
▁rebound	-11.7899
▁occurrence	-11.79
▁joy	-11.79
▁laser	-11.7901
▁hinder	-11.7902
▁Evil	-11.7902
▁Hyder	-11.7902
▁wield	-11.7903
hattan	-11.7903
▁innovation	-11.7903
fusion	-11.7903
▁penis	-11.7903
▁calculator	-11.7904
▁Indoor	-11.7904
▁frustration	-11.7905
▁preservation	-11.7906
▁280	-11.7906
▁extract	-11.7907
▁Indiana	-11.7908
▁Benson	-11.7908
iers	-11.791
▁Bosnian	-11.7913
▁Traditional	-11.7913
▁Cabo	-11.7913
▁Baja	-11.7914
▁overnight	-11.7915
▁insight	-11.7917
▁procedure	-11.7919
▁protector	-11.7923
▁Hild	-11.7924
▁Valu	-11.7925
▁sentimental	-11.7925
▁Fighter	-11.7926
state	-11.7927
DP	-11.7929
▁FC	-11.7929
▁bacteria	-11.7929
▁reconcile	-11.7932
▁assassinat	-11.7935
▁Milan	-11.7936
▁Ibar	-11.7937
▁indication	-11.7938
▁bleed	-11.7939
▁plastic	-11.794
▁Gambia	-11.7941
▁275	-11.7944
▁hostilit	-11.7947
▁Soul	-11.7948
▁Qin	-11.7949
▁Oste	-11.7949
ngular	-11.7952
urnpike	-11.7952
dra	-11.7952
▁Reading	-11.7956
▁marine	-11.7957
▁blown	-11.7959
morph	-11.7962
▁Geast	-11.7968
▁stabiliz	-11.7971
▁satiric	-11.7972
udor	-11.7975
ida	-11.7978
NS	-11.798
▁Brent	-11.7984
▁progresses	-11.7985
yādvāda	-11.7985
▁nonsens	-11.7986
▁Gris	-11.7993
▁Barre	-11.7994
tom	-11.7997
▁320	-11.7998
▁Travel	-11.7999
▁Mond	-11.7999
ister	-11.8
▁Tamp	-11.8001
▁Kno	-11.8002
▁prot	-11.8003
▁undert	-11.8007
▁cart	-11.8009
beat	-11.801
▁Bend	-11.8012
graph	-11.8016
▁discharge	-11.8018
▁Edinb	-11.8021
Q	-11.8026
▁dresse	-11.8027
▁logg	-11.8029
▁Mongolia	-11.8035
ddie	-11.8038
▁Slo	-11.8046
▁degrad	-11.8048
▁Step	-11.8048
▁pat	-11.8052
▁Reg	-11.8055
▁Word	-11.8056
▁Notabl	-11.8057
▁captive	-11.8064
onso	-11.8065
▁Em	-11.8067
▁patroll	-11.8067
▁freed	-11.8068
▁Cassin	-11.8069
▁Berli	-11.8082
hang	-11.8088
idio	-11.8093
▁traverse	-11.8103
grove	-11.8104
opa	-11.8111
new	-11.8113
tters	-11.8121
xi	-11.8123
atti	-11.8125
▁contrar	-11.8132
▁aft	-11.8133
yang	-11.8136
itu	-11.8138
CI	-11.8138
▁Hank	-11.8144
▁precipitat	-11.8147
iate	-11.8152
piece	-11.8159
▁Cit	-11.816
▁FO	-11.8162
▁moons	-11.8163
care	-11.8164
▁user	-11.8167
gua	-11.8175
▁distribute	-11.8177
▁Flor	-11.8177
realm	-11.818
erous	-11.818
view	-11.818
FC	-11.8181
▁Pompe	-11.8183
Arthur	-11.8184
▁dece	-11.8184
▁abnormal	-11.8185
boat	-11.819
▁alternat	-11.8201
▁realm	-11.8206
▁SM	-11.8209
▁beache	-11.8213
▁translate	-11.8215
lac	-11.8218
tub	-11.8224
▁Patt	-11.8226
szt	-11.8229
▁unus	-11.8233
▁Cat	-11.8239
▁Ame	-11.824
▁organizer	-11.824
▁Wr	-11.8243
▁Jur	-11.8248
master	-11.8248
▁Osa	-11.8251
zor	-11.8255
▁Whi	-11.8255
kins	-11.8259
▁VH	-11.8259
▁migrate	-11.8261
▁153	-11.8273
▁Mana	-11.8281
run	-11.8282
bia	-11.8288
▁gale	-11.8296
▁Aret	-11.8297
▁Diam	-11.83
RE	-11.8303
▁brush	-11.8304
▁Herr	-11.8305
▁Figg	-11.8307
▁HD	-11.8313
itch	-11.8314
▁mandat	-11.8328
ç	-11.8331
▁dean	-11.8335
▁assassin	-11.8336
CP	-11.8337
▁Georg	-11.8341
▁Gel	-11.8341
▁Turn	-11.8344
▁Bab	-11.8345
▁GB	-11.835
▁480	-11.8363
▁submit	-11.8366
▁Shi	-11.8368
▁Bosnia	-11.8371
▁ancestr	-11.8376
▁Claire	-11.8377
▁dish	-11.8378
▁Crusade	-11.8383
▁Region	-11.8384
▁leukem	-11.8391
▁vertebra	-11.8391
▁terror	-11.8391
▁testimon	-11.8391
ი	-11.8392
▁Communication	-11.8392
▁ESPN	-11.8392
▁HBO	-11.8392
▁Krishna	-11.8392
▁McDougal	-11.8392
▁Orthodox	-11.8392
▁Phoenician	-11.8392
▁Salvador	-11.8392
▁Tamaulipas	-11.8392
▁Templar	-11.8392
▁Wizard	-11.8392
▁abstract	-11.8392
▁artifact	-11.8392
▁authentic	-11.8392
▁dreadnought	-11.8392
▁ecclesiastic	-11.8392
▁emplacement	-11.8392
▁globe	-11.8392
▁invertebrate	-11.8392
▁kilogram	-11.8392
▁knuckleball	-11.8392
▁manoeuvre	-11.8392
▁nervous	-11.8392
▁prostitute	-11.8392
▁receptor	-11.8392
▁scratch	-11.8392
▁verdict	-11.8392
▁Century	-11.8392
▁allegiance	-11.8392
▁befriend	-11.8392
▁defect	-11.8392
▁trivial	-11.8392
▁click	-11.8393
▁collid	-11.8393
▁notorious	-11.8393
▁robust	-11.8393
▁Movement	-11.8393
▁burden	-11.8393
▁reclaim	-11.8393
▁Auckland	-11.8393
▁compatib	-11.8393
▁Nguy	-11.8393
▁imprint	-11.8393
▁deplet	-11.8393
▁scandal	-11.8393
▁smell	-11.8393
▁await	-11.8393
▁Swamp	-11.8393
▁Glitt	-11.8393
▁augment	-11.8393
▁Frost	-11.8393
▁mourn	-11.8393
▁podium	-11.8393
▁criteri	-11.8393
▁Picard	-11.8393
▁Duncan	-11.8393
▁Mozambican	-11.8393
▁creep	-11.8393
▁Googl	-11.8393
▁Window	-11.8393
▁fraction	-11.8393
▁admission	-11.8393
▁rope	-11.8393
▁strand	-11.8393
▁syllable	-11.8393
riu	-11.8394
▁exert	-11.8394
▁Otto	-11.8394
▁haul	-11.8394
agoda	-11.8394
▁vowel	-11.8394
▁preference	-11.8394
▁Dirt	-11.8394
▁dump	-11.8394
▁Observation	-11.8394
▁Conservative	-11.8394
▁omitt	-11.8394
▁Self	-11.8394
▁courtyard	-11.8395
ural	-11.8395
▁physician	-11.8395
▁Reign	-11.8396
▁Duchess	-11.8396
▁summariz	-11.8396
▁Lemon	-11.8396
▁Craig	-11.8396
▁rec	-11.8397
▁addict	-11.8397
▁motive	-11.8397
▁stance	-11.8397
▁Panther	-11.8398
▁Influence	-11.8399
▁attest	-11.8399
▁Cedar	-11.8399
chel	-11.84
▁Foot	-11.84
▁hub	-11.8401
▁Warwick	-11.8401
▁Barbie	-11.8402
▁lip	-11.8402
▁Creation	-11.8402
▁Hood	-11.8402
▁daylight	-11.8402
▁Casa	-11.8402
▁testifie	-11.8403
▁Bosi	-11.8404
▁Montagu	-11.8404
▁cheese	-11.8404
▁Flash	-11.8405
Ellen	-11.8406
▁Ivan	-11.8407
▁166	-11.8408
▁megalith	-11.8412
▁stripp	-11.8412
▁laud	-11.8413
▁Finch	-11.8414
mic	-11.8417
▁Bulgarian	-11.8417
▁generator	-11.8418
rac	-11.8418
▁Toro	-11.8419
▁Mood	-11.8419
▁Oil	-11.8419
▁diversion	-11.8422
▁Madre	-11.8423
guan	-11.8426
▁Pitch	-11.8428
eć	-11.8428
▁Hollow	-11.8429
▁demi	-11.843
▁Political	-11.843
▁Napa	-11.8431
▁pi	-11.8431
▁communal	-11.8431
▁Gir	-11.8432
▁Bann	-11.8433
ogenes	-11.8434
▁iconograph	-11.8435
▁sewer	-11.8436
▁Ern	-11.8438
▁clade	-11.844
▁Architectur	-11.8441
▁attacker	-11.8443
▁Date	-11.8444
▁Serge	-11.8444
▁IU	-11.8447
▁objection	-11.8448
▁cartoon	-11.8451
▁Pier	-11.8453
▁Dub	-11.8453
▁Vision	-11.8454
rdan	-11.8455
strov	-11.846
▁carriage	-11.8462
▁adoption	-11.8464
▁Worth	-11.8465
▁forecast	-11.8465
▁cite	-11.847
▁Minsk	-11.8471
▁pledg	-11.8471
dish	-11.8473
▁blu	-11.8476
▁hitter	-11.8476
▁dismissal	-11.8479
▁Hunt	-11.8483
▁ret	-11.8484
▁pathway	-11.8486
▁Amy	-11.8486
▁hammer	-11.8487
▁logical	-11.8492
▁oversee	-11.8492
▁shooter	-11.8492
azz	-11.8495
▁regulat	-11.8495
▁institute	-11.8504
▁Stage	-11.8513
▁infra	-11.8514
▁proven	-11.8515
▁prosecuti	-11.8526
▁keeper	-11.8539
▁Ord	-11.8541
▁Mul	-11.8548
▁Universe	-11.8549
▁jumps	-11.8556
wyn	-11.8566
▁Cooke	-11.8568
cular	-11.8569
▁fictionaliz	-11.8571
andis	-11.8573
▁consume	-11.8583
▁Hears	-11.8584
▁lease	-11.8588
▁Sau	-11.8588
▁Monte	-11.8589
▁Nico	-11.8591
▁seller	-11.8594
▁refit	-11.8595
▁pr	-11.8597
▁Chick	-11.8599
▁logo	-11.8605
wer	-11.8606
▁Sav	-11.8609
▁rider	-11.8621
iego	-11.8625
▁dot	-11.8635
▁Shah	-11.8636
▁MI	-11.8636
▁ceremoni	-11.8637
▁Fre	-11.8641
▁mot	-11.8641
▁fragil	-11.8649
▁Hum	-11.8652
inje	-11.866
▁Reco	-11.8664
▁Seg	-11.8667
▁disappointing	-11.8671
▁bor	-11.8677
▁Wii	-11.8679
uras	-11.8686
ft	-11.8689
▁Gul	-11.8693
▁Bet	-11.8695
powder	-11.8705
identifi	-11.8708
rank	-11.8708
istan	-11.8709
▁Santi	-11.8711
tention	-11.8711
opter	-11.8716
▁liken	-11.8723
gin	-11.8726
▁Timo	-11.8731
▁overt	-11.8731
▁recit	-11.8731
▁145	-11.8733
▁Zin	-11.8734
▁Pick	-11.8736
loo	-11.8736
ī	-11.874
▁comfortabl	-11.8747
▁tag	-11.8749
▁Num	-11.8752
▁lean	-11.8753
▁Paper	-11.8756
▁Ment	-11.8758
thick	-11.8759
▁Nir	-11.8765
▁sounding	-11.8772
corporate	-11.8777
▁visib	-11.8786
▁Gros	-11.8797
▁commun	-11.8815
▁Lenn	-11.8816
cin	-11.882
laza	-11.8823
atur	-11.8824
▁Disc	-11.883
▁camel	-11.883
▁dominan	-11.8831
SC	-11.8835
litude	-11.8836
▁ox	-11.8841
emma	-11.8841
▁Fil	-11.8842
▁constitut	-11.8849
▁stripe	-11.885
orge	-11.8852
▁Emer	-11.8852
▁Pian	-11.8854
lide	-11.8855
bon	-11.8857
lage	-11.8859
▁substitut	-11.8859
ambo	-11.8859
▁equall	-11.8861
▁outlin	-11.8868
pel	-11.8868
▁conform	-11.887
hler	-11.8872
▁equat	-11.8874
▁oh	-11.889
▁badge	-11.8892
▁Por	-11.8895
▁ero	-11.8896
nna	-11.89
▁Princip	-11.8902
hant	-11.8904
▁Glo	-11.8905
runk	-11.8906
ET	-11.8907
ui	-11.891
▁sperm	-11.891
▁teenage	-11.8911
▁robot	-11.8914
▁magnet	-11.8915
link	-11.8915
rnissart	-11.8916
lake	-11.8917
▁Phoe	-11.8917
▁royalt	-11.8917
▁autonom	-11.8917
eft	-11.8918
▁650	-11.8918
ootleg	-11.8918
▁advent	-11.8918
▁spear	-11.8918
▁Isabel	-11.8918
ς	-11.8919
▁Amateur	-11.8919
▁Antarctic	-11.8919
▁Experience	-11.8919
▁Hundred	-11.8919
▁Orchestra	-11.8919
▁Seymour	-11.8919
▁Sovetsk	-11.8919
▁Veerashaiva	-11.8919
▁bankrupt	-11.8919
▁bohemi	-11.8919
▁clerk	-11.8919
▁clutch	-11.8919
▁custod	-11.8919
▁disadvantage	-11.8919
▁entrench	-11.8919
▁immortal	-11.8919
▁librett	-11.8919
▁nutrient	-11.8919
▁pharaoh	-11.8919
▁recipient	-11.8919
▁revelation	-11.8919
▁shadow	-11.8919
▁unnecessar	-11.8919
▁Diarma	-11.8919
▁Rodrigue	-11.8919
▁reptile	-11.8919
▁smuggl	-11.8919
▁knife	-11.8919
▁solitar	-11.8919
▁escalat	-11.8919
▁plural	-11.8919
▁dismay	-11.8919
▁reorganis	-11.8919
▁Eurasia	-11.8919
▁spontaneous	-11.8919
▁oxidati	-11.8919
▁veil	-11.8919
▁Bronze	-11.8919
▁Basket	-11.8919
▁Kristians	-11.8919
▁Lisbon	-11.8919
▁endorsement	-11.8919
▁glee	-11.8919
▁Annual	-11.8919
▁Fleming	-11.8919
▁clever	-11.8919
▁tobacco	-11.8919
▁guess	-11.8919
▁Friday	-11.8919
▁Honour	-11.8919
▁earthstar	-11.8919
▁storytell	-11.8919
▁apprentice	-11.8919
▁flotilla	-11.8919
▁bubble	-11.892
▁adorn	-11.892
▁Soft	-11.892
▁precious	-11.892
▁Bluff	-11.892
▁humid	-11.892
▁gait	-11.892
▁plaque	-11.892
▁Ricci	-11.892
▁derivative	-11.892
▁slab	-11.892
▁bucket	-11.892
▁Pictures	-11.892
mpact	-11.892
▁bulkhead	-11.892
▁resent	-11.892
▁forgot	-11.892
▁Venge	-11.892
▁praet	-11.8921
▁hollow	-11.8921
▁Certification	-11.8921
▁lust	-11.8921
▁merit	-11.8921
▁pot	-11.8921
▁Update	-11.8921
ów	-11.8921
▁classroom	-11.8921
▁outnumber	-11.8922
▁Whig	-11.8922
▁subtle	-11.8922
▁Recent	-11.8922
▁robe	-11.8922
▁Election	-11.8922
▁depot	-11.8923
▁vein	-11.8923
▁ballot	-11.8924
▁millenni	-11.8924
▁clan	-11.8925
▁pew	-11.8925
▁editorial	-11.8925
▁Speak	-11.8925
▁Wanna	-11.8926
▁divide	-11.8926
▁bestow	-11.8926
▁fantastic	-11.8927
▁gems	-11.8927
▁Peck	-11.8927
▁tele	-11.8928
▁midfielder	-11.8928
ridan	-11.8929
▁Pike	-11.8929
▁wetland	-11.893
▁Calder	-11.893
▁composite	-11.8931
▁reinstate	-11.8931
▁devil	-11.8932
brook	-11.8932
▁Marty	-11.8933
▁spinn	-11.8933
aro	-11.8934
▁Bee	-11.8934
etropolitan	-11.8937
▁Ric	-11.8937
▁Gof	-11.8939
▁logistical	-11.8939
fume	-11.894
▁packag	-11.8941
▁Zone	-11.8941
▁southward	-11.8941
▁soap	-11.8941
lent	-11.8942
▁bent	-11.8943
▁Wool	-11.8944
▁Danish	-11.8946
▁terminat	-11.8946
▁ethic	-11.8949
▁Theodore	-11.8949
▁tendenc	-11.895
▁elector	-11.895
▁Blair	-11.895
▁delet	-11.8951
▁verbal	-11.8951
▁Julia	-11.8952
▁propeller	-11.8954
▁guitars	-11.8958
▁Shiba	-11.8962
▁specifi	-11.8964
▁317	-11.8964
▁Owe	-11.8968
oT	-11.8969
▁excite	-11.8969
▁cater	-11.897
ional	-11.8973
▁Sex	-11.8973
▁Wide	-11.8973
▁undern	-11.8974
▁lyric	-11.8975
▁granit	-11.8976
▁Biographer	-11.8976
▁Oah	-11.898
▁carbonari	-11.898
cene	-11.8985
resco	-11.8986
▁Lesser	-11.8989
▁Milk	-11.899
▁Plann	-11.8991
dden	-11.8992
▁shopp	-11.8992
▁residue	-11.8993
▁mess	-11.8993
▁Twic	-11.8996
▁Treasur	-11.8997
▁chromosome	-11.9001
▁improvis	-11.9001
▁financ	-11.9003
▁103	-11.9009
▁Lone	-11.9013
▁ab	-11.9014
ency	-11.9018
tti	-11.9022
▁Moth	-11.9022
▁sir	-11.9023
▁expose	-11.9032
▁Liber	-11.9033
▁specialis	-11.9033
RC	-11.9036
▁typ	-11.9038
▁Ramon	-11.9049
semen	-11.9055
▁assumption	-11.9056
cci	-11.9057
▁enduring	-11.9059
▁southwester	-11.9062
racks	-11.9062
rap	-11.9064
pector	-11.9072
▁Cinema	-11.9073
eller	-11.9074
▁Marcell	-11.908
▁fa	-11.9081
▁138	-11.9082
▁Cop	-11.9084
hari	-11.9085
ovi	-11.9086
▁tracking	-11.9087
▁Maine	-11.9093
▁confess	-11.9093
▁hire	-11.9099
▁Rik	-11.91
▁Plant	-11.9115
▁104	-11.9116
▁interactiv	-11.9117
▁Mun	-11.9119
▁sentenc	-11.912
ulf	-11.9125
▁presid	-11.9126
▁bout	-11.9127
ould	-11.9128
▁Nf	-11.9133
▁convenien	-11.9136
▁cre	-11.9137
▁portal	-11.9138
chen	-11.9143
▁viewer	-11.9148
▁receiver	-11.9151
ugh	-11.9152
ket	-11.9156
nom	-11.916
bil	-11.9162
▁spare	-11.9164
▁approve	-11.9167
▁popularis	-11.9171
ascar	-11.9172
▁addresse	-11.9172
▁Cort	-11.9173
▁outage	-11.9175
▁lo	-11.9183
▁liberat	-11.9184
▁morel	-11.9188
yclone	-11.9194
rake	-11.9196
gent	-11.9201
rke	-11.9202
▁nitro	-11.9204
▁vint	-11.9206
gamer	-11.9207
erson	-11.9212
▁unc	-11.9217
▁Ely	-11.9217
▁lone	-11.9226
erff	-11.9229
▁Thirt	-11.9244
estig	-11.9247
▁Gama	-11.9252
Pol	-11.9261
▁NCA	-11.9262
ˈ	-11.9263
folk	-11.927
Art	-11.9272
bird	-11.9273
roe	-11.9273
▁Elio	-11.9274
chair	-11.9275
enberg	-11.9277
lese	-11.928
▁voter	-11.9283
▁Hamp	-11.9292
HF	-11.9297
mire	-11.9305
fold	-11.9306
▁Pul	-11.9308
BSA	-11.9308
▁Mongol	-11.931
ottam	-11.9311
▁undertake	-11.9314
▁Cand	-11.9315
nish	-11.9318
▁file	-11.932
▁Ice	-11.932
arvin	-11.9324
▁Yea	-11.9327
▁manor	-11.9327
oma	-11.933
▁tea	-11.9331
▁lab	-11.9336
▁inspire	-11.9345
▁Verti	-11.9349
▁stretche	-11.9352
ouser	-11.9354
endra	-11.9356
▁Labor	-11.9356
▁suspens	-11.9358
▁surve	-11.9373
actic	-11.9374
stand	-11.9395
▁Stopp	-11.9398
iful	-11.941
▁merc	-11.9421
▁Worthing	-11.9423
but	-11.9425
▁Drum	-11.9428
ilda	-11.9429
▁178	-11.943
▁Politic	-11.9434
▁Kill	-11.9434
bra	-11.9437
incin	-11.944
▁dissolv	-11.9442
ibilit	-11.9445
nock	-11.9448
uki	-11.9457
ose	-11.9458
▁outrage	-11.9458
▁announce	-11.946
▁Trav	-11.946
▁Connecti	-11.9461
icide	-11.9462
▁heroin	-11.9464
▁trib	-11.9465
▁Montenegr	-11.9466
▁advert	-11.9467
▁Bert	-11.947
▁idol	-11.9471
ú	-11.9472
oulevard	-11.9473
há	-11.9473
▁folklor	-11.9474
▁abrupt	-11.9474
▁confiscat	-11.9474
▁Advertis	-11.9474
▁Beethoven	-11.9474
▁Byzantine	-11.9474
▁Czech	-11.9474
▁Hemisphere	-11.9474
▁Nucle	-11.9474
▁Powder	-11.9474
▁Professional	-11.9474
▁Venezuela	-11.9474
▁candidac	-11.9474
▁denounc	-11.9474
▁immature	-11.9474
▁millimetre	-11.9474
▁mosaic	-11.9474
▁mycologist	-11.9474
▁offspring	-11.9474
▁sulfur	-11.9474
▁virtuos	-11.9474
▁regret	-11.9474
▁sophisticat	-11.9474
▁sprite	-11.9474
▁thunderstorm	-11.9474
▁volley	-11.9474
▁workshop	-11.9474
▁Providen	-11.9474
▁patriot	-11.9474
▁staircase	-11.9474
▁maskray	-11.9474
▁encod	-11.9474
▁flexib	-11.9474
▁Tsuba	-11.9474
▁swift	-11.9474
▁cottage	-11.9474
▁cardinal	-11.9474
▁Previous	-11.9474
▁oath	-11.9474
▁truncat	-11.9474
▁Dragon	-11.9475
▁Cornwall	-11.9475
▁choreograph	-11.9475
▁Terri	-11.9475
▁sensor	-11.9475
▁Totten	-11.9475
▁lavish	-11.9475
▁curricul	-11.9475
▁elongat	-11.9475
▁Stephan	-11.9475
▁calendar	-11.9475
▁sawmill	-11.9475
▁lunch	-11.9475
▁nomad	-11.9475
▁Acre	-11.9475
▁Continu	-11.9475
▁Fortune	-11.9475
▁marsh	-11.9475
▁rapper	-11.9475
▁Prasad	-11.9475
▁Awake	-11.9475
▁bride	-11.9475
▁Diction	-11.9475
▁André	-11.9476
▁prefecture	-11.9476
▁shatter	-11.9476
▁nut	-11.9476
▁Franç	-11.9476
▁catalogue	-11.9476
▁portico	-11.9476
▁invok	-11.9476
▁unchang	-11.9476
▁interval	-11.9477
▁sandstone	-11.9477
▁transcrib	-11.9477
▁ordinat	-11.9477
▁Anime	-11.9477
▁garage	-11.9477
▁medicine	-11.9477
▁cubic	-11.9477
▁manifestation	-11.9477
elope	-11.9477
▁Sicil	-11.9477
▁physicist	-11.9477
▁nominal	-11.9478
▁Jump	-11.9478
▁instant	-11.9478
▁Stalin	-11.9478
▁Promotion	-11.9478
▁eminent	-11.9478
▁paperback	-11.9478
▁smash	-11.9478
▁Finance	-11.9479
▁Jesuit	-11.9479
▁disappearance	-11.9479
▁nestling	-11.9481
assl	-11.9481
▁amend	-11.9481
▁instructor	-11.9481
▁discern	-11.9482
▁columnist	-11.9482
shrink	-11.9483
▁Grammar	-11.9483
▁conformation	-11.9483
▁defi	-11.9484
▁panther	-11.9484
▁Sclerodermat	-11.9485
▁relic	-11.9485
▁Underwood	-11.9486
▁Variet	-11.9487
▁canyon	-11.9488
▁910	-11.9489
rdam	-11.949
▁Driver	-11.949
▁coil	-11.9492
▁Beatle	-11.9492
▁Julius	-11.9493
▁Regional	-11.9493
▁1500	-11.9494
▁intensive	-11.9494
▁racist	-11.9494
▁Borgn	-11.9496
▁Snell	-11.9496
▁clearance	-11.9497
inrich	-11.9497
▁disruption	-11.9497
▁filmmaker	-11.9498
titl	-11.95
▁microscopic	-11.9501
▁lobb	-11.9503
▁keyboards	-11.9505
▁abolition	-11.9506
▁reserv	-11.9506
ervis	-11.9507
▁worsen	-11.9508
▁downward	-11.9509
▁maker	-11.9509
▁Trent	-11.9517
pine	-11.9518
▁intern	-11.9524
▁Epi	-11.9526
▁Java	-11.9526
enz	-11.9528
ourage	-11.9528
▁Kam	-11.9529
▁Tyr	-11.9529
▁SF	-11.9531
▁canop	-11.9532
▁Lex	-11.9533
▁emitt	-11.9533
pec	-11.9538
trophy	-11.9539
▁Armor	-11.9539
▁Kiss	-11.9541
▁mills	-11.9543
▁observer	-11.9543
▁rejection	-11.9547
▁Economic	-11.9547
uan	-11.9547
▁upward	-11.9553
▁Sai	-11.9553
▁sk	-11.9556
eki	-11.9561
TO	-11.9564
core	-11.9565
874	-11.9569
lington	-11.9572
▁infest	-11.9575
▁Wilder	-11.9575
▁Body	-11.9576
ruiserweight	-11.9577
▁diocese	-11.9579
▁strings	-11.9579
ovenant	-11.958
▁compensate	-11.9581
▁Bud	-11.9584
▁Bin	-11.9585
▁ob	-11.9587
▁Sylvi	-11.9589
▁citizen	-11.9592
▁Bour	-11.9595
▁modest	-11.9595
tour	-11.9595
▁Rog	-11.9597
adar	-11.9597
▁petrol	-11.9599
▁Rou	-11.96
cott	-11.9601
▁Harv	-11.9601
pping	-11.9605
▁buff	-11.9609
▁Hob	-11.961
▁tar	-11.9614
▁whistle	-11.9615
▁Capill	-11.9618
▁Syno	-11.962
lotype	-11.962
mission	-11.9627
▁154	-11.9627
▁sphere	-11.963
lett	-11.9635
▁localiz	-11.9636
▁Dare	-11.9637
▁pile	-11.9643
▁rob	-11.9647
style	-11.9653
▁Chay	-11.9653
▁Chuck	-11.9657
▁Pap	-11.9659
▁Lor	-11.9663
š	-11.9664
▁Compar	-11.9667
▁imply	-11.9667
ime	-11.967
como	-11.9682
▁Boll	-11.9683
bat	-11.9683
SH	-11.9691
unami	-11.9693
▁Aid	-11.9694
▁Carrie	-11.97
▁Geo	-11.9701
▁Shot	-11.9705
▁Brom	-11.9708
obb	-11.9712
rip	-11.9716
▁Cod	-11.972
▁Wad	-11.9731
▁exemplifi	-11.9733
maid	-11.9736
▁Nott	-11.974
anaka	-11.9741
eek	-11.9743
▁AM	-11.9745
tian	-11.9745
▁mall	-11.9748
▁Lear	-11.9748
▁Fir	-11.9753
▁fringe	-11.976
▁Barret	-11.9763
▁cruis	-11.9765
▁taxe	-11.9766
ancouver	-11.9771
▁156	-11.9775
▁teen	-11.9781
etic	-11.9783
aka	-11.9788
raine	-11.9789
▁Pet	-11.979
▁divinit	-11.9791
▁Starr	-11.9792
ancy	-11.9793
▁perceive	-11.9796
lude	-11.9798
▁Reta	-11.9801
▁lakes	-11.9802
▁Rating	-11.9803
▁troubles	-11.9807
omplex	-11.9818
▁173	-11.982
break	-11.9823
keeper	-11.9826
stonishing	-11.9831
▁Alg	-11.9836
lift	-11.9847
ISA	-11.9848
▁enforc	-11.9848
uilt	-11.9849
anama	-11.9849
▁Glori	-11.9851
'	-11.9855
marri	-11.9856
finger	-11.9858
▁RF	-11.9858
cia	-11.9858
▁Berni	-11.9865
oke	-11.9868
▁Werne	-11.9869
▁Conra	-11.9874
▁Kleine	-11.9876
▁Krist	-11.9877
▁Alexandr	-11.9881
guar	-11.9885
▁basal	-11.9892
hapter	-11.9897
base	-11.99
▁Priv	-11.9906
▁emb	-11.9908
▁Polyt	-11.991
pproximate	-11.9912
▁sided	-11.9913
minent	-11.9914
escu	-11.9915
▁lett	-11.9918
▁dignit	-11.9921
teen	-11.9923
▁unsur	-11.9925
▁Hold	-11.9925
▁Mind	-11.9927
▁boo	-11.9929
emia	-11.9934
duct	-11.9935
eum	-11.9937
rium	-11.9939
▁Surre	-11.994
▁Cott	-11.9953
unk	-11.9953
▁Nest	-11.9955
▁Shop	-11.9961
▁Poly	-11.9963
▁encompass	-11.997
tones	-11.9971
▁theft	-11.9974
kok	-11.9977
DA	-11.9977
▁penetrat	-11.998
ringe	-11.9985
icus	-11.9989
OR	-11.999
▁bra	-11.9993
▁dop	-11.9993
▁taxa	-12
▁elegan	-12.0001
▁RE	-12.0001
▁legendar	-12.0007
▁Loh	-12.0015
▁immun	-12.002
▁Cool	-12.0036
▁Thom	-12.0041
▁luc	-12.0057
▁Sel	-12.0057
▁sculpt	-12.0059
▁civi	-12.0061
iot	-12.0062
▁Extinct	-12.0063
▁Alternative	-12.0063
▁Dhangar	-12.0063
▁Distinguish	-12.0063
▁Domestic	-12.0063
▁Etymolog	-12.0063
▁Ibrahim	-12.0063
▁Reuben	-12.0063
▁Zimmerman	-12.0063
▁backdrop	-12.0063
▁bequeath	-12.0063
▁celestial	-12.0063
▁contingent	-12.0063
▁convincing	-12.0063
▁disastrous	-12.0063
▁disgust	-12.0063
▁enthusiasm	-12.0063
▁extravagan	-12.0063
▁feminist	-12.0063
▁galericulat	-12.0063
▁girlfriend	-12.0063
▁inappropriate	-12.0063
▁inexperience	-12.0063
▁ingredient	-12.0063
▁jihad	-12.0063
▁kindergarten	-12.0063
▁lieutenant	-12.0063
▁muzzle	-12.0063
▁pamphlet	-12.0063
▁potato	-12.0063
▁repetitive	-12.0063
▁reproduce	-12.0063
▁stipulat	-12.0063
▁suspicion	-12.0063
▁vulgar	-12.0063
▁ال	-12.0063
▁Frankfurt	-12.0063
▁Prairie	-12.0063
▁Ritual	-12.0063
▁UCL	-12.0063
▁jaguar	-12.0063
▁sleeve	-12.0063
emokrat	-12.0063
▁Puritan	-12.0063
▁Zombie	-12.0063
▁adverse	-12.0063
▁rookie	-12.0063
▁utilis	-12.0063
▁Rescue	-12.0063
▁contaminat	-12.0063
▁Stegosaur	-12.0063
▁array	-12.0063
▁configuration	-12.0063
▁Article	-12.0063
▁despatch	-12.0063
▁unprecedented	-12.0063
▁appar	-12.0063
▁spouse	-12.0063
▁Agust	-12.0063
▁fascist	-12.0063
▁nominee	-12.0063
▁cosmetic	-12.0063
▁Solomon	-12.0063
▁McAl	-12.0063
▁subplot	-12.0063
▁Scratch	-12.0063
▁Seventeen	-12.0063
▁melodrama	-12.0063
▁surname	-12.0063
▁Hyde	-12.0063
▁Cabin	-12.0063
▁qualification	-12.0063
▁stipe	-12.0063
▁veto	-12.0063
▁Shield	-12.0063
▁latitude	-12.0063
▁Antioch	-12.0063
▁Methodist	-12.0063
▁Benadir	-12.0063
▁View	-12.0063
▁misunderst	-12.0063
▁ankle	-12.0063
▁Disaster	-12.0063
▁Restor	-12.0063
▁dive	-12.0064
▁Semiti	-12.0064
▁Cause	-12.0064
▁cavit	-12.0064
▁chao	-12.0064
▁thumb	-12.0064
▁Narv	-12.0064
▁ridiculous	-12.0064
▁angel	-12.0064
▁Hitler	-12.0064
▁unbea	-12.0064
▁geological	-12.0064
▁unofficial	-12.0064
▁Motherwell	-12.0064
▁prosecutor	-12.0064
▁flourish	-12.0064
▁Karnata	-12.0065
▁Quite	-12.0065
▁furious	-12.0065
▁roster	-12.0065
▁covenant	-12.0065
▁Radical	-12.0065
▁conspirac	-12.0065
▁resemblance	-12.0065
▁Negr	-12.0066
▁galley	-12.0066
▁decent	-12.0066
▁Croat	-12.0066
▁tired	-12.0067
▁vow	-12.0067
▁Nicola	-12.0067
▁Language	-12.0068
▁amendment	-12.0068
▁vacation	-12.0068
▁Hutch	-12.0068
▁mural	-12.0069
▁subgen	-12.0069
▁Sergi	-12.0069
▁spillway	-12.0069
▁crust	-12.007
▁Dominion	-12.007
▁Kendal	-12.007
▁destructive	-12.0071
▁soph	-12.0071
▁guardian	-12.0071
▁Northeast	-12.0071
▁Elder	-12.0073
▁fake	-12.0074
▁technological	-12.0074
▁flare	-12.0075
▁1790	-12.0075
▁justifi	-12.0077
▁Athen	-12.0078
▁delight	-12.0079
▁distributor	-12.008
▁Aviv	-12.008
▁stranger	-12.008
▁robber	-12.0081
▁transitive	-12.0082
▁Devil	-12.0082
▁beast	-12.0083
▁installment	-12.0083
▁Historian	-12.0084
▁maat	-12.0084
azzi	-12.0085
▁wrapp	-12.0085
▁chin	-12.0085
▁Passion	-12.0085
▁Anglic	-12.0086
▁Franciscan	-12.0086
▁scarce	-12.0086
▁tick	-12.0088
▁Neo	-12.0088
▁Pond	-12.0088
▁gar	-12.0089
▁Factor	-12.0089
▁vanish	-12.009
liation	-12.009
▁Elvi	-12.0094
▁Sv	-12.0094
urb	-12.0095
▁revert	-12.0095
▁Letter	-12.0096
anche	-12.0096
▁hostage	-12.0097
▁backup	-12.0097
▁Forge	-12.0097
▁Mental	-12.0098
▁plead	-12.0098
▁Wake	-12.0099
▁Otta	-12.0101
rctic	-12.0102
▁Rare	-12.0102
▁Guerr	-12.0103
rin	-12.0104
▁Dante	-12.0106
▁selective	-12.0107
▁Arabian	-12.0108
kind	-12.0108
▁Coul	-12.011
ophag	-12.0111
▁Hartle	-12.0111
▁fledg	-12.0115
▁specification	-12.0117
cane	-12.0118
▁Alban	-12.0118
▁priva	-12.0119
productive	-12.0123
▁Trom	-12.0128
▁erod	-12.013
▁358	-12.013
▁synthesizer	-12.0136
▁penetrate	-12.0138
▁ga	-12.0139
▁Fork	-12.0141
▁Cover	-12.0141
▁Peru	-12.0151
▁Hear	-12.0152
▁CG	-12.0153
▁alloy	-12.0153
▁wrestler	-12.0154
▁Ost	-12.0154
▁Shear	-12.0154
GO	-12.0154
▁Mulle	-12.0156
▁Gay	-12.0157
▁q	-12.0157
▁corporation	-12.0162
▁Levi	-12.0163
▁invite	-12.0167
▁Samp	-12.0175
▁Publisher	-12.0176
pol	-12.018
bach	-12.018
▁thematic	-12.0184
▁lineage	-12.0184
ference	-12.0194
▁Shr	-12.0196
▁Treb	-12.0198
dø	-12.02
▁Graves	-12.0201
icea	-12.0201
ooley	-12.0207
▁radial	-12.0208
lund	-12.0211
▁worm	-12.0214
▁Fan	-12.0216
▁abus	-12.0218
▁dragon	-12.022
▁Knight	-12.0224
▁cab	-12.0225
▁161	-12.0227
pani	-12.0227
▁Gau	-12.0231
▁gase	-12.0233
▁proph	-12.0233
▁photos	-12.0234
antara	-12.0236
▁Rise	-12.0239
▁funera	-12.0241
▁rails	-12.0241
▁locate	-12.0241
ark	-12.0244
▁synthet	-12.0246
▁Screen	-12.0246
▁citation	-12.0247
▁vest	-12.0249
▁ni	-12.0251
ivor	-12.0254
▁169	-12.0255
egal	-12.026
▁Doug	-12.026
100	-12.0261
▁Russ	-12.0263
▁tun	-12.0263
▁Model	-12.0264
▁Lea	-12.0267
▁invade	-12.0268
▁Rev	-12.0268
▁Statu	-12.0269
static	-12.0269
▁Vel	-12.0272
▁Image	-12.0273
ckle	-12.0279
▁repell	-12.0281
forth	-12.0286
▁fabric	-12.0286
thorn	-12.029
▁resid	-12.0296
▁compose	-12.0304
ntus	-12.0304
▁rever	-12.0306
▁powder	-12.0308
pard	-12.0313
▁Fitz	-12.0313
▁Spin	-12.0314
▁vine	-12.0314
▁survivor	-12.0321
▁affiliate	-12.0325
direct	-12.0325
orrow	-12.0328
▁presenter	-12.033
lian	-12.0333
▁Plat	-12.0333
▁mud	-12.034
hief	-12.0343
▁murderer	-12.0343
▁Scar	-12.035
eley	-12.035
▁Fé	-12.0352
▁Barn	-12.0353
▁Rao	-12.0355
▁Clar	-12.0358
omita	-12.0364
▁barr	-12.0365
▁Bard	-12.0367
Cd	-12.0374
▁Qua	-12.0375
spect	-12.0383
▁rendering	-12.0387
erner	-12.0387
▁opener	-12.039
▁Gamer	-12.039
deo	-12.0392
▁Runn	-12.0392
▁Kaua	-12.0398
NA	-12.04
▁Moors	-12.0404
▁Bach	-12.0406
▁Administrat	-12.0407
ār	-12.0409
▁Llan	-12.0418
gni	-12.0422
▁serializ	-12.0423
▁Log	-12.0432
load	-12.0443
▁pl	-12.0446
▁Find	-12.0451
▁sage	-12.0452
▁popul	-12.0453
orda	-12.046
▁intra	-12.0462
▁Denn	-12.0466
▁em	-12.0467
▁Mak	-12.0478
▁Naga	-12.0478
through	-12.048
wild	-12.0483
boom	-12.0486
oshi	-12.0487
▁Bett	-12.0488
▁Dominic	-12.0489
NH	-12.0489
▁Ble	-12.0491
▁134	-12.0492
▁eclipse	-12.0497
▁Heath	-12.0506
▁Sar	-12.0507
idas	-12.0523
▁Tele	-12.0525
▁Gig	-12.0525
▁Gio	-12.0534
▁freeze	-12.0536
▁Verne	-12.0539
roz	-12.0542
▁Hardco	-12.0543
BI	-12.0554
PC	-12.056
▁mediate	-12.0564
▁Phi	-12.0565
▁annoy	-12.0566
ronym	-12.0567
▁cri	-12.0568
yder	-12.0572
▁Kau	-12.0585
RU	-12.0585
yaku	-12.0586
▁pledge	-12.059
Pau	-12.0592
▁Kaj	-12.0592
ohn	-12.0594
▁microscop	-12.0599
NU	-12.0603
▁pes	-12.0605
bod	-12.0606
▁Bod	-12.0606
▁Larg	-12.0611
arm	-12.0621
mov	-12.0624
▁Need	-12.0626
▁obscur	-12.0627
anne	-12.0629
deck	-12.0631
phan	-12.0632
LI	-12.0634
▁Hens	-12.0641
▁Kita	-12.0643
▁Ferr	-12.0646
▁northwester	-12.0648
hil	-12.065
ographic	-12.0651
terrestrial	-12.0657
▁hack	-12.066
▁snap	-12.0665
▁sympath	-12.067
MM	-12.0671
▁Boa	-12.0672
▁casua	-12.0672
owitz	-12.0673
▁archive	-12.0676
▁Dodge	-12.0678
▁Rom	-12.068
▁Abbot	-12.0682
▁blank	-12.0682
▁drunk	-12.0683
▁Develop	-12.0684
rescent	-12.0684
▁Moto	-12.0685
rift	-12.0685
▁accura	-12.0686
punctat	-12.0688
▁Achievement	-12.0688
▁Diocese	-12.0688
▁Ethiopia	-12.0688
▁Nueces	-12.0688
▁Penguin	-12.0688
▁Ptolem	-12.0688
▁Restaurant	-12.0688
▁Tanzania	-12.0688
▁comrade	-12.0688
▁conjoin	-12.0688
▁discriminat	-12.0688
▁efficienc	-12.0688
▁enlighten	-12.0688
▁feminin	-12.0688
▁floodplain	-12.0688
▁hierarch	-12.0688
▁intricate	-12.0688
▁lambeosaurine	-12.0688
▁mitochondria	-12.0688
▁ordinance	-12.0688
▁paradox	-12.0688
▁patriarch	-12.0688
▁pneumonia	-12.0688
▁referendum	-12.0688
▁ruthless	-12.0688
▁splinter	-12.0688
▁transplant	-12.0688
cystidi	-12.0688
▁Kitsune	-12.0688
▁Lanois	-12.0688
▁gleba	-12.0688
Spisevognselskap	-12.0688
▁Bahama	-12.0688
▁diagram	-12.0688
▁overthrow	-12.0688
▁terrif	-12.0688
▁Panzergrenadier	-12.0688
▁Vatican	-12.0688
▁Gospel	-12.0688
▁Inocyb	-12.0688
▁punctuat	-12.0688
▁unwilling	-12.0688
▁crater	-12.0688
▁immers	-12.0688
▁lodge	-12.0688
▁orientation	-12.0688
▁cheek	-12.0688
▁gesture	-12.0688
▁Southwest	-12.0688
▁bulb	-12.0688
▁genius	-12.0688
▁wagon	-12.0688
▁fauna	-12.0688
▁Desert	-12.0688
▁Immediate	-12.0688
▁Eduard	-12.0688
▁Alamo	-12.0688
▁ordnance	-12.0688
▁Climat	-12.0688
▁mercenar	-12.0688
▁transept	-12.0688
▁aesthetic	-12.0688
▁polish	-12.0688
▁copyright	-12.0688
▁splash	-12.0688
▁hadrosaurid	-12.0688
▁Arbeideren	-12.0688
▁splic	-12.0688
▁database	-12.0688
▁labyrinth	-12.0688
▁Cameron	-12.0688
▁unreliab	-12.0688
▁vegetable	-12.0688
▁Salmon	-12.0688
▁behave	-12.0688
▁cartridge	-12.0688
▁mistress	-12.0688
▁uncomm	-12.0688
▁classify	-12.0688
▁stela	-12.0688
▁Morocc	-12.0688
▁caretaker	-12.0688
▁retrospective	-12.0689
▁apologize	-12.0689
▁abdom	-12.0689
▁enclosure	-12.0689
▁claw	-12.0689
▁Cerato	-12.0689
▁Garret	-12.0689
▁pillar	-12.0689
▁Lanka	-12.0689
▁Robbie	-12.0689
▁renumber	-12.0689
▁Edwin	-12.0689
▁Vienn	-12.0689
▁diplomat	-12.0689
▁discretion	-12.0689
▁raft	-12.0689
▁Spence	-12.0689
▁mounting	-12.069
▁classmate	-12.069
▁Everett	-12.069
▁implication	-12.069
ailz	-12.0691
▁melanchol	-12.0691
▁Mercur	-12.0691
▁crab	-12.0691
▁gig	-12.0691
▁Maclag	-12.0691
▁Boliv	-12.0692
▁treatise	-12.0692
▁Groen	-12.0692
▁clar	-12.0692
▁skeptic	-12.0692
▁Brittan	-12.0692
▁Grow	-12.0692
▁Preparation	-12.0692
▁altitude	-12.0692
▁Tank	-12.0693
▁Liga	-12.0693
▁dismantl	-12.0693
▁hopeful	-12.0693
▁gentleman	-12.0693
▁Faith	-12.0693
▁detachment	-12.0693
▁gamma	-12.0694
▁duck	-12.0694
▁Converse	-12.0694
▁pageant	-12.0694
▁geometr	-12.0695
▁recycl	-12.0695
▁lens	-12.0695
scopic	-12.0695
▁Iceland	-12.0695
▁broadside	-12.0695
▁Alliance	-12.0695
▁devou	-12.0695
▁Takum	-12.0696
▁ferry	-12.0696
▁quotation	-12.0696
ppen	-12.0697
position	-12.0697
lamp	-12.0697
pplicant	-12.0697
▁Tsar	-12.0697
▁prescribe	-12.0698
▁Amazon	-12.0698
▁pedal	-12.0699
▁Aber	-12.0699
▁expell	-12.0699
▁Beverl	-12.07
▁Guest	-12.07
▁bullet	-12.07
▁shutout	-12.0701
oria	-12.0702
▁Judge	-12.0702
▁grayish	-12.0702
delbac	-12.0702
▁Gor	-12.0702
▁Graci	-12.0702
▁Vasco	-12.0703
▁contradiction	-12.0703
▁Producer	-12.0703
▁Claud	-12.0704
▁Hali	-12.0704
▁spout	-12.0704
▁autonomous	-12.0705
▁1660	-12.0706
▁spaceship	-12.0706
▁equalis	-12.0706
▁Hence	-12.0708
▁mystic	-12.0708
jack	-12.0709
▁demons	-12.071
▁chant	-12.0712
▁lend	-12.0713
▁surgeon	-12.0713
▁till	-12.0715
▁Magno	-12.0717
iety	-12.0718
▁detector	-12.0719
▁Cake	-12.0719
▁109	-12.0721
mnest	-12.0726
▁posture	-12.0726
▁Alien	-12.0726
▁Global	-12.0727
▁deposition	-12.0728
laughter	-12.0729
▁133	-12.073
ibot	-12.073
▁steeple	-12.0732
▁unrele	-12.0732
building	-12.0734
▁spp	-12.0734
▁1845	-12.0734
▁Tam	-12.0735
▁Spa	-12.0736
ramer	-12.0736
▁Hama	-12.0737
enne	-12.0738
lister	-12.0739
▁Ou	-12.0741
▁Gala	-12.0742
▁Lope	-12.0744
Der	-12.0745
▁heredit	-12.0748
▁obscure	-12.0749
▁Broom	-12.0751
▁allusion	-12.0754
urstin	-12.0756
▁Gibr	-12.0762
▁Vida	-12.0763
▁Northumbria	-12.0767
▁Balli	-12.0769
▁Poem	-12.077
▁Save	-12.0775
▁Grande	-12.0778
tze	-12.0782
▁auction	-12.0783
▁Landing	-12.0785
▁Bate	-12.0785
▁denial	-12.079
▁Astr	-12.079
▁Slan	-12.079
▁LP	-12.079
▁Gaul	-12.0797
▁Para	-12.0807
▁lobby	-12.0808
▁boxes	-12.081
▁restructur	-12.081
▁intermedi	-12.0811
▁Scap	-12.0813
▁roundabout	-12.0814
oaltender	-12.0815
oga	-12.0818
▁Perc	-12.0818
▁resume	-12.0819
ctari	-12.0823
▁Labori	-12.0824
version	-12.0826
HO	-12.0827
hara	-12.083
▁adviser	-12.0831
polis	-12.0833
▁continuation	-12.0834
gau	-12.0838
GB	-12.0841
▁Mis	-12.0844
ED	-12.0845
rek	-12.0851
▁Burr	-12.0851
▁Yog	-12.0852
▁Shir	-12.0853
▁167	-12.0855
▁Role	-12.0857
▁Jet	-12.0859
▁Event	-12.086
ł	-12.0864
usz	-12.0864
anti	-12.0866
▁tender	-12.0869
▁Consul	-12.087
▁157	-12.0875
▁denot	-12.0876
ospor	-12.0879
▁Hartman	-12.0881
▁Forever	-12.0884
▁Friend	-12.0886
▁Klein	-12.0891
▁phylogen	-12.0896
▁Citr	-12.0897
▁coronat	-12.0902
▁Martel	-12.0905
BS	-12.091
▁Carro	-12.0913
court	-12.0916
▁projection	-12.0923
▁raw	-12.0928
▁Hipp	-12.0931
▁Monda	-12.0938
robe	-12.094
ipe	-12.0941
▁shake	-12.0944
▁Tyn	-12.0945
pg	-12.0945
▁mob	-12.0947
▁Xi	-12.0947
sø	-12.0952
▁lamb	-12.0953
▁Kel	-12.0957
tzpa	-12.0958
▁Babylonia	-12.0964
▁Sab	-12.0964
▁impli	-12.0971
▁Ledge	-12.0971
▁nucleol	-12.0975
ffman	-12.099
▁serialis	-12.099
▁venerat	-12.1004
▁compensat	-12.1005
▁precipitati	-12.1005
vid	-12.1006
▁Gran	-12.1007
▁provoke	-12.102
MR	-12.1022
pathetic	-12.1027
liberation	-12.1028
story	-12.1028
▁muster	-12.103
▁Kol	-12.1035
▁appreciate	-12.1036
unge	-12.1037
▁moralit	-12.1038
▁Bona	-12.1044
▁bun	-12.1045
▁tra	-12.1047
▁Tre	-12.1049
▁Sheen	-12.105
▁Hale	-12.1052
▁watche	-12.1054
▁affi	-12.1061
▁vegeta	-12.1061
▁Crime	-12.1062
▁infer	-12.1064
▁Sayi	-12.1065
▁spar	-12.1068
scot	-12.1069
▁Wadi	-12.1077
▁lateral	-12.1078
▁PS	-12.108
▁assemble	-12.1086
▁realise	-12.1087
vation	-12.1088
▁Ang	-12.1089
▁Ecolog	-12.109
▁Swans	-12.1096
audi	-12.1096
▁torr	-12.1099
opo	-12.1108
ž	-12.1114
▁Jac	-12.1121
▁arche	-12.1122
▁Alpha	-12.1123
▁Shab	-12.1126
chew	-12.1126
erti	-12.1127
▁reuse	-12.1127
continent	-12.1128
▁replica	-12.113
ulan	-12.113
vig	-12.1133
cious	-12.1136
former	-12.1137
hylogenetic	-12.114
Chuck	-12.1142
▁aggregat	-12.1142
▁fence	-12.1142
▁Petri	-12.1143
▁sketche	-12.1143
now	-12.1143
develop	-12.1144
▁inhibit	-12.1144
▁Saga	-12.1146
ultimate	-12.1146
normal	-12.1147
▁employer	-12.1147
handler	-12.115
finish	-12.1153
▁marginal	-12.1155
▁Gui	-12.1161
▁bend	-12.1163
▁Dow	-12.1163
▁Poll	-12.1168
ascade	-12.1169
▁Kami	-12.1172
altar	-12.1184
hope	-12.1186
▁statistical	-12.1187
ception	-12.1188
▁Heid	-12.1188
▁unite	-12.1188
lang	-12.1191
▁Moham	-12.1193
▁brow	-12.1196
▁Shawn	-12.1196
olithic	-12.1196
gia	-12.1204
▁319	-12.1212
kara	-12.1218
▁Notes	-12.1222
▁AU	-12.1228
▁Hunting	-12.123
▁gu	-12.1232
ushi	-12.1234
mede	-12.1236
93	-12.1237
PI	-12.1242
▁Kot	-12.1242
▁gra	-12.1242
▁Suf	-12.1247
▁intermedia	-12.1248
nyl	-12.125
▁Santo	-12.1251
▁Vern	-12.1253
▁spher	-12.1254
▁communicate	-12.1254
▁Ein	-12.1258
▁dictat	-12.1258
▁107	-12.126
lla	-12.1262
utla	-12.1263
▁vacan	-12.1267
▁choos	-12.127
rical	-12.127
▁cock	-12.1275
▁taxonom	-12.1278
cles	-12.1285
▁Osi	-12.1289
cam	-12.1294
▁Beck	-12.1294
▁clinic	-12.1296
▁Dard	-12.1298
▁digit	-12.1302
▁deserve	-12.1308
umble	-12.1314
▁profession	-12.1325
agger	-12.1325
▁Rem	-12.1329
nacle	-12.1332
▁Virgi	-12.1333
▁comp	-12.1337
fel	-12.1341
▁cataly	-12.1342
▁Sue	-12.1342
▁manipulate	-12.1344
ynthesis	-12.1345
cientific	-12.1345
bbot	-12.1346
arth	-12.1347
▁Collect	-12.1347
▁champ	-12.1347
▁certificat	-12.1348
▁Conservat	-12.1349
xchange	-12.1351
▁harass	-12.1352
ggi	-12.1353
capul	-12.1354
▁counsel	-12.1354
rigger	-12.1354
▁Oghra	-12.1354
ễ	-12.1354
▁Amendment	-12.1354
▁Carnival	-12.1354
▁Confederac	-12.1354
▁Example	-12.1354
▁Guatemala	-12.1354
▁Holiday	-12.1354
▁Provision	-12.1354
▁Revival	-12.1354
▁Scientologist	-12.1354
▁Sihanouk	-12.1354
▁Structure	-12.1354
▁Tatanka	-12.1354
▁Thousand	-12.1354
▁ambiguous	-12.1354
▁calibre	-12.1354
▁constituent	-12.1354
▁cytogenetic	-12.1354
▁fatigue	-12.1354
▁flavor	-12.1354
▁ineffective	-12.1354
▁likelihood	-12.1354
▁magistrate	-12.1354
▁martyr	-12.1354
▁messenger	-12.1354
▁octagon	-12.1354
▁paratrooper	-12.1354
▁psychiatr	-12.1354
▁quarterfinal	-12.1354
▁revamp	-12.1354
▁subtype	-12.1354
▁typewriter	-12.1354
▁vapor	-12.1354
▁Controvers	-12.1354
▁Croydon	-12.1354
▁Institution	-12.1354
▁disembark	-12.1354
▁federation	-12.1354
▁grenade	-12.1354
▁lunar	-12.1354
▁vizier	-12.1354
▁Jamaica	-12.1354
▁inevitabl	-12.1354
▁peasant	-12.1354
▁thrust	-12.1354
▁gloss	-12.1354
▁scuttl	-12.1354
▁conspirator	-12.1354
▁unfortunate	-12.1354
▁Deput	-12.1354
▁detract	-12.1354
▁nymph	-12.1354
▁Sybil	-12.1354
▁cinematograph	-12.1354
▁levee	-12.1354
raffic	-12.1354
▁ectomycorrhiza	-12.1354
▁humour	-12.1354
▁Mysore	-12.1354
▁Soundtrack	-12.1354
▁GPU	-12.1355
▁warehouse	-12.1355
▁Swift	-12.1355
▁Adolf	-12.1355
▁Mosque	-12.1355
▁Hamburg	-12.1355
▁landslide	-12.1355
▁visor	-12.1355
▁paternal	-12.1355
▁Tomorrow	-12.1355
▁Ivor	-12.1355
▁Egyptologist	-12.1355
▁energetic	-12.1355
▁gallon	-12.1355
▁Alleg	-12.1355
▁Uttar	-12.1355
▁Moresby	-12.1355
hāv	-12.1355
▁Vă	-12.1355
▁submission	-12.1355
▁Firecr	-12.1355
▁fledgling	-12.1355
▁speckle	-12.1355
econstruction	-12.1355
▁Programme	-12.1356
▁thriv	-12.1356
▁Hispanic	-12.1356
▁justify	-12.1356
▁torso	-12.1356
▁Mead	-12.1356
▁Monster	-12.1356
▁beaver	-12.1356
▁sociologist	-12.1356
openha	-12.1356
▁urgent	-12.1357
▁Tepe	-12.1357
tron	-12.1357
▁Borderers	-12.1357
▁jeweller	-12.1357
▁reproductive	-12.1357
▁computation	-12.1358
▁geolog	-12.1358
▁Pandu	-12.1358
▁Harper	-12.1358
▁utilit	-12.1358
▁obsession	-12.1358
èt	-12.1358
▁Maxim	-12.1359
▁Steff	-12.1359
▁pier	-12.1359
plausibl	-12.1359
▁revisit	-12.1359
▁frog	-12.1359
▁crossover	-12.1359
▁theorist	-12.136
▁Stela	-12.1361
▁pub	-12.1361
▁negat	-12.1361
▁pig	-12.1361
▁Interior	-12.1362
▁Marina	-12.1362
▁systematic	-12.1362
▁450	-12.1362
▁punk	-12.1363
▁bridgehead	-12.1363
cca	-12.1364
▁Milton	-12.1364
▁Dana	-12.1364
▁Keep	-12.1364
▁palm	-12.1364
▁spiral	-12.1364
▁Nige	-12.1365
▁unifi	-12.1365
▁desk	-12.1365
▁adher	-12.1366
▁meteorological	-12.1366
▁reef	-12.1367
▁Alaska	-12.1367
▁dishe	-12.1367
▁anomal	-12.1367
▁rational	-12.1367
▁motivation	-12.1368
▁MAC	-12.1368
▁Slash	-12.1368
aroque	-12.1368
▁shipyard	-12.1369
▁pastoral	-12.1369
▁Reich	-12.137
▁pill	-12.1371
▁glow	-12.1372
▁passport	-12.1372
dame	-12.1372
tsuki	-12.1373
▁shade	-12.1373
▁confession	-12.1375
▁Job	-12.1375
▁doorway	-12.1377
▁Sola	-12.1377
▁Raven	-12.1377
▁milestone	-12.1377
▁Romantic	-12.1378
luxe	-12.1379
▁cylinder	-12.138
▁Gin	-12.1381
▁Bha	-12.1381
▁prohibition	-12.1382
▁Loud	-12.1383
▁periodic	-12.1383
affo	-12.1385
▁Noth	-12.1386
▁Axi	-12.1386
▁NA	-12.1387
▁Cock	-12.1387
▁refiner	-12.1388
▁Atkin	-12.1389
▁Anatolia	-12.1389
▁stirr	-12.139
▁grind	-12.1391
▁Kress	-12.1393
▁dissolve	-12.1393
▁rust	-12.1394
▁dune	-12.1394
aragua	-12.1395
▁Trev	-12.1396
kaz	-12.1399
▁Tjo	-12.1401
▁combatant	-12.1401
▁stunning	-12.1402
▁128	-12.1402
▁Button	-12.1403
▁punch	-12.1403
▁Mine	-12.1403
▁Afterward	-12.1406
▁Vai	-12.1407
▁Spot	-12.1408
erdale	-12.141
▁mist	-12.1411
▁unop	-12.1413
▁happi	-12.1414
▁Unc	-12.1414
▁Could	-12.1415
▁whiske	-12.1415
▁Organ	-12.1418
wen	-12.142
▁erra	-12.1424
▁Mackina	-12.1427
▁Eyes	-12.1433
▁cage	-12.1433
▁rib	-12.1433
▁Raide	-12.1434
▁Alma	-12.1436
▁nail	-12.1436
▁outward	-12.1439
ctor	-12.1442
▁provisional	-12.1444
pot	-12.1445
▁Scho	-12.1446
▁Chad	-12.1446
nuel	-12.1456
▁racis	-12.1459
▁taper	-12.1461
▁Holme	-12.1462
▁herb	-12.1463
▁Wait	-12.1465
▁bolt	-12.1467
▁126	-12.1471
rain	-12.1478
▁Mou	-12.1479
▁hypothe	-12.1491
▁referenc	-12.1496
▁Salt	-12.1499
oto	-12.15
▁GM	-12.1503
▁Crew	-12.1507
olog	-12.1509
▁bin	-12.151
napper	-12.1518
▁Andre	-12.1519
▁Else	-12.152
▁plume	-12.152
inder	-12.152
▁Fate	-12.1523
▁Bread	-12.1524
licia	-12.1524
HC	-12.1525
cius	-12.1526
▁Lyrical	-12.1526
▁tro	-12.1533
▁Boyz	-12.1534
ctu	-12.1538
adu	-12.1541
GS	-12.1547
▁Yat	-12.1551
▁presiden	-12.1553
▁Lon	-12.1554
▁wit	-12.1554
▁Chenn	-12.1554
urine	-12.1556
▁bapti	-12.156
nath	-12.1565
borg	-12.1565
elief	-12.1566
SS	-12.1569
▁proportional	-12.1577
▁exp	-12.1582
aría	-12.1587
▁gro	-12.159
ltern	-12.1594
▁Simm	-12.1607
▁oppose	-12.1607
▁ghats	-12.1613
HP	-12.1622
orial	-12.1622
wang	-12.1629
▁timeline	-12.1629
plex	-12.1631
kau	-12.1632
▁Code	-12.1642
hampton	-12.1643
▁rip	-12.1645
▁Vig	-12.1647
▁tart	-12.1648
▁Gur	-12.1655
uzh	-12.1657
▁nett	-12.1657
oul	-12.1664
▁tre	-12.1664
urani	-12.1667
▁accumulate	-12.1672
▁lonel	-12.1672
▁triangula	-12.1675
yama	-12.1678
▁lady	-12.168
shes	-12.1681
AG	-12.1682
▁Miles	-12.1682
▁Nord	-12.1684
ira	-12.169
▁ros	-12.1704
▁empath	-12.1714
aca	-12.1722
▁equator	-12.1723
▁stud	-12.1723
▁Barra	-12.1726
▁Eval	-12.1726
▁Mir	-12.1729
▁Cad	-12.173
▁spy	-12.1736
▁Stand	-12.1737
▁124	-12.1743
▁airb	-12.1745
▁Sale	-12.1746
step	-12.175
▁cellula	-12.1751
▁Khe	-12.1752
fin	-12.1753
uwan	-12.1753
▁Taka	-12.1755
▁showcase	-12.1756
hole	-12.1763
▁affiliat	-12.1765
▁gravel	-12.1767
EF	-12.1771
▁Vill	-12.1772
▁slop	-12.1775
titude	-12.1777
phobi	-12.179
▁Oth	-12.1794
▁Scra	-12.1795
▁Prim	-12.1805
nette	-12.1812
▁Brod	-12.1812
▁endur	-12.1814
NR	-12.1816
▁Hosti	-12.1827
▁Terror	-12.1831
CM	-12.1831
vich	-12.1837
▁tan	-12.1839
writ	-12.1841
▁seam	-12.1842
▁advise	-12.1842
▁Enn	-12.1844
rugg	-12.1844
▁Gonn	-12.185
flux	-12.1856
adequate	-12.1858
ilo	-12.1858
accessib	-12.1858
plus	-12.186
publish	-12.1861
film	-12.1861
tower	-12.1862
discover	-12.1863
Pro	-12.1864
supply	-12.1864
fight	-12.1867
▁publiciz	-12.1867
FI	-12.187
gli	-12.1876
grave	-12.1878
opp	-12.1882
▁Sales	-12.1883
trick	-12.1885
ief	-12.1885
dah	-12.1888
eater	-12.1889
▁Ludwi	-12.189
▁exchang	-12.1891
▁cooperat	-12.1892
▁freez	-12.1898
gio	-12.1911
utter	-12.1913
parte	-12.1913
heart	-12.1914
arcel	-12.1917
▁Eli	-12.1917
▁Bharat	-12.1919
▁Oz	-12.1927
cribe	-12.1927
Sb	-12.1933
wana	-12.1952
utomobile	-12.1973
▁Twit	-12.1984
apse	-12.1984
▁nurs	-12.1985
▁Manning	-12.1986
▁tr	-12.1986
▁forbidd	-12.1991
quest	-12.1991
MP	-12.1994
▁Eri	-12.1999
▁cow	-12.2
▁radiat	-12.2001
rnal	-12.2007
č	-12.2009
▁eSport	-12.2013
thlon	-12.2018
▁Glor	-12.2024
▁emit	-12.2026
▁168	-12.2026
▁admitt	-12.2035
▁Prison	-12.2035
▁Acc	-12.2036
▁automat	-12.2036
▁Auto	-12.2038
▁aide	-12.204
▁grip	-12.2045
▁Multi	-12.205
tiè	-12.2052
hinke	-12.2058
▁crusade	-12.2059
▁erupt	-12.206
▁exaggerat	-12.206
▁Kala	-12.2062
▁Socie	-12.2067
hestnut	-12.2067
iji	-12.2068
▁Ishmael	-12.2068
lotilla	-12.2068
egislature	-12.2068
▁socio	-12.2068
nfortunate	-12.2068
▁Gloucester	-12.2069
▁excommunicat	-12.2069
▁Raphael	-12.2069
▁segregat	-12.2069
ス	-12.2069
aqqa	-12.2069
elecommunication	-12.2069
orthodox	-12.2069
łady	-12.2069
▁Confederation	-12.2069
▁Conflict	-12.2069
▁Establish	-12.2069
▁Kalyanasundara	-12.2069
▁Madhva	-12.2069
▁Marseille	-12.2069
▁Presbyterian	-12.2069
▁Schmid	-12.2069
▁Selenite	-12.2069
▁Tournament	-12.2069
▁Typical	-12.2069
▁administrator	-12.2069
▁ambulance	-12.2069
▁applau	-12.2069
▁cockpit	-12.2069
▁compulsor	-12.2069
▁constellation	-12.2069
▁erroneous	-12.2069
▁fraud	-12.2069
▁hilarious	-12.2069
▁intermittent	-12.2069
▁landowner	-12.2069
▁leisure	-12.2069
▁nightclub	-12.2069
▁outflank	-12.2069
▁reggae	-12.2069
▁screenwriter	-12.2069
▁spruce	-12.2069
▁Casualt	-12.2069
▁Culver	-12.2069
▁Feature	-12.2069
▁Isaac	-12.2069
▁adjoin	-12.2069
▁aristocrat	-12.2069
▁precursor	-12.2069
▁Reuter	-12.2069
▁bolster	-12.2069
▁Cunning	-12.2069
▁eternal	-12.2069
▁glaz	-12.2069
▁Atomic	-12.2069
▁RPG	-12.2069
▁Soldier	-12.2069
▁embass	-12.2069
▁impersonat	-12.2069
musement	-12.2069
▁Strateg	-12.2069
▁Assault	-12.2069
▁improper	-12.2069
incendi	-12.2069
▁proponent	-12.2069
▁Joann	-12.2069
▁Technical	-12.2069
▁clarifi	-12.2069
▁rehearsal	-12.2069
Apollo	-12.2069
uto	-12.2069
▁conscientious	-12.2069
▁Titan	-12.2069
▁tentative	-12.2069
▁Phonograph	-12.2069
▁bedroom	-12.2069
▁tribble	-12.2069
▁masterpiece	-12.2069
▁Gavin	-12.2069
▁tanner	-12.2069
▁frill	-12.207
▁Aaron	-12.207
▁signify	-12.207
▁Vicker	-12.207
▁subdu	-12.207
▁instabilit	-12.207
▁Prayer	-12.207
▁cheat	-12.207
▁Griffin	-12.207
▁councillor	-12.207
▁viper	-12.207
▁fresco	-12.207
weig	-12.207
▁Ravana	-12.207
▁preview	-12.207
▁Cardell	-12.207
▁Wolver	-12.207
▁furni	-12.2071
▁insurgenc	-12.2071
neas	-12.2071
▁Protest	-12.2071
▁Kemal	-12.2071
▁Ukrainian	-12.2071
▁Cliff	-12.2071
▁Krypton	-12.2071
▁canvas	-12.2071
▁Orange	-12.2071
▁glid	-12.2071
▁refresh	-12.2072
▁persecution	-12.2072
▁incense	-12.2072
egalith	-12.2072
▁Zyg	-12.2072
▁Hernan	-12.2072
▁shortlist	-12.2073
▁filter	-12.2073
▁areolat	-12.2073
▁recapture	-12.2073
▁overturn	-12.2074
▁Cash	-12.2074
▁fuck	-12.2075
▁1868	-12.2075
▁smil	-12.2075
▁linger	-12.2075
▁Rubin	-12.2075
▁Sterl	-12.2075
▁howitzer	-12.2075
▁carriageway	-12.2076
▁contraceptive	-12.2077
▁urn	-12.2077
faro	-12.2077
▁ripp	-12.2077
▁Metal	-12.2078
▁Jovi	-12.2078
▁1770	-12.2079
▁Licen	-12.2079
hong	-12.2079
▁Engle	-12.2079
▁greet	-12.2079
▁volcano	-12.208
▁Pigg	-12.208
▁Dodger	-12.208
▁arsen	-12.208
▁iodi	-12.2081
▁inspection	-12.2081
▁prognos	-12.2082
▁Selection	-12.2082
▁reunion	-12.2082
▁overlapp	-12.2083
▁newborn	-12.2083
▁peat	-12.2085
▁Coal	-12.2086
▁reluctant	-12.2086
▁collaborator	-12.2086
▁Rotte	-12.2086
▁368	-12.2087
▁Sac	-12.2087
▁Wiede	-12.2088
▁Savo	-12.2089
▁slit	-12.2089
▁Futa	-12.2089
▁Him	-12.2089
▁freighter	-12.2091
atu	-12.2092
▁setback	-12.2092
ulos	-12.2092
▁waterfall	-12.2092
▁cau	-12.2093
▁210	-12.2093
▁ancestral	-12.2093
cum	-12.2093
▁attachment	-12.2094
▁Lenin	-12.2096
▁Strach	-12.2096
▁dash	-12.2096
▁colonel	-12.2096
balla	-12.2096
▁Owl	-12.2096
▁Bhai	-12.2097
▁accompaniment	-12.2097
▁allegor	-12.2098
▁Learn	-12.2098
▁Leader	-12.2099
▁Hour	-12.2099
▁Duck	-12.2099
▁caes	-12.2101
▁Lans	-12.2102
▁lining	-12.2102
▁moth	-12.2102
▁Fay	-12.2104
▁solub	-12.2104
▁Willi	-12.2104
▁Rhyme	-12.2104
▁purit	-12.2104
▁Shore	-12.2105
▁restless	-12.2105
cellula	-12.2105
▁Rouss	-12.2106
etta	-12.2106
▁feudal	-12.2107
▁cho	-12.2107
▁Johannes	-12.2109
▁stemm	-12.2109
▁audiobook	-12.2109
▁conspicuous	-12.2109
▁salv	-12.2112
▁Calcu	-12.2112
▁Glenn	-12.2112
▁worry	-12.2113
iev	-12.2114
▁reliab	-12.2114
▁isolation	-12.2116
▁localization	-12.2116
ienne	-12.2117
osphere	-12.2119
▁monopol	-12.2122
▁nobili	-12.2126
▁mort	-12.2128
▁Dill	-12.2128
▁conductor	-12.2129
▁Mama	-12.213
▁rushe	-12.2132
raged	-12.2133
▁microscope	-12.2137
▁Singer	-12.2139
▁fro	-12.2145
▁curl	-12.2146
▁Archie	-12.2146
▁Nant	-12.2146
▁Devi	-12.2147
▁Chai	-12.215
▁Ot	-12.2152
▁stereotype	-12.216
▁Mut	-12.2161
▁Vor	-12.2161
ruz	-12.2162
▁mutin	-12.2164
raja	-12.2166
▁empti	-12.2167
erzy	-12.2168
▁regulator	-12.2168
▁communicat	-12.2169
▁Puri	-12.217
▁Um	-12.217
▁contractor	-12.2176
▁herald	-12.2176
▁Hiro	-12.2178
▁Tate	-12.2178
▁intro	-12.2184
▁geographical	-12.2187
▁Cristin	-12.2191
▁mal	-12.2192
urg	-12.2194
SB	-12.2202
▁undermin	-12.2208
aman	-12.2209
ngdong	-12.2212
▁annoying	-12.2213
▁202	-12.2214
▁inherent	-12.2218
▁scan	-12.2219
▁Una	-12.2223
▁Halle	-12.2224
pond	-12.2226
▁contributor	-12.2227
▁Salon	-12.2227
▁Som	-12.2228
▁incidental	-12.223
▁dipp	-12.2233
▁Callist	-12.2237
abolic	-12.2238
▁nominate	-12.2242
▁Birth	-12.2251
▁Mutin	-12.2256
▁lowland	-12.2258
rjun	-12.2262
ntz	-12.2264
▁Gare	-12.2265
▁Bossy	-12.2273
▁Toll	-12.2275
own	-12.2275
▁differentiate	-12.2276
▁Vita	-12.2278
▁Hom	-12.2286
▁Fford	-12.2289
▁Kav	-12.2291
▁Bund	-12.2296
▁consideration	-12.2297
aak	-12.2301
rtha	-12.2303
ffen	-12.2306
▁pursuer	-12.2306
▁plea	-12.2309
▁accessor	-12.2309
221	-12.231
▁Dalm	-12.2318
▁holder	-12.2325
rod	-12.233
▁AAA	-12.2331
▁reunite	-12.2336
uat	-12.2339
hog	-12.2353
arta	-12.2355
sistance	-12.2355
▁Adil	-12.2355
▁batch	-12.2356
ovo	-12.236
rup	-12.2364
▁boxer	-12.2365
mba	-12.2369
▁wav	-12.237
lot	-12.2372
▁Exo	-12.2373
▁Cheer	-12.2377
▁Swan	-12.2383
▁knot	-12.2385
ordi	-12.2386
▁Pala	-12.2388
kai	-12.2388
▁Made	-12.239
▁contra	-12.239
▁Scen	-12.2394
kal	-12.24
brough	-12.2405
▁styli	-12.2406
▁Ying	-12.2408
▁pok	-12.2411
dike	-12.2421
▁Brahma	-12.2426
bei	-12.2426
guer	-12.2427
action	-12.2428
▁Kelle	-12.2431
▁vici	-12.2439
▁outline	-12.2439
axa	-12.244
▁simulate	-12.2441
▁Holli	-12.2447
▁Lew	-12.2448
▁Hunters	-12.2449
▁embrac	-12.2459
▁Grims	-12.246
▁Ara	-12.246
▁Dreamer	-12.2467
▁Kawa	-12.2471
▁barb	-12.2471
▁Piz	-12.2484
▁Andr	-12.249
stad	-12.2493
▁Pea	-12.2497
trea	-12.2498
▁Lot	-12.2504
▁Tyl	-12.2505
intend	-12.2506
abil	-12.2512
otta	-12.2514
▁predat	-12.2519
▁Rhe	-12.2519
▁Bac	-12.252
▁reachab	-12.2521
▁degenerate	-12.2523
araj	-12.2533
▁infiltrat	-12.2533
▁imitat	-12.2535
aiyu	-12.2538
ør	-12.2539
▁Zoe	-12.2544
ivalent	-12.2547
rump	-12.2557
ija	-12.2561
oot	-12.2561
▁colonis	-12.2562
▁Chel	-12.2563
mbo	-12.2563
pop	-12.2569
▁antibod	-12.257
▁procession	-12.2577
ogie	-12.2578
▁Kath	-12.2581
path	-12.2586
▁Trin	-12.2587
orum	-12.2592
▁trainer	-12.2595
▁Lep	-12.2597
ça	-12.2598
▁Chat	-12.2601
dard	-12.2602
▁Rap	-12.2603
▁lamin	-12.2607
▁cry	-12.2608
▁sta	-12.2609
▁antic	-12.2611
mediate	-12.2613
▁132	-12.2614
hru	-12.2616
▁headlin	-12.2619
▁Gat	-12.262
homa	-12.2622
skirt	-12.2623
cliff	-12.2626
fleet	-12.263
accept	-12.263
llier	-12.2631
shift	-12.2632
pool	-12.2633
otype	-12.2635
▁Mart	-12.2638
▁SP	-12.2639
▁denote	-12.2641
leaf	-12.2641
▁Ruf	-12.2642
▁Premi	-12.2644
▁fairy	-12.2644
shot	-12.2649
Paul	-12.2651
▁Fab	-12.266
conical	-12.2666
herent	-12.2674
▁explod	-12.2675
▁Fri	-12.2678
▁bake	-12.268
▁parasit	-12.2684
▁symbolis	-12.2684
emost	-12.2688
▁divorc	-12.2692
▁revolv	-12.2702
▁SK	-12.2708
midship	-12.2711
▁behead	-12.2714
▁Primar	-12.2715
▁wasp	-12.272
▁scal	-12.2733
▁sha	-12.2736
▁Tatt	-12.2736
him	-12.2739
issan	-12.274
▁wart	-12.2744
▁Pel	-12.2745
▁Xia	-12.2761
▁norm	-12.2763
look	-12.2769
▁Thie	-12.2771
▁sho	-12.2775
▁Coloni	-12.278
▁Dol	-12.2784
▁Bibl	-12.2785
hange	-12.279
will	-12.2792
walk	-12.2794
nant	-12.2797
iden	-12.28
acle	-12.2802
▁Explor	-12.2805
▁Rosa	-12.2806
▁Altar	-12.2808
▁cylind	-12.2808
▁beard	-12.2809
▁logistic	-12.2809
▁dose	-12.281
▁comput	-12.281
▁constrain	-12.2813
ilke	-12.2814
▁package	-12.2817
lewin	-12.2817
▁crypt	-12.2821
▁Stein	-12.2821
▁initiate	-12.2822
ê	-12.2822
▁posit	-12.2828
▁panthe	-12.2828
▁exempt	-12.283
▁compress	-12.2831
▁republic	-12.2832
▁recaptur	-12.2833
reliminar	-12.2833
▁Lyd	-12.2834
▁manifest	-12.2834
opolitan	-12.2835
vign	-12.2835
▁exam	-12.2836
▁blog	-12.2837
▁XeO	-12.2838
^	-12.2838
ỳ	-12.2838
‐	-12.2838
▁Bahrain	-12.2838
▁Carnegie	-12.2838
▁Collaborati	-12.2838
▁Competition	-12.2838
▁Cougar	-12.2838
▁Cumming	-12.2838
▁Effect	-12.2838
▁Experiment	-12.2838
▁Propaganda	-12.2838
▁Simultaneous	-12.2838
▁accolade	-12.2838
▁acquaintance	-12.2838
▁astronaut	-12.2838
▁awkward	-12.2838
▁caricature	-12.2838
▁carnival	-12.2838
▁cladogram	-12.2838
▁congress	-12.2838
▁conscript	-12.2838
▁discredit	-12.2838
▁disgrace	-12.2838
▁disillusion	-12.2838
▁façade	-12.2838
▁goalscorer	-12.2838
▁hemisphere	-12.2838
▁inconsistenc	-12.2838
▁judgment	-12.2838
▁juxtapos	-12.2838
▁meadow	-12.2838
▁overshadow	-12.2838
▁premature	-12.2838
▁rendezvous	-12.2838
▁repetition	-12.2838
▁syndrome	-12.2838
♯	-12.2838
ル	-12.2838
▁Antiquari	-12.2838
▁Concern	-12.2838
▁falcon	-12.2838
▁pencil	-12.2838
▁reappear	-12.2838
▁McKa	-12.2838
▁equilibr	-12.2838
▁seldom	-12.2838
▁susceptib	-12.2838
▁unpredictab	-12.2838
▁abdicat	-12.2838
▁undefe	-12.2838
▁Deacon	-12.2838
▁Superior	-12.2838
▁hectare	-12.2838
▁sacrament	-12.2838
▁invalid	-12.2838
▁retriev	-12.2838
▁Citizen	-12.2838
▁bayonet	-12.2838
▁ceratopsid	-12.2838
▁disqualifi	-12.2838
▁Resident	-12.2838
▁vector	-12.2838
▁eradicat	-12.2838
▁Cinque	-12.2838
▁ragale	-12.2838
▁ribbon	-12.2838
▁Lombard	-12.2838
▁lounge	-12.2838
état	-12.2838
▁Bourbon	-12.2838
▁microphone	-12.2838
▁antelope	-12.2838
▁Martín	-12.2838
▁emulat	-12.2838
▁hymeni	-12.2838
▁indemni	-12.2838
▁paradigm	-12.2838
▁wrist	-12.2838
▁undertaking	-12.2838
▁Sogn	-12.2838
▁Parrot	-12.2838
▁pseudo	-12.2838
▁Thrill	-12.2838
▁empower	-12.2838
▁Habitat	-12.2838
▁depriv	-12.2838
▁Sloven	-12.2838
▁Thunder	-12.2838
▁René	-12.2838
▁subfamil	-12.2838
▁Occupation	-12.2838
▁trash	-12.2838
▁Copper	-12.2838
▁Rutger	-12.2838
▁condens	-12.2838
▁crude	-12.2838
romiscuous	-12.2838
▁boycott	-12.2838
▁cohesi	-12.2838
▁Title	-12.2838
▁draught	-12.2838
▁Agnes	-12.2838
▁obey	-12.2838
▁rigid	-12.2839
▁Fatalit	-12.2839
▁volt	-12.2839
▁polygamist	-12.2839
▁Should	-12.2839
▁converg	-12.2839
▁blessing	-12.2839
▁Gonzale	-12.2839
▁Extra	-12.2839
▁spearhead	-12.2839
▁ministr	-12.2839
▁MacDonald	-12.2839
▁dentist	-12.2839
▁Frame	-12.2839
rebrand	-12.2839
▁monkey	-12.2839
▁Mecca	-12.2839
▁ninja	-12.2839
▁Fuji	-12.2839
▁goalkeeper	-12.284
▁viaduct	-12.284
▁Crass	-12.284
▁Issue	-12.284
▁reroute	-12.284
▁antimoni	-12.284
▁fool	-12.284
▁Susanna	-12.284
▁pilgrimage	-12.284
▁Stamp	-12.284
▁Shaiv	-12.284
▁naya	-12.284
▁tilt	-12.284
▁Anekāntav	-12.284
▁confer	-12.2841
▁Hono	-12.2841
▁socks	-12.2841
▁Bachch	-12.2841
▁toilet	-12.2841
▁pause	-12.2842
▁León	-12.2842
▁flora	-12.2842
▁Close	-12.2842
▁Schmo	-12.2842
▁unpai	-12.2842
▁Folk	-12.2842
▁Amste	-12.2842
▁Duma	-12.2842
▁Majest	-12.2842
▁reservation	-12.2842
▁Please	-12.2843
▁Innocent	-12.2843
▁Thurs	-12.2843
▁brig	-12.2843
▁Palestr	-12.2843
▁Boeing	-12.2844
▁cull	-12.2844
▁enrollment	-12.2844
[...]
